<pad>	0
<unk>	0
<s>	0
</s>	0
<0x00>	0
<0x01>	0
<0x02>	0
<0x03>	0
<0x04>	0
<0x05>	0
<0x06>	0
<0x07>	0
<0x08>	0
<0x09>	0
<0x0A>	0
<0x0B>	0
<0x0C>	0
<0x0D>	0
<0x0E>	0
<0x0F>	0
<0x10>	0
<0x11>	0
<0x12>	0
<0x13>	0
<0x14>	0
<0x15>	0
<0x16>	0
<0x17>	0
<0x18>	0
<0x19>	0
<0x1A>	0
<0x1B>	0
<0x1C>	0
<0x1D>	0
<0x1E>	0
<0x1F>	0
<0x20>	0
<0x21>	0
<0x22>	0
<0x23>	0
<0x24>	0
<0x25>	0
<0x26>	0
<0x27>	0
<0x28>	0
<0x29>	0
<0x2A>	0
<0x2B>	0
<0x2C>	0
<0x2D>	0
<0x2E>	0
<0x2F>	0
<0x30>	0
<0x31>	0
<0x32>	0
<0x33>	0
<0x34>	0
<0x35>	0
<0x36>	0
<0x37>	0
<0x38>	0
<0x39>	0
<0x3A>	0
<0x3B>	0
<0x3C>	0
<0x3D>	0
<0x3E>	0
<0x3F>	0
<0x40>	0
<0x41>	0
<0x42>	0
<0x43>	0
<0x44>	0
<0x45>	0
<0x46>	0
<0x47>	0
<0x48>	0
<0x49>	0
<0x4A>	0
<0x4B>	0
<0x4C>	0
<0x4D>	0
<0x4E>	0
<0x4F>	0
<0x50>	0
<0x51>	0
<0x52>	0
<0x53>	0
<0x54>	0
<0x55>	0
<0x56>	0
<0x57>	0
<0x58>	0
<0x59>	0
<0x5A>	0
<0x5B>	0
<0x5C>	0
<0x5D>	0
<0x5E>	0
<0x5F>	0
<0x60>	0
<0x61>	0
<0x62>	0
<0x63>	0
<0x64>	0
<0x65>	0
<0x66>	0
<0x67>	0
<0x68>	0
<0x69>	0
<0x6A>	0
<0x6B>	0
<0x6C>	0
<0x6D>	0
<0x6E>	0
<0x6F>	0
<0x70>	0
<0x71>	0
<0x72>	0
<0x73>	0
<0x74>	0
<0x75>	0
<0x76>	0
<0x77>	0
<0x78>	0
<0x79>	0
<0x7A>	0
<0x7B>	0
<0x7C>	0
<0x7D>	0
<0x7E>	0
<0x7F>	0
<0x80>	0
<0x81>	0
<0x82>	0
<0x83>	0
<0x84>	0
<0x85>	0
<0x86>	0
<0x87>	0
<0x88>	0
<0x89>	0
<0x8A>	0
<0x8B>	0
<0x8C>	0
<0x8D>	0
<0x8E>	0
<0x8F>	0
<0x90>	0
<0x91>	0
<0x92>	0
<0x93>	0
<0x94>	0
<0x95>	0
<0x96>	0
<0x97>	0
<0x98>	0
<0x99>	0
<0x9A>	0
<0x9B>	0
<0x9C>	0
<0x9D>	0
<0x9E>	0
<0x9F>	0
<0xA0>	0
<0xA1>	0
<0xA2>	0
<0xA3>	0
<0xA4>	0
<0xA5>	0
<0xA6>	0
<0xA7>	0
<0xA8>	0
<0xA9>	0
<0xAA>	0
<0xAB>	0
<0xAC>	0
<0xAD>	0
<0xAE>	0
<0xAF>	0
<0xB0>	0
<0xB1>	0
<0xB2>	0
<0xB3>	0
<0xB4>	0
<0xB5>	0
<0xB6>	0
<0xB7>	0
<0xB8>	0
<0xB9>	0
<0xBA>	0
<0xBB>	0
<0xBC>	0
<0xBD>	0
<0xBE>	0
<0xBF>	0
<0xC0>	0
<0xC1>	0
<0xC2>	0
<0xC3>	0
<0xC4>	0
<0xC5>	0
<0xC6>	0
<0xC7>	0
<0xC8>	0
<0xC9>	0
<0xCA>	0
<0xCB>	0
<0xCC>	0
<0xCD>	0
<0xCE>	0
<0xCF>	0
<0xD0>	0
<0xD1>	0
<0xD2>	0
<0xD3>	0
<0xD4>	0
<0xD5>	0
<0xD6>	0
<0xD7>	0
<0xD8>	0
<0xD9>	0
<0xDA>	0
<0xDB>	0
<0xDC>	0
<0xDD>	0
<0xDE>	0
<0xDF>	0
<0xE0>	0
<0xE1>	0
<0xE2>	0
<0xE3>	0
<0xE4>	0
<0xE5>	0
<0xE6>	0
<0xE7>	0
<0xE8>	0
<0xE9>	0
<0xEA>	0
<0xEB>	0
<0xEC>	0
<0xED>	0
<0xEE>	0
<0xEF>	0
<0xF0>	0
<0xF1>	0
<0xF2>	0
<0xF3>	0
<0xF4>	0
<0xF5>	0
<0xF6>	0
<0xF7>	0
<0xF8>	0
<0xF9>	0
<0xFA>	0
<0xFB>	0
<0xFC>	0
<0xFD>	0
<0xFE>	0
<0xFF>	0
ं	-3.25323
▁	-3.60788
ः	-3.72137
ा	-3.73622
म्	-3.95649
ो	-4.00864
े	-4.05768
▁च	-4.16344
▁स	-4.49355
▁अ	-4.86193
▁न	-4.89062
म	-5.02202
स्य	-5.05985
ाः	-5.19861
ि	-5.2298
ी	-5.2394
्य	-5.26187
स्	-5.28819
ेन	-5.44907
त	-5.45556
▁वि	-5.46115
ान्	-5.47068
▁प्र	-5.47518
य	-5.50432
र	-5.53036
ौ	-5.53802
व	-5.57359
न्	-5.59125
र्	-5.59293
श्	-5.64496
ति	-5.65953
न	-5.66355
▁तु	-5.7093
ाय	-5.72391
▁आ	-5.72756
क	-5.73709
द	-5.82394
ैः	-5.84093
ैर्	-5.89754
त्	-5.9038
या	-5.90497
प	-5.91833
▁ते	-6.01561
ते	-6.10286
ज	-6.10389
ल	-6.12309
वि	-6.12372
द्	-6.16817
▁तथा	-6.18506
▁क	-6.21241
▁सर्व	-6.21495
▁स्व	-6.22159
▁ऽ	-6.22202
▁व्	-6.22225
▁वा	-6.22332
श	-6.23327
▁सु	-6.25076
ानि	-6.25298
ात्	-6.28902
तः	-6.31671
▁देव	-6.32106
ना	-6.33341
ेण	-6.34455
स	-6.35552
प्र	-6.35938
▁एव	-6.37441
▁नि	-6.38923
ग	-6.39376
▁त	-6.42825
च	-6.42889
▁वै	-6.44458
ेषु	-6.44762
ां	-6.45457
ु	-6.46389
▁हि	-6.47769
ह	-6.4855
ता	-6.50648
ाद्	-6.51762
▁तत्र	-6.53382
न्ति	-6.53399
भ	-6.54004
सं	-6.54356
नि	-6.55535
्या	-6.56428
तो	-6.56722
▁व	-6.57239
ानां	-6.57692
▁यथा	-6.58429
▁तस्य	-6.58523
ण	-6.5974
मा	-6.60871
श्च	-6.62851
्	-6.63497
▁मे	-6.65841
▁तद्	-6.66638
स्त	-6.66783
क्ष	-6.67345
▁इव	-6.68334
▁ज	-6.68538
▁महा	-6.69119
▁इति	-6.70273
ष्ट	-6.70786
ध	-6.72872
▁धर्म	-6.72937
▁म	-6.73605
▁तत्	-6.73884
▁चैव	-6.75017
▁श	-6.75071
▁सा	-6.75301
▁य	-6.78386
▁सम	-6.78753
▁ततः	-6.79867
थ	-6.81597
▁ततो	-6.81792
ित	-6.82262
▁ह	-6.83093
ाम्	-6.83857
ै	-6.85635
त्र	-6.86466
▁कृत	-6.89498
▁परि	-6.90139
▁द	-6.91687
▁तं	-6.92297
सा	-6.92772
▁तदा	-6.9356
▁ग	-6.93662
▁प	-6.95343
ष	-6.95905
▁पुत्र	-6.95939
ास्	-6.96391
▁उप	-6.98028
▁पर	-6.98119
मान	-6.99054
▁सह	-7.00727
ैव	-7.01645
सि	-7.01731
ोप	-7.0257
भिर्	-7.03014
▁उवाच	-7.03208
तु	-7.0436
ाश्	-7.05064
न्त	-7.05101
ान	-7.06218
ेत्	-7.06557
स्थ	-7.08547
▁किं	-7.09916
▁प्रति	-7.10073
भिः	-7.1063
ङ्ग	-7.11763
तां	-7.11902
▁मम	-7.12848
यो	-7.13874
स्व	-7.14833
ार्थ	-7.1601
ाव	-7.16132
▁एक	-7.16327
▁मा	-7.16704
▁या	-7.17223
वा	-7.18129
ये	-7.1835
्वा	-7.1866
पि	-7.18993
ती	-7.19429
▁अपि	-7.20073
▁तव	-7.20662
▁यो	-7.20696
िता	-7.21403
ेत	-7.21689
▁उ	-7.22551
ण्ड	-7.23073
▁भव	-7.23427
रु	-7.23485
▁ब्रह्म	-7.24328
रि	-7.24465
न्द	-7.24645
▁ऽपि	-7.24727
▁नाम	-7.25058
भि	-7.25386
च्छ	-7.25419
रा	-7.26053
▁ये	-7.27879
स्तु	-7.2806
कार	-7.28104
▁अथ	-7.2894
ू	-7.29064
ुर्	-7.29481
▁दृष्ट्वा	-7.29547
कृत	-7.30411
देव	-7.30502
ादि	-7.30973
▁राजा	-7.31226
नं	-7.317
▁त्वं	-7.31748
▁एवं	-7.31968
▁वर	-7.32254
▁व्य	-7.33014
रूप	-7.33283
▁लोक	-7.33483
कर	-7.33633
दा	-7.33883
मु	-7.34082
न्य	-7.34709
त्य	-7.35134
ञ्च	-7.35397
व्य	-7.36025
ानु	-7.36277
▁सर्वे	-7.37015
▁त्रि	-7.37226
ाणि	-7.37356
ट	-7.37629
▁समा	-7.38604
▁तेन	-7.38727
▁यद्	-7.39184
▁रथ	-7.39316
▁विप्र	-7.39423
▁कृष्ण	-7.39504
ाणां	-7.40174
▁अनु	-7.41061
▁मह	-7.41515
मुख	-7.41882
▁काम	-7.4209
ामि	-7.42126
न्न	-7.42817
▁कु	-7.43712
▁यत्	-7.44029
सु	-7.44663
▁र	-7.44688
▁ब्राह्मण	-7.45228
▁अभि	-7.45265
▁काल	-7.45334
▁जन	-7.45505
▁बल	-7.45563
िक	-7.45806
▁निर्	-7.46054
वान्	-7.46376
्व	-7.46417
नम्	-7.46553
णा	-7.46904
हि	-7.46986
ने	-7.47062
वास	-7.47381
▁राम	-7.48021
हित	-7.48034
त्य्	-7.48647
▁पुनः	-7.48727
▁आस	-7.48839
▁ब	-7.49044
ाभि	-7.50166
▁पञ्च	-7.50885
ाद	-7.51133
द्य	-7.51774
द्र	-7.51818
▁राज	-7.52652
धि	-7.52798
▁पूर्व	-7.52881
▁पाप	-7.52894
ड	-7.53002
▁मया	-7.53022
▁इत्य्	-7.53722
का	-7.53963
धा	-7.54074
▁भ	-7.54224
ध्य	-7.54388
ैश्	-7.54727
भूत	-7.54868
ाप	-7.5488
▁नृप	-7.54974
▁का	-7.55263
ेद्	-7.555
राज	-7.5583
नु	-7.56305
यः	-7.57561
गत	-7.57782
▁सुर	-7.58343
मि	-7.58367
▁कृत्वा	-7.58821
▁वेद	-7.58902
िका	-7.59084
▁दश	-7.59199
घ	-7.59633
▁इ	-7.5969
ाह	-7.59702
भव	-7.59767
▁ना	-7.60499
▁कर्म	-7.60596
ृ	-7.61247
िनी	-7.61333
ितः	-7.61354
धर	-7.61655
▁राजन्	-7.62416
ज्ञ	-7.62545
▁छ	-7.62606
▁यत्र	-7.62696
▁त्व	-7.62768
▁ख	-7.63112
येत्	-7.63677
▁अव	-7.63714
ेन्द्र	-7.64475
क्	-7.64596
▁तम्	-7.64639
्यं	-7.65316
्यते	-7.6573
कं	-7.65788
लोक	-7.65868
ेति	-7.66082
रो	-7.6618
भ्य	-7.66346
ब	-7.66452
क्त	-7.66527
▁द्विज	-7.66533
तर	-7.66746
▁पुर	-7.67842
ैक	-7.68186
▁परम	-7.68222
योग	-7.68249
पद	-7.68456
च्	-7.68466
िर्	-7.68675
चार	-7.68787
वर	-7.69299
▁जात	-7.69325
भाव	-7.69384
्य्	-7.7019
▁शिव	-7.70367
ेश्वर	-7.70411
बल	-7.70608
ला	-7.71052
▁ह्य्	-7.711
▁विश्व	-7.71816
▁सो	-7.71839
▁इन्द्र	-7.72299
▁अन्य	-7.7241
ल्	-7.72629
नी	-7.72835
ार	-7.72845
जन	-7.73166
कम्	-7.73259
ाद्य	-7.73348
▁गुण	-7.73686
▁नर	-7.7377
▁सत्य	-7.73775
पाल	-7.73776
▁धन	-7.73869
▁यज्ञ	-7.74482
▁अन	-7.74553
यत्	-7.74594
ख	-7.7467
▁गो	-7.7468
▁वीर	-7.74755
कः	-7.7505
धर्म	-7.75084
ाङ्ग	-7.75199
पुत्र	-7.75201
▁ध	-7.75388
ीय	-7.75598
▁सदा	-7.75912
▁तां	-7.76304
▁च्	-7.7658
▁पुरुष	-7.7722
ाम	-7.77504
हार	-7.77622
▁दिव्य	-7.77824
द्ध	-7.78115
यन्	-7.78223
▁सप्त	-7.78411
▁शत	-7.78422
▁पुण्य	-7.78761
ांश्	-7.79272
ञ्ज	-7.79943
▁तद	-7.80153
▁बहु	-7.8021
▁कथं	-7.80292
वत्	-7.80355
ापि	-7.80785
कु	-7.80838
ष्ठ	-7.80895
ग्र	-7.81224
▁यदि	-7.81227
रथ	-7.8169
षु	-7.81707
त्त	-7.81892
ग्	-7.82066
▁पाण्डव	-7.82394
ितं	-7.82652
सम	-7.82789
ताम्	-7.8295
▁सुख	-7.82969
▁रक्ष	-7.83184
गुण	-7.83306
िन	-7.83323
▁यः	-7.83899
▁सोम	-7.83997
▁शर	-7.84347
न्ते	-7.84836
▁प्रिय	-7.84872
▁भवेत्	-7.85518
चि	-7.85621
ुः	-7.85787
ितम्	-7.8608
▁एष	-7.86107
▁गृह	-7.86187
ङ्क	-7.86469
ाति	-7.86991
▁मन्त्र	-7.86999
चर	-7.87024
▁तन्	-7.87144
▁सुत	-7.87166
रे	-7.87192
न्तु	-7.87438
ेय	-7.87453
▁एत	-7.87506
री	-7.87688
ैर	-7.8775
को	-7.87782
▁प्रा	-7.88044
वे	-7.88147
से	-7.89288
▁त्वया	-7.89319
ात्म	-7.8933
▁श्री	-7.89521
रण	-7.89948
त्व	-7.90328
▁उक्त	-7.90802
ास	-7.90835
ुष	-7.9086
▁चापि	-7.90891
▁पा	-7.91138
▁श्रुत्वा	-7.91185
ज्	-7.9121
▁पुनर्	-7.91342
मी	-7.91345
मह	-7.91415
युक्त	-7.91447
प्त	-7.91757
ाव्	-7.92486
▁अहं	-7.92552
ग्न	-7.92709
क्ष्य	-7.92808
ाक्ष	-7.92836
पर	-7.92999
▁योग	-7.93068
▁तथैव	-7.93084
▁तेषां	-7.93087
▁यस्य	-7.9312
▁गच्छ	-7.93387
▁कर्ण	-7.93425
▁कर	-7.93837
के	-7.93865
प्य	-7.94124
घ्न	-7.94433
र्ष	-7.94735
पाद	-7.95061
▁पुरा	-7.95204
▁भारत	-7.95299
▁प्राप्त	-7.95476
नो	-7.95747
▁उत्	-7.96555
वर्ण	-7.96892
▁ता	-7.97253
लि	-7.97287
ेव	-7.97502
▁क्ष	-7.97573
▁भूत	-7.97722
▁हर	-7.9776
च्च	-7.97838
दु	-7.98029
▁इह	-7.98076
मय	-7.9819
▁मां	-7.98226
कुल	-7.98363
ैस्	-7.98411
पुर	-7.98507
▁हरि	-7.98556
था	-7.98658
▁वन	-7.98823
▁त्व्	-7.9906
दि	-7.99438
स्थित	-7.99926
▁निर	-8.00074
वेद	-8.00141
▁सूर्य	-8.0016
▁तान्	-8.00565
▁जल	-8.01036
ज्ज	-8.01045
▁प्राण	-8.01776
िनः	-8.01871
▁स्थित	-8.02113
ाप्य	-8.02294
वन	-8.02321
▁इदं	-8.02676
▁हत	-8.02677
गण	-8.03033
▁शुभ	-8.03264
फल	-8.03666
ान्त	-8.03766
ानाम्	-8.03791
▁स्म	-8.03887
ाल	-8.04022
▁दृष्ट	-8.04072
षा	-8.04509
विध	-8.04671
मे	-8.0481
ात्मा	-8.04813
्यां	-8.05014
मेव	-8.05736
▁राक्षस	-8.0578
▁द्	-8.05991
र्य	-8.06996
▁उद	-8.07491
ाग्र	-8.0809
ीं	-8.08237
▁दुर्	-8.083
▁मुनि	-8.08366
▁पाद	-8.08366
▁जीव	-8.08372
देश	-8.08594
माण	-8.08647
▁प्रत्य	-8.08654
▁गत	-8.08798
▁विष्णु	-8.08889
▁पार्थ	-8.09003
र्थ	-8.09564
भ्र	-8.09593
▁पश्य	-8.09602
ङ्	-8.09622
कर्म	-8.0965
▁चक्र	-8.09973
हर	-8.09975
ोक्त	-8.09993
परि	-8.10001
गा	-8.10015
ांस्	-8.10364
▁वद	-8.10446
▁भय	-8.10476
काम	-8.10499
▁ह्य	-8.11193
▁रुद्र	-8.11205
ागत	-8.11382
मन्त्र	-8.11521
▁भीम	-8.1158
▁देह	-8.11707
ेश	-8.11781
▁वस	-8.1187
▁सर्वं	-8.12024
र्व	-8.12185
ाश्च	-8.12244
धन	-8.12252
ली	-8.12424
▁अप	-8.12683
▁तस्मिन्	-8.12727
▁भगवान्	-8.1273
▁वचन	-8.12754
वर्त	-8.12925
चोर्रेच्त्	-8.13103
भय	-8.13327
▁ऽथ	-8.13478
▁सहस्र	-8.13631
▁कुरु	-8.1455
▁जय	-8.14791
▁पथ्या	-8.14856
▁ततस्	-8.15036
व्रत	-8.15633
▁गुरु	-8.15711
▁बाल	-8.16015
क्षय	-8.16059
जा	-8.16078
याम्	-8.1711
भू	-8.17209
पात	-8.17831
▁येन	-8.18161
वृत्त	-8.18517
▁कार्य	-8.1858
▁नित्यं	-8.1862
▁दिव	-8.18809
▁ज्ञान	-8.18871
▁एवम्	-8.19161
▁उद्	-8.19289
शु	-8.1937
निर्	-8.19445
क्र	-8.19546
ष्ण	-8.19602
काल	-8.19617
शत	-8.19709
ोत्तम	-8.19855
▁आत्म	-8.20133
▁स्वर्ग	-8.20218
ढ	-8.20345
नः	-8.20687
गम	-8.20711
वती	-8.20883
▁अभ्य	-8.2096
वस	-8.21084
ैत	-8.21113
न्ती	-8.21361
▁दुःख	-8.21381
▁कुल	-8.22106
र्ज	-8.22454
वी	-8.22479
ष्य	-8.22939
▁मनो	-8.23489
▁युधिष्ठिर	-8.23611
िताः	-8.2379
▁श्रुत	-8.23907
▁मही	-8.23932
म्ब	-8.23934
▁तीर्थ	-8.241
धी	-8.24114
सुत	-8.24475
सेन	-8.24737
▁शृणु	-8.24751
यत	-8.24757
ज्य	-8.24799
▁क्व	-8.25189
त्स	-8.25579
▁घोर	-8.25652
णां	-8.25808
र्म	-8.25968
श्व	-8.25969
दान	-8.26061
▁एतद्	-8.26578
गृह	-8.26657
▁वर्ष	-8.2682
पु	-8.27007
ाच्	-8.27111
▁संप्र	-8.27255
▁तस्या	-8.27355
▁मृग	-8.27379
दर्शन	-8.27566
▁भू	-8.27764
स्त्व	-8.27889
दृश	-8.27916
ेद	-8.28212
मुक्त	-8.28499
ग्रह	-8.28747
न्ध	-8.28822
यु	-8.2884
णि	-8.28887
ाथ	-8.29081
▁युक्त	-8.29107
पत	-8.29119
▁को	-8.29169
सो	-8.29302
युत	-8.2981
स्तथा	-8.30122
पूर्व	-8.30344
ुर	-8.30803
षि	-8.30933
मल	-8.30941
ान्य्	-8.3099
▁नमः	-8.31006
णे	-8.31023
▁दण्ड	-8.31124
▁यम	-8.31127
▁दत्त	-8.31193
व्या	-8.31431
न्तं	-8.31486
पा	-8.31586
▁शक्र	-8.319
ेह	-8.31904
न्न्	-8.32031
▁पु	-8.32087
विश	-8.32286
▁श्र	-8.32609
▁मु	-8.32686
िभिः	-8.32799
िष्य	-8.32968
तीर्थ	-8.33326
ुप	-8.33488
ोर्	-8.33491
त्वा	-8.33548
बन्ध	-8.33745
तस्	-8.33968
▁नाग	-8.34036
▁जग	-8.34115
▁चित्र	-8.3415
मात्र	-8.34421
▁गा	-8.34513
मान्	-8.3459
▁फल	-8.34745
दत्त	-8.3489
श्चैव	-8.34967
ितो	-8.34995
ऽ	-8.35047
वद्	-8.3507
योः	-8.35529
▁परं	-8.35588
ज्ञा	-8.35681
▁पत	-8.35686
ध्व	-8.35692
फ	-8.35718
्न	-8.35745
ायां	-8.36059
्यो	-8.3606
▁चतुर्	-8.36165
शो	-8.36166
▁यदा	-8.36215
▁गत्वा	-8.36322
भाग	-8.36538
ाभ्य	-8.36544
▁नो	-8.36797
▁पितृ	-8.37017
श्र	-8.3702
यं	-8.37138
द्व	-8.37234
त्वं	-8.37322
▁दैत्य	-8.37479
वेग	-8.37551
▁त्वम्	-8.3756
▁चन्द्र	-8.37802
क्रम	-8.37884
ल्ल	-8.37908
▁रणे	-8.38042
▁सिद्ध	-8.38066
▁ल	-8.3825
▁त्र	-8.38274
ान्य	-8.38693
▁पद्म	-8.38701
▁अत्र	-8.38858
ार्थं	-8.3919
▁बाण	-8.39204
ीर	-8.39258
चक्र	-8.39348
हृत	-8.3937
▁अर्थ	-8.3951
धार	-8.39527
▁द्रोण	-8.39961
▁इम	-8.40207
▁तच्	-8.40235
▁मुक्त	-8.40302
धान	-8.40681
▁भगव	-8.40798
▁दिश	-8.41038
▁स्वयं	-8.4114
पन्न	-8.41174
▁कल	-8.41438
कल्प	-8.41491
▁महाराज	-8.41612
▁नाना	-8.42054
काः	-8.42061
वः	-8.42118
णी	-8.42283
्यमान	-8.42352
ाश्व	-8.42502
िरे	-8.42527
भा	-8.4261
कट	-8.42612
योर्	-8.42613
कल	-8.42899
ात्मज	-8.43047
▁अद्य	-8.4306
प्रभ	-8.43106
र्ह	-8.43195
▁युद्ध	-8.43317
▁पद	-8.43372
ेष्व्	-8.43517
तिष्ठ	-8.43635
▁लोके	-8.43639
▁उक्त्वा	-8.43735
ेयं	-8.43806
तम	-8.43843
ीत	-8.43853
▁चिद्	-8.43885
ेष	-8.43889
▁प्राह	-8.43963
वाद	-8.43985
▁रज	-8.44085
तुर्	-8.44371
▁नमो	-8.44479
▁ऽहं	-8.44504
▁देवा	-8.44643
र्ण	-8.4465
▁यज	-8.44707
▁ऽध्यायः	-8.44744
▁अब्रवीत्	-8.44782
तं	-8.45014
सार	-8.45029
▁पुष्प	-8.45106
यति	-8.45282
ात्र	-8.45313
ाख्य	-8.45331
शी	-8.45353
णं	-8.45454
▁ए	-8.45791
▁प्रजा	-8.45941
ल्प	-8.46146
▁भद्र	-8.4621
पूज	-8.46324
रस	-8.46383
▁तस्मात्	-8.46457
▁मद	-8.46777
यन्त	-8.46935
▁वृष	-8.46991
ाग्नि	-8.47143
▁स्त्री	-8.47209
▁तौ	-8.47343
लं	-8.47614
ाहं	-8.47746
नाद	-8.47813
▁रूप	-8.47917
▁कश्	-8.47946
▁पृथिवी	-8.47952
ीति	-8.47978
▁त्वां	-8.48069
▁पितर	-8.4822
जात	-8.4841
▁ऽयं	-8.48508
▁बभूव	-8.48552
ज्ञान	-8.4863
विद	-8.48855
▁जान	-8.48898
्र	-8.4904
▁गण	-8.49102
▁अस्य	-8.49114
▁भाव	-8.49146
वाह	-8.49452
▁देवी	-8.49497
▁वज्र	-8.49601
▁शि	-8.49676
प्रिय	-8.49745
▁अति	-8.498
नीय	-8.4986
ाभ्यां	-8.4998
▁मुख	-8.49986
ाप्य्	-8.50039
▁चित्	-8.50257
▁पि	-8.50376
विष्ट	-8.50507
▁वाच	-8.5076
▁यस्	-8.50792
▁एतत्	-8.51006
▁यत	-8.51042
▁निष्	-8.51088
ेर्	-8.51147
िना	-8.51216
▁कन्या	-8.51276
लक्षण	-8.51295
मिति	-8.51317
▁शूर	-8.51369
ीर्	-8.51408
जय	-8.5157
▁वध	-8.51582
▁तम	-8.51626
▁परा	-8.51748
▁कल्प	-8.51822
▁नव	-8.5185
देह	-8.52076
ञ्	-8.52138
▁तात	-8.52144
पति	-8.52187
▁घ	-8.52189
न्द्र	-8.5239
िल	-8.52507
▁यथ	-8.52607
भी	-8.52738
घात	-8.52775
ासु	-8.52804
▁भीष्म	-8.52844
▁वायु	-8.5308
ज्वल	-8.53098
▁के	-8.53134
▁तस्माद्	-8.53267
▁पार्थिव	-8.53603
▁प्राप्य	-8.53676
▁देश	-8.53679
▁ई	-8.53922
▁ब्रह्मण	-8.53932
▁किम्	-8.53948
▁शिर	-8.5416
▁व्या	-8.54371
▁स्यात्	-8.54439
▁मधु	-8.54521
न्तो	-8.54553
चित	-8.54652
र्क	-8.54675
स्मृत	-8.547
खिल	-8.5473
▁व्रत	-8.54766
तार	-8.54825
▁क्रोध	-8.55012
▁भार्या	-8.55109
▁एते	-8.55233
हत	-8.55283
▁मृत	-8.55297
सर्व	-8.55365
ान्तर	-8.55445
सत्तम	-8.5586
ैश्च	-8.55982
▁ऋ	-8.5602
हा	-8.56189
श्रेष्ठ	-8.56307
▁तिष्ठ	-8.56308
सहस्र	-8.56471
ह्	-8.57177
वार	-8.57426
▁अग्नि	-8.57476
▁ऋषि	-8.57481
गच्छ	-8.5775
भु	-8.58003
वो	-8.58117
रात्र	-8.5818
▁जगत्	-8.58227
▁द्वि	-8.58307
▁सूत	-8.58324
▁मित्र	-8.58619
▁इच्छ	-8.58929
समा	-8.59014
लय	-8.59032
▁गज	-8.59098
विष	-8.59104
की	-8.59182
राग	-8.59291
वर्ष	-8.59378
रुण	-8.59458
बुद्ध	-8.59629
क्षि	-8.59679
कर्ण	-8.59692
▁कि	-8.59945
स्मि	-8.60027
▁भविष्यति	-8.60133
ास्त्र	-8.60315
लोचन	-8.60558
हं	-8.60607
▁वे	-8.60609
दार	-8.60641
शि	-8.60647
मूल	-8.60923
▁विविध	-8.6097
नाम	-8.60987
▁उपा	-8.61029
राध	-8.61031
▁अहम्	-8.6105
▁वर्ण	-8.61525
न्त्य्	-8.61562
ार्त	-8.61586
ाञ्	-8.61802
ाधिप	-8.61849
ख्य	-8.61863
महा	-8.61892
यित्वा	-8.61935
▁सिंह	-8.61964
▁नारद	-8.62116
च्युत	-8.62169
▁संशयः	-8.62216
वृत	-8.62219
▁हस्त	-8.6235
▁प्रण	-8.62645
द्वि	-8.62908
रोह	-8.63091
पत्	-8.63094
सः	-8.63205
हस्त	-8.63316
▁क्रुद्ध	-8.63471
मन	-8.63556
▁दद	-8.63599
यां	-8.63709
▁महत्	-8.63715
स्थान	-8.63724
▁नैव	-8.63757
▁दानव	-8.63834
स्र	-8.63899
▁मोह	-8.63959
▁अस	-8.64022
▁मान	-8.6406
▁आत्मन	-8.64085
सह	-8.64298
▁गङ्गा	-8.64495
हु	-8.6455
भुज	-8.64614
ासन	-8.64684
ृण	-8.64699
ेभ्यो	-8.64867
प्	-8.65143
मास	-8.65215
▁पति	-8.65297
ाश्रम	-8.65349
द्वय	-8.65472
नाथ	-8.6552
▁तथ	-8.65613
▁विद्या	-8.65614
▁स्याद्	-8.65777
▁कृ	-8.65904
ृष	-8.65904
▁वत्स	-8.65913
▁तत्त्व	-8.66077
▁द्वादश	-8.66257
▁शरीर	-8.66376
गम्य	-8.66428
शंस	-8.66664
ताप	-8.66912
ोत्तर	-8.67146
नन्दन	-8.67308
स्त्र	-8.67432
चिद्	-8.67743
दिश	-8.67763
सौ	-8.67896
▁क्षण	-8.67963
▁भा	-8.67966
ान्वित	-8.68073
लिङ्ग	-8.68525
▁स्मर	-8.68564
▁क्षत्रिय	-8.68629
▁मन्द	-8.68679
▁युग	-8.68845
▁विष	-8.68884
िष्ठ	-8.6902
भृत	-8.69049
▁जन्म	-8.69056
▁पर्वत	-8.69095
▁प्रीत	-8.69299
▁नारायण	-8.69391
▁गिर	-8.69698
▁भवति	-8.6985
▁मन	-8.69894
सी	-8.69958
दश	-8.70217
▁क्र	-8.70243
त्थ	-8.70345
▁जप	-8.70371
त्या	-8.70428
▁अस्म	-8.70444
दर्श	-8.70518
ित्वा	-8.70542
▁महारथ	-8.70629
र्च	-8.70654
ीनां	-8.70661
▁विध	-8.70836
▁व्रज	-8.70936
काश	-8.71052
तुः	-8.71107
▁जगाम	-8.71169
▁सर्वान्	-8.71328
▁ध्रुव	-8.71449
▁श्व	-8.71577
स्ता	-8.71605
▁सर्वा	-8.71812
▁रत्न	-8.71838
▁अप्य्	-8.71838
वच	-8.71907
▁वासुदेव	-8.71989
मथ	-8.72353
▁स्थान	-8.72461
▁चिर	-8.72512
वै	-8.72697
▁अश्व	-8.7275
▁शुद्ध	-8.72794
▁मूल	-8.72957
▁मानुष	-8.72961
पत्र	-8.73016
▁प्रथम	-8.73018
▁चर	-8.73188
युर्	-8.73204
▁हृदय	-8.73324
यन्ति	-8.73425
क्षु	-8.73426
▁आप	-8.73506
▁नित्य	-8.73571
▁निहत	-8.73596
▁पितामह	-8.7361
पत्य	-8.7366
▁भूमि	-8.73661
▁भूय	-8.73747
ुक	-8.73771
िणी	-8.73795
▁दक्षिण	-8.73854
वद	-8.73907
▁शक्ति	-8.74085
▁वास	-8.74151
▁शूद्र	-8.74176
▁कथ	-8.74228
मन्य	-8.74257
▁स्वयम्	-8.74277
▁श्राद्ध	-8.74532
▁मय	-8.74539
▁पुन	-8.74585
▁दि	-8.74746
▁ययौ	-8.75044
पथ	-8.75053
▁प्रोक्त	-8.75069
ूष	-8.75096
▁आगत	-8.7519
▁महाभाग	-8.75226
वन्त	-8.75253
कृत्	-8.75258
णम्	-8.75283
▁अह	-8.75351
गु	-8.7549
ानन	-8.7552
▁पित	-8.75652
द्रव	-8.7566
ासि	-8.75684
ठ	-8.75781
जि	-8.75829
ायुध	-8.75867
नीत	-8.76065
▁प्रसाद	-8.76236
▁ऽन्य	-8.76254
शेष	-8.76429
▁रस	-8.76516
क्रान्त	-8.76534
▁समरे	-8.76576
दृष्ट	-8.76723
िनो	-8.76821
समन्वित	-8.76961
▁अष्ट	-8.76999
शील	-8.77094
▁मृ	-8.77291
▁दान	-8.77382
सृज	-8.77394
ाधि	-8.77632
▁त्रय	-8.77673
ध्वज	-8.77736
▁अङ्ग	-8.77953
▁दोष	-8.78018
▁दुर्योधन	-8.7806
र्द	-8.78319
▁दध	-8.78319
▁भुज	-8.78329
वेश	-8.78483
▁दैव	-8.786
मना	-8.78665
धाव	-8.78848
▁आह	-8.78861
मुच्यते	-8.78881
▁स्मृतः	-8.78911
▁नास्ति	-8.78934
▁निज	-8.79013
▁पुराण	-8.79077
स्तस्य	-8.79186
▁हय	-8.79244
▁पूर्वं	-8.79363
▁ऋत	-8.7938
नन्द	-8.79465
वश	-8.79473
तप	-8.79506
ाम्य्	-8.79651
▁स्त्रिय	-8.79669
▁गिरि	-8.79679
▁शत्रु	-8.79944
मण्डल	-8.8016
▁ब्रह्मा	-8.80265
सर	-8.80291
ष्	-8.80627
सुर	-8.80796
बाहु	-8.80797
▁पर्य	-8.80862
▁वृद्ध	-8.80912
ुस्	-8.80946
▁नरः	-8.81129
▁न्य	-8.81139
सिद्ध	-8.81144
▁वचः	-8.81151
▁शुचि	-8.81164
▁माम्	-8.81212
दध	-8.81236
▁रु	-8.81344
▁पिता	-8.81551
▁यद	-8.81755
▁गर्भ	-8.81757
▁मार्ग	-8.81795
▁मृत्यु	-8.81821
▁इत्य	-8.82001
▁भीमसेन	-8.8209
द्वीप	-8.82124
▁ददर्श	-8.82286
▁स्नान	-8.82515
ोपम	-8.82529
स्था	-8.82567
रत्न	-8.82659
भक्त	-8.82773
▁भूत्वा	-8.82795
भेद	-8.82923
भाष	-8.82965
शः	-8.83061
शङ्क	-8.83114
लो	-8.83154
सहस्राणि	-8.83263
शिर	-8.83274
▁वापि	-8.83318
त्रि	-8.834
▁शक्त	-8.83403
▁गन्धर्व	-8.83412
पतिः	-8.83512
द्भुत	-8.83575
रुह	-8.83677
यम	-8.83695
ीयते	-8.83711
माल	-8.83819
▁अध	-8.83851
िर	-8.83876
फलं	-8.83879
▁धि	-8.83884
दुर्	-8.84444
जीव	-8.84515
तृ	-8.84577
▁भवान्	-8.84578
ष्व	-8.84704
कि	-8.84722
भिश्	-8.84733
ण्य	-8.84753
कर्त	-8.84805
मन्त	-8.84836
न्तः	-8.84972
पश्य	-8.85203
सन्	-8.8521
▁देवता	-8.85254
▁रावण	-8.85289
वीर	-8.85341
त्सु	-8.8536
▁सत्त्व	-8.85395
रू	-8.85402
▁कारण	-8.85473
मुद	-8.85512
▁तस्मै	-8.85584
▁परमं	-8.85663
मध्य	-8.85664
गन्ध	-8.85705
▁श्रिय	-8.85763
ोऽ	-8.85922
▁स्नात्वा	-8.85936
मुप	-8.85967
श्रुत	-8.86119
▁बुद्धि	-8.86136
▁राज्य	-8.86181
खण्ड	-8.86247
हू	-8.86272
▁अज	-8.86284
▁त्वा	-8.86412
मित्र	-8.86717
▁तर	-8.86733
▁साध	-8.86762
ेषां	-8.86825
▁बुध	-8.86831
दिष्ट	-8.86879
भौ	-8.86888
न्त्य	-8.86936
▁वानर	-8.87044
ादिक	-8.8713
▁मति	-8.87177
शिख	-8.87261
लम्ब	-8.87309
▁द्वितीय	-8.87436
भोग	-8.87572
▁जायते	-8.87621
त्रय	-8.87727
▁शब्द	-8.87864
पक्ष	-8.8803
पुष्प	-8.88137
धू	-8.88299
▁मोक्ष	-8.88339
▁भाग	-8.88397
▁नृ	-8.88503
णो	-8.8886
▁अथा	-8.88968
▁पूर्ण	-8.89089
संज्ञ	-8.89214
ून	-8.89423
▁विधि	-8.89479
▁राजेन्द्र	-8.89535
मद	-8.89572
रोग	-8.89601
▁सर्वभूत	-8.89617
▁दत्त्वा	-8.89627
रण्य	-8.89669
प्राप्त	-8.89711
▁ऽभि	-8.89718
▁कदा	-8.89874
▁वाक्यं	-8.89877
▁मास	-8.89906
ष्टि	-8.89986
भार	-8.90044
तेजस	-8.90257
चित्	-8.90338
धु	-8.90344
▁साधु	-8.90351
▁दूर	-8.90357
कृत्य	-8.90467
वृद्ध	-8.90468
बुध	-8.90582
सम्	-8.90719
▁वृ	-8.90818
कैः	-8.90856
▁केशव	-8.90859
▁तप	-8.90958
▁चक्रे	-8.90995
▁ऽभवत्	-8.91076
▁यन्	-8.91076
पय	-8.91078
▁ताम्	-8.91161
िनाम्	-8.91202
यते	-8.91257
कृ	-8.913
न्तर	-8.91418
▁महादेव	-8.91485
▁तार	-8.91486
प्रति	-8.91559
▁भोग	-8.9166
सू	-8.91698
▁शोक	-8.91719
▁गोप	-8.91746
▁समुद्र	-8.91816
प्स	-8.91862
स्ते	-8.92053
▁पार	-8.92168
कार्य	-8.92202
मूर्ध	-8.92379
जल	-8.92418
▁प्रया	-8.9243
▁गन्ध	-8.92538
युग	-8.92845
ोदय	-8.92933
िष्यति	-8.93205
▁प्रभुः	-8.9322
न्दु	-8.93447
द्रुम	-8.93599
▁कथित	-8.93641
▁पक्ष	-8.93661
वह	-8.93721
कृति	-8.93861
यामास	-8.93951
▁महान्	-8.94049
▁विश	-8.94075
▁अधि	-8.94076
प्रद	-8.94211
दोष	-8.94229
वित्	-8.94235
मनु	-8.94281
दाय	-8.94521
▁उत्तर	-8.94555
▁नरक	-8.94558
▁द्वार	-8.94605
▁ऽप्य्	-8.94696
बोध	-8.94742
जित	-8.94791
▁काले	-8.94793
▁अवि	-8.94826
च्छि	-8.9485
▁माया	-8.94851
▁वश	-8.94852
▁शैल	-8.94875
ुं	-8.94897
▁प्रभो	-8.95145
येद्	-8.95228
रक्ष	-8.95247
▁राज्ञा	-8.95261
वाच	-8.95265
▁उच्यते	-8.95307
▁उत	-8.95432
ार्ध	-8.955
वन्	-8.95552
▁महात्मनः	-8.95585
▁पतित	-8.95609
कम्प	-8.95793
▁दक्ष	-8.95798
नाय	-8.95844
पीड	-8.95892
रव	-8.96014
▁विद्यते	-8.96111
ीश्वर	-8.96211
नृत	-8.96259
सर्ग	-8.96266
वाहन	-8.96272
सङ्ग	-8.96317
▁भुवि	-8.96362
राज्ञ	-8.96444
▁हित	-8.96446
जु	-8.96485
▁अयं	-8.96603
▁ऽत्र	-8.96689
▁किल	-8.96741
िते	-8.9698
▁विनि	-8.96991
ान्ते	-8.97017
दुःख	-8.97185
वध	-8.97261
यू	-8.9738
▁परम्	-8.97434
व्	-8.97452
▁राघव	-8.97455
वृ	-8.97523
▁तुष्ट	-8.97527
▁तपो	-8.97558
▁श्रेष्ठ	-8.9766
स्पर्श	-8.97688
ह्य	-8.9769
▁नील	-8.9773
▁सहित	-8.97754
क्षत	-8.97947
▁याति	-8.97951
▁रक्त	-8.97987
▁मद्	-8.98032
ूर	-8.98069
▁सैन्य	-8.98089
▁क्रिया	-8.98182
ाश्रय	-8.98215
वक्त्र	-8.98331
हन	-8.98349
कीर्ण	-8.98405
पान	-8.98577
▁ताव	-8.98627
सुख	-8.98835
गो	-8.98901
▁सू	-8.99107
▁चिन्तय	-8.99165
युः	-8.99287
मार्ग	-8.99432
▁हेम	-8.99576
ैष	-8.99654
▁कौरव	-8.99839
मित	-8.99839
▁मानव	-8.99902
▁प्रेत	-9.00006
▁नदी	-9.00038
▁भोज	-9.001
व्यय	-9.00157
यात्	-9.00178
वीर्य	-9.00181
ितुम्	-9.00233
कोटि	-9.00326
▁भ्रात	-9.00368
योनि	-9.00378
▁शक्य	-9.00429
यज्ञ	-9.0054
▁वसु	-9.00561
▁यक्ष	-9.0064
▁शा	-9.00657
मिव	-9.00668
▁अहो	-9.00689
▁भक्त्या	-9.00692
करो	-9.00766
चन्द्र	-9.00785
र्ध्व	-9.01052
▁दीर्घ	-9.01085
▁घृत	-9.01092
णाम्	-9.01147
▁क्षु	-9.01443
▁नु	-9.01615
भुव	-9.01654
रेण	-9.01884
▁वह	-9.01922
ास्ते	-9.01954
र्षि	-9.0199
चेतस	-9.02111
शोक	-9.02283
कुट	-9.02303
▁महेश्वर	-9.02375
▁लक्ष्मण	-9.02424
ोदर	-9.02462
▁छ्रुत्वा	-9.02477
▁त्वत्	-9.02611
ाणाम्	-9.02656
▁एता	-9.02716
▁क्षम	-9.02732
योजन	-9.02986
ेच्छ	-9.03122
▁नान्य	-9.03204
भिर	-9.03331
▁वो	-9.03383
▁तया	-9.0339
श्रु	-9.03483
▁मनसा	-9.03615
▁गता	-9.03634
▁कर्मणा	-9.03738
▁विना	-9.03743
करण	-9.03751
पूर्ण	-9.0377
▁स्त	-9.03773
स्पृश	-9.0386
▁दु	-9.03864
पते	-9.03878
▁शु	-9.03898
▁ऽस्मि	-9.03956
ययौ	-9.03959
▁महाबल	-9.03977
ेभ्यः	-9.0398
▁दिन	-9.04041
तले	-9.04089
▁अन्व	-9.04189
ीकृत	-9.04209
ेदं	-9.04221
▁दर्शन	-9.04237
च्छ्र	-9.04323
▁सहसा	-9.04324
ेनैव	-9.04327
▁पुत्रो	-9.04356
▁वृत्त	-9.04383
ध्वं	-9.04406
▁मत	-9.04444
▁अन्न	-9.04517
▁तपसा	-9.04548
ग्ध	-9.0463
ब्ध	-9.0463
▁मध्ये	-9.0496
मू	-9.05056
▁केन	-9.05084
▁शश	-9.05127
ोदक	-9.05259
▁क्षेत्र	-9.0541
▁देवदेव	-9.05482
मृत	-9.05534
ांसि	-9.05535
ट्ट	-9.05616
▁कस्य	-9.05675
▁पिब	-9.05774
मति	-9.05838
जन्म	-9.0584
▁यच्	-9.05868
▁महात्मना	-9.06006
र्ध	-9.06009
▁प्रीति	-9.06162
▁गतः	-9.06203
▁वृक्ष	-9.06241
▁जनार्दन	-9.06287
हृ	-9.06388
▁पित्र	-9.06559
ख्यात	-9.06571
ुद	-9.06572
शोभ	-9.06579
पूर	-9.06662
▁हा	-9.06749
र्द्ध	-9.06752
मेत	-9.06807
ध्याय	-9.06811
▁कृतं	-9.06981
▁मत्	-9.0699
▁ग्रह	-9.07013
क्षिप	-9.07111
▁सृष्ट	-9.07204
▁ईश्वर	-9.07224
भूषण	-9.07242
▁ऽसि	-9.07242
▁कर्तव्य	-9.07248
िषु	-9.07401
मानो	-9.07524
▁समुप	-9.07526
▁पूजय	-9.07556
श्वास	-9.07628
िणः	-9.07671
सत्त्व	-9.07709
▁उत्तम	-9.07766
▁मध्य	-9.07801
▁भरत	-9.07808
ञ्छ	-9.07818
मपि	-9.07892
▁ऽसौ	-9.07955
▁इदम्	-9.0802
ाकुल	-9.08045
छ	-9.08072
▁चिन्	-9.08166
कारण	-9.08171
ुश्	-9.08203
▁सर्वपाप	-9.08271
▁व्यास	-9.08461
त्तम	-9.08511
ब्रह्म	-9.0852
▁हत्वा	-9.08591
ब्रवीत्	-9.08632
सिंह	-9.08673
▁नमस्	-9.08793
▁जीवित	-9.08823
प्लव	-9.08867
▁ददौ	-9.08978
िनां	-9.09009
▁वने	-9.09056
ाश्रित	-9.09064
▁बद्ध	-9.09158
▁ज्ञात	-9.09209
ांश	-9.09257
पत्नी	-9.09294
▁ज्ञेय	-9.09326
▁सततं	-9.09487
▁कथा	-9.09548
तत्त्व	-9.09548
वर्ग	-9.09592
▁स्थ	-9.09598
▁तृतीय	-9.0972
संयुक्त	-9.09753
मोह	-9.09861
▁शङ्ख	-9.09973
्यन्ते	-9.10046
▁भज	-9.10083
दण्ड	-9.10132
▁कार्यं	-9.10164
▁स्र	-9.10256
चिर	-9.10437
▁शीघ्र	-9.10439
▁ऽनु	-9.10466
विक्रम	-9.10475
दृ	-9.10524
▁ऽस्तु	-9.10532
ान्न	-9.10551
रह	-9.10641
मुख्य	-9.10771
▁महता	-9.10831
▁ज्ञात्वा	-9.10881
▁द्विजोत्तम	-9.1091
▁वार	-9.10938
▁दुर	-9.11024
▁शस्त्र	-9.11158
िष्यामि	-9.11164
▁शान्त	-9.11166
▁फलं	-9.11348
▁नन्द	-9.11384
▁श्वेत	-9.11443
ेष्व	-9.11482
▁ऽन	-9.115
मध्ये	-9.11529
धिक	-9.11539
▁मनः	-9.11578
▁मनुष्य	-9.11632
ज्ञाय	-9.11812
संभव	-9.11945
▁ज्योति	-9.11952
▁लिङ्ग	-9.11957
हास	-9.12
▁कुमार	-9.12137
▁मर्त्य	-9.12137
क्ल	-9.12195
▁अर्जुन	-9.12209
ौघ	-9.12226
▁वय	-9.12326
▁प्राप	-9.12335
▁पृष्ट	-9.1238
▁सागर	-9.12394
▁पीत	-9.12397
यान	-9.12551
▁ब्	-9.12678
मयं	-9.12724
▁ष	-9.12772
नयन	-9.12792
▁शूल	-9.12861
▁भक्ति	-9.12928
▁नराधिप	-9.1311
त्रिंश	-9.13121
▁किम	-9.13126
▁धनंजय	-9.13126
ून्	-9.13219
▁विपुला	-9.13241
▁ऽस्य	-9.13337
भाषत	-9.1338
▁तिल	-9.13444
▁अन्त	-9.13474
▁जित	-9.13521
▁मत्स्य	-9.13585
▁हृष्ट	-9.13605
ाम्बु	-9.13673
धृत	-9.13688
ीव	-9.137
ात्मना	-9.13824
भिस्	-9.13969
▁गदा	-9.14083
ासुर	-9.1425
▁सत्यं	-9.14274
परायण	-9.14287
जाल	-9.1437
शास्त्र	-9.14386
▁बृह	-9.14403
▁वयं	-9.1441
▁भक्त	-9.14463
ार्ह	-9.14676
▁सनातन	-9.14771
तीर	-9.14954
चिन्त्य	-9.15015
घ्र	-9.1504
कथ	-9.15044
▁कौ	-9.15133
▁वृत	-9.15164
▁मणि	-9.15203
गति	-9.15209
▁ज्येष्ठ	-9.15231
▁भरतर्षभ	-9.15241
न्तम्	-9.15272
ावृत	-9.15519
रम्भ	-9.15584
द्भिर्	-9.15627
मत्त	-9.15651
बु	-9.15755
भूत्	-9.15836
ाद्या	-9.15871
स्ति	-9.15887
राम	-9.1589
हीन	-9.15922
▁नगर	-9.15948
दन	-9.15966
▁त्रैलोक्य	-9.15975
▁अर्हसि	-9.16069
पू	-9.16231
संख्य	-9.16363
▁माता	-9.16415
प्रसाद	-9.16466
ार्य	-9.16489
▁विजय	-9.1652
▁कथय	-9.16544
ात्मक	-9.16572
र्तु	-9.16646
▁श्रेय	-9.16735
भार्य	-9.16758
▁कान्त	-9.16762
ात्मनः	-9.16793
▁शिष्य	-9.1701
▁भग	-9.17037
कान्	-9.17121
ध्र	-9.17121
पाप	-9.17155
▁भगवन्	-9.17233
▁यान्ति	-9.17237
ष्म	-9.17247
पराक्रम	-9.1725
स्त्रि	-9.17289
▁दह	-9.17306
▁अस्त्र	-9.17372
दिन	-9.17417
ष्टु	-9.17471
▁त्यज	-9.17585
पुराण	-9.17612
▁शास्त्र	-9.1762
▁सीता	-9.17673
बान्धव	-9.17766
▁एषा	-9.17801
▁शेष	-9.17801
▁ब्रूहि	-9.1805
▁सन्	-9.18154
कर्ष	-9.18241
▁सर्प	-9.18304
च्य	-9.18345
क्षिप्त	-9.18519
▁वीर्य	-9.18578
▁हिम	-9.1859
्यै	-9.18642
▁आद	-9.18753
▁चकार	-9.19
चुः	-9.19154
▁हंस	-9.19157
▁सर्वेषां	-9.19291
▁धनुर्	-9.19312
▁विन	-9.19457
▁रम	-9.19469
▁स्था	-9.19645
▁ऽभ्य	-9.19648
काले	-9.19681
▁दुष्ट	-9.1969
▁मेघ	-9.1974
▁शरैः	-9.19872
शिष्ट	-9.19953
▁हिरण्य	-9.20001
▁इत	-9.20041
सृ	-9.20102
▁पूर	-9.20115
▁मुने	-9.20133
गद	-9.20144
▁ग्राम	-9.20217
ल्य	-9.20261
नव	-9.20342
ालय	-9.20553
▁हृत	-9.20569
पर्ण	-9.20642
तल	-9.20668
▁क्षिप्र	-9.20766
ेत्य	-9.20772
▁भवेद्	-9.20775
ड्	-9.20895
▁पूज्य	-9.20946
▁सुता	-9.20988
निश्चय	-9.21062
▁पृथक्	-9.21107
शब्द	-9.21126
भ्यो	-9.21181
▁दीप	-9.21414
मेक	-9.21458
▁कुर्यात्	-9.21513
रूढ	-9.21586
▁रे	-9.21589
▁रण	-9.217
▁विद्य	-9.21705
▁वरुण	-9.2171
▁यज्ञ्स्	-9.21839
▁चान्य	-9.2189
▁कृप	-9.21965
▁ऋषय	-9.22081
▁क्रीड	-9.2211
▁सेना	-9.22223
ांश्च	-9.22289
बि	-9.22422
▁ख्यात	-9.22478
▁सेव	-9.22575
ूर्	-9.22728
ीष	-9.22731
ेक्षण	-9.22745
ाण्य्	-9.22753
रक्त	-9.22784
▁दम	-9.22898
शासन	-9.22955
▁विशेष	-9.23098
▁यात	-9.23163
परा	-9.23196
▁गौर	-9.23235
▁पिण्ड	-9.23252
दिति	-9.23286
द्रुत	-9.23372
▁वाम	-9.23379
ग्नि	-9.23414
▁आदाय	-9.23456
▁पाञ्चाल	-9.23533
▁आदि	-9.23643
सृष्ट	-9.2369
जान	-9.23717
▁एन	-9.23739
सक्त	-9.23742
ञ्जन	-9.23909
▁वाज	-9.23917
▁युधि	-9.23955
▁वर्ध	-9.24157
त्याग	-9.24262
चिन्तय	-9.24306
दर्प	-9.24363
▁कोप	-9.24381
क्षेप	-9.24469
▁दीप्त	-9.24494
▁लब्ध	-9.24503
विस्तर	-9.24524
शौच	-9.24563
दन्त	-9.24583
नेत्र	-9.24611
▁भृश	-9.24616
▁धृत	-9.24693
स्मिन्	-9.24756
बुद्धि	-9.24861
स्तत्र	-9.24862
सर्ज	-9.24891
ेन्द्रिय	-9.24954
▁उग्र	-9.24958
▁राज्यं	-9.25033
▁सकल	-9.25087
▁विषय	-9.25125
▁नृपः	-9.25254
▁पाण्डु	-9.25367
णु	-9.25383
ूनां	-9.25396
▁ऽव	-9.25411
▁नाश	-9.2545
▁चोम्पोउन्द	-9.25566
▁अमृत	-9.25637
रूपेण	-9.25677
पल	-9.25709
तीत	-9.25766
▁रम्य	-9.25769
वर्तत	-9.25818
▁वसिष्ठ	-9.25826
ादित्य	-9.25968
ाकार	-9.25969
कूट	-9.25997
▁दार	-9.26072
भूद्	-9.26178
रज	-9.26391
▁सभा	-9.26513
▁दृढ	-9.266
काय	-9.26614
▁वैश्य	-9.2663
▁भो	-9.26661
▁तपः	-9.26694
▁सर्वशः	-9.26699
दक्षिण	-9.26705
तान	-9.26728
▁ऋष	-9.26799
ापर	-9.2685
ूत	-9.26875
श्याम	-9.26968
भृ	-9.27011
सूय	-9.27069
क्रिया	-9.27071
▁वंश	-9.27076
िह	-9.27172
लोके	-9.27187
▁शुक्ल	-9.27274
▁शाप	-9.27274
ात्मानं	-9.27307
▁असि	-9.27344
द्वार	-9.27349
स्वन	-9.27368
▁देवि	-9.27465
▁ब्रह्मोवाच	-9.27495
▁सर्वलोक	-9.27538
त्वम्	-9.27554
कण्ठ	-9.27595
संघ	-9.27635
▁षट्	-9.27678
लु	-9.27729
▁धारय	-9.27736
केश	-9.27856
▁नर्मदा	-9.27876
▁महाबलः	-9.28
ांशु	-9.28138
मन्यु	-9.28151
▁कुर्या	-9.28175
गर्भ	-9.28192
▁हर्ष	-9.28269
▁उत्तमम्	-9.28311
▁मत्त	-9.28618
▁अग्र	-9.28669
वाक्य	-9.2871
विधान	-9.2872
▁कुम्भ	-9.28736
▁पावक	-9.28843
ानाम	-9.28889
ैनं	-9.29001
ार्णव	-9.29032
ानुग	-9.29077
द्वा	-9.29094
शक्ति	-9.29097
▁महात्मान	-9.29148
भर्त	-9.29178
▁क्षय	-9.29226
पुण्य	-9.29342
▁स्थिता	-9.29351
चरित	-9.29367
▁कुश	-9.29396
▁नात्र	-9.29454
▁केवल	-9.29479
वल	-9.29586
गमन	-9.29632
▁यत्न	-9.2974
▁महद्	-9.29768
▁दक्षिणा	-9.29876
म्बु	-9.29893
▁तिर	-9.29911
तीव	-9.29922
▁आदित्य	-9.29955
▁मातर	-9.30019
▁समन्ततः	-9.30089
▁क्रम	-9.30128
▁सिद्धि	-9.30133
मङ्गल	-9.30302
▁चास्य	-9.3034
▁कमल	-9.30501
ुष्य	-9.30568
श्रवण	-9.30581
ाशु	-9.30608
▁द्विजाः	-9.30639
▁इय	-9.3069
तश्	-9.30717
ास्तु	-9.30734
शय	-9.30792
पुरुष	-9.30836
र्षभ	-9.3084
▁केश	-9.30856
▁स्मृतम्	-9.30948
मिदं	-9.3104
क्ष्म	-9.31135
▁युद्धे	-9.31159
म्बर	-9.31208
▁मन्ये	-9.31285
▁दुर्ग	-9.31296
▁चाप	-9.31319
▁काञ्चन	-9.31323
ाञ्जलि	-9.31355
संयुत	-9.31363
वृत्ति	-9.31367
▁प्राय	-9.31413
बाध	-9.31425
ेश्वरः	-9.31495
▁वर्त	-9.31548
माहात्म्य	-9.316
मानस	-9.31635
प्लुत	-9.31711
▁धृतराष्ट्र	-9.31713
▁प्रजाः	-9.31863
द्यु	-9.32079
▁सुवर्ण	-9.32253
ज्ञात	-9.32266
▁बाहु	-9.32295
पतिर्	-9.32323
▁षड्	-9.3238
स्यापि	-9.32413
वंश	-9.3243
▁मुनय	-9.32502
▁पृष्ठ	-9.32559
▁कुरुते	-9.32676
▁पौर	-9.32678
▁करिष्य	-9.32826
▁मनु	-9.32851
▁मनस	-9.32861
▁लक्ष	-9.32909
सित	-9.33033
मुद्	-9.33045
वर्जित	-9.33249
ाप्नोति	-9.33303
ग्रीव	-9.33327
र्जित	-9.33403
िनि	-9.33443
▁स्मृताः	-9.3351
▁तोय	-9.33536
शाल	-9.33554
हर्ष	-9.33572
त्त्र	-9.33587
दय	-9.33588
▁त्यक्त्वा	-9.33633
विद्या	-9.33695
▁विश्वा	-9.33705
वादिन	-9.33912
शार्दूल	-9.33918
▁क्षीर	-9.33948
मार	-9.33974
▁कृत्स्न	-9.34142
दिव	-9.34183
▁वह्नि	-9.34301
▁देय	-9.34309
▁रूपं	-9.34406
भ्यां	-9.34544
ब्रव	-9.34544
द्युति	-9.34549
▁क्षत्र	-9.34642
▁ध्वज	-9.34643
गिर	-9.34657
ङ्गुल	-9.34658
▁मयि	-9.3467
▁खड्ग	-9.34785
▁इष्ट	-9.34797
▁विमान	-9.34821
▁वाक्यम्	-9.34824
ोषित	-9.3493
▁सुमहा	-9.34985
▁चतुर्थ	-9.35034
▁भ्रम	-9.35056
वीत	-9.35069
▁ब्रह्मन्	-9.35083
तोष	-9.3512
▁स्थितः	-9.35159
▁दानं	-9.35162
रोध	-9.35176
हिंस	-9.35194
▁तत्रैव	-9.35232
केतु	-9.35243
नन्तर	-9.35249
मेध	-9.35308
▁पादस्	-9.35453
भद्र	-9.3547
▁प्रभा	-9.35635
ुव	-9.35693
नात्	-9.35726
▁धर्मराज	-9.35801
पाणि	-9.35837
तिथि	-9.35897
बद्ध	-9.35928
▁कुर्याद्	-9.35934
▁पाणि	-9.3595
▁प्रयच्छ	-9.36034
द्विज	-9.3605
ादिभिः	-9.36233
नद	-9.36309
▁मानस	-9.36381
लाभ	-9.36405
▁ईश	-9.36485
ाट	-9.36553
▁तुल्य	-9.36568
▁पवित्र	-9.36759
पत्ति	-9.36861
▁पृच्छ	-9.36872
▁दृश्यते	-9.36899
कारिण	-9.36909
पट	-9.36954
▁गौतम	-9.36981
वर्धन	-9.36997
ह्व	-9.37006
▁पठ	-9.3705
ितैः	-9.37078
ैषा	-9.37099
पित	-9.372
चन	-9.37376
चारिण	-9.37431
मूर्त	-9.37445
मर्ष	-9.37469
▁अन्योन्य	-9.37473
▁तनु	-9.37524
स्मै	-9.37623
चक्ष	-9.37868
वचन	-9.37872
ग्राम	-9.37878
▁शोच	-9.37885
▁पुरी	-9.3791
भोजन	-9.37935
▁राजपुत्र	-9.37954
ीश	-9.37955
नाश	-9.37979
यद्	-9.38026
▁सार्धं	-9.38096
▁भुव	-9.38205
सैन्य	-9.38262
▁संसार	-9.38282
लभ	-9.38285
नाग	-9.38313
न्यास	-9.38358
▁द्वे	-9.3838
मुत्तम	-9.38454
भक्ष	-9.38485
▁दिवि	-9.38487
▁माधव	-9.38506
क्षर	-9.38552
▁मण्डल	-9.38614
▁प्रजापति	-9.38645
लेख	-9.38705
श्रम	-9.38715
▁हरिः	-9.38812
▁भवता	-9.38929
▁मांस	-9.38937
▁द्रष्टु	-9.38938
घोष	-9.38942
शन	-9.39036
ीह	-9.3909
ामर	-9.39263
▁लभते	-9.39267
शुद्ध	-9.39284
▁द्रव्य	-9.39336
पञ्च	-9.39469
▁शुक्र	-9.39477
ारि	-9.39501
▁वः	-9.39622
▁तैर्	-9.39668
क्रम्य	-9.39818
मर्द	-9.39862
्व्	-9.40003
▁कौन्तेय	-9.4002
पीडित	-9.40034
▁ऽब्रवीत्	-9.40053
▁भीत	-9.4008
सत्	-9.40085
▁नष्ट	-9.40087
▁पुंस	-9.40126
ामृत	-9.40158
लक	-9.40185
▁तीर्थं	-9.40239
स्मर	-9.40247
साद	-9.40267
▁तानि	-9.40318
▁अध्य	-9.40474
▁पशु	-9.40579
▁मुहूर्त	-9.40625
चित्र	-9.40653
ज्वर	-9.4069
पण	-9.40718
▁हृदि	-9.40802
संपन्न	-9.40873
मोद	-9.40947
▁यावत्	-9.41017
ब्ज	-9.41029
▁दग्ध	-9.4109
मनो	-9.41111
▁पते	-9.41133
▁बलि	-9.41201
शक्त	-9.41244
विधि	-9.41251
▁वस्त्र	-9.41271
मुद्र	-9.41466
▁योध	-9.41495
▁विदित	-9.41519
▁अपर	-9.41679
कूल	-9.41688
शर्म	-9.41707
▁महाबाहो	-9.41817
▁युव	-9.4182
▁तेजसा	-9.41883
▁कुत	-9.42034
मोक्ष	-9.42057
धारण	-9.42068
▁भवन्ति	-9.42111
▁शङ्कर	-9.42158
▁सौम्य	-9.42212
▁सुहृद	-9.42213
्वैव	-9.42233
▁अनन्त	-9.4226
▁लक्ष्मी	-9.42263
राज्य	-9.42274
▁वृत्र	-9.42375
▁ङ	-9.42415
▁प्रविष्ट	-9.42532
▁शीत	-9.42536
▁फलम्	-9.42667
▁कथम्	-9.42677
▁राजानं	-9.42732
भिन्न	-9.42827
रिव	-9.42847
स्तव	-9.42943
स्माद्	-9.42978
निभ	-9.4305
▁चतुर	-9.4308
दीप	-9.43121
▁पृथिव्या	-9.43154
▁पुष्कर	-9.43154
▁समस्त	-9.43191
▁नाम्ना	-9.43231
▁हन्त	-9.43241
गुप्त	-9.43252
▁महातेजा	-9.43278
पृच्छ	-9.43313
▁विष्णो	-9.43326
ैस्त	-9.43371
▁प्रकृति	-9.43454
▁बिभ	-9.43454
▁आयु	-9.43455
धूम	-9.4353
विंशति	-9.43615
▁नेत्र	-9.43657
ोदित	-9.43695
▁मूढ	-9.4374
▁तस्मा	-9.43748
▁वाक्य	-9.43855
ाधिक	-9.43972
▁हुत	-9.44034
त्री	-9.4404
▁सहस्रशः	-9.44088
▁गृहे	-9.44156
▁अर्च	-9.44261
▁उभौ	-9.44272
▁देवाः	-9.44323
▁प्रिया	-9.44332
▁नारी	-9.44378
▁करोति	-9.44435
▁नियत	-9.44471
▁अन्तर	-9.44481
▁ध्यान	-9.44498
गुरु	-9.44535
हस	-9.4464
▁स्नेह	-9.44683
▁शरणं	-9.44734
ाच्च	-9.44777
माल्य	-9.44792
त्यज	-9.44918
ोवाच	-9.45009
िषे	-9.45027
▁पार्श्व	-9.45067
▁भ्रातृ	-9.45087
ादौ	-9.45111
▁वाग्	-9.45144
चल	-9.45163
▁त्वयि	-9.45293
वान	-9.45306
विंश	-9.45378
ाभवत्	-9.45495
▁तावद्	-9.4553
कृष्ट	-9.4561
▁देवेश	-9.45662
▁दीन	-9.45668
वेष	-9.45688
▁अपा	-9.45688
ज्वाल	-9.45814
▁तेषु	-9.45854
▁कीर्ति	-9.4588
▁आश्रम	-9.4588
ास्ति	-9.45962
▁भ्रातर	-9.46075
▁ततश्	-9.46079
▁जगद्	-9.46141
भूषित	-9.46151
▁कालेन	-9.46187
▁ऽस्मिन्	-9.46258
▁वृष्ण	-9.46323
कुण्डल	-9.46375
तट	-9.46397
▁दास	-9.46443
ान्तरे	-9.46447
▁साम	-9.46556
▁दन्त	-9.46568
▁वारि	-9.46679
योध	-9.46696
▁दूत	-9.46717
▁लोकान्	-9.46732
▁भुक्त	-9.46744
▁शाल	-9.46748
▁विशेषतः	-9.46762
▁दर्शय	-9.46841
ोद्भव	-9.46866
क्रोध	-9.46984
ार्जुन	-9.4709
▁निशा	-9.47143
धुर	-9.47148
शृङ्ग	-9.4715
▁यावद्	-9.47221
▁क्रमात्	-9.47284
▁प्रसन्न	-9.47299
मनस	-9.47307
वर्ध	-9.47336
▁पूजा	-9.47364
▁मरु	-9.47436
▁प्रणम्य	-9.47604
▁चत्वार	-9.47624
▁सर्वदा	-9.47626
▁मार्कण्डेय	-9.47663
▁कृच्छ्र	-9.47705
▁प्रभु	-9.47724
युज्य	-9.47743
क्लेश	-9.4781
▁सलिल	-9.47931
▁भूयो	-9.47982
▁भस्म	-9.48062
सूत	-9.48092
▁स्तन	-9.48114
▁श्रीमान्	-9.48184
▁बीज	-9.48279
▁भृगु	-9.48289
▁अस्ति	-9.48328
भास	-9.48348
▁निवर्त	-9.48379
▁वर्तते	-9.48411
▁तपस	-9.48417
ामहे	-9.48473
▁ऽस्म	-9.48534
शुश्रूष	-9.48564
▁पञ्चम	-9.48571
▁गीत	-9.48572
वर्म	-9.48594
्यताम्	-9.48599
▁त्वाम्	-9.48663
▁अनेक	-9.48812
विन्द	-9.48813
▁स्तुत	-9.48814
ागम	-9.48818
▁सूक्ष्म	-9.48839
दृश्य	-9.48893
ाम्बर	-9.48956
▁तावत्	-9.49
▁वात	-9.49004
राव	-9.49054
▁कुर्व	-9.49067
कोट	-9.4908
ाशय	-9.49098
ट्	-9.49165
▁शृङ्ग	-9.49346
▁चारु	-9.49385
प्रयत्न	-9.4939
नघ	-9.494
ब्द	-9.49459
म्भो	-9.4951
▁कपिल	-9.4954
विनाश	-9.49547
निष्ठ	-9.49562
धान्य	-9.49581
▁स्वप्न	-9.49665
निश्चित	-9.49694
पेत	-9.49769
▁गोविन्द	-9.49784
▁तत	-9.49829
ावह	-9.49907
▁शाश्वत	-9.49908
▁युध्य	-9.49909
वता	-9.49921
▁कण्ठ	-9.50074
ाक्षर	-9.50195
समीप	-9.50212
▁विचित्र	-9.50222
क्षण	-9.50245
शाख	-9.50255
चन्दन	-9.5042
▁तनय	-9.50593
▁सर्वत्र	-9.50612
वीक्ष	-9.50726
▁बन्धु	-9.50762
▁चतुर्दश	-9.50932
प्रेक्ष	-9.50949
▁अर्ध	-9.50971
▁आसाद्य	-9.51022
मांस	-9.51153
▁वासव	-9.51153
▁गुह्य	-9.51224
ाभरण	-9.51229
▁गृहीत्वा	-9.51247
माया	-9.51351
वदन	-9.51352
▁ऽति	-9.51366
सर्प	-9.51421
त्वर	-9.51439
युध	-9.51567
स्त्री	-9.51583
▁पात्र	-9.516
▁ध्याय	-9.51624
चित्त	-9.51654
▁सुग्रीव	-9.51685
वेष्ट	-9.51761
दित	-9.51856
▁स्नात	-9.51892
▁भूमौ	-9.51904
▁धार्तराष्ट्र	-9.51983
▁भूरि	-9.5203
वृष्टि	-9.52036
▁हीन	-9.5204
क्रोश	-9.52062
▁इन्द्रिय	-9.52068
▁तपस्	-9.52191
भृता	-9.52211
▁विशां	-9.52228
ैतद्	-9.52233
नू	-9.52313
▁प्रमाण	-9.52335
विष्णु	-9.52399
प्रभा	-9.52464
▁षोडश	-9.52519
▁निबोध	-9.52563
▁जज्ञे	-9.52589
▁श्रोतु	-9.52619
ैन	-9.52664
▁भविष्य	-9.52688
नर	-9.52693
▁शुभा	-9.52722
▁याच	-9.52729
माह	-9.52731
▁कुशल	-9.5282
क्रिय	-9.53009
स्तदा	-9.53034
▁अग्ने	-9.53293
लाप	-9.53336
▁प्रवृत्त	-9.53383
▁ऽद्य	-9.53413
▁मधुर	-9.53458
▁विभो	-9.5351
तये	-9.53543
धुना	-9.53545
भ्रान्त	-9.53585
दूर	-9.53644
▁दद्याद्	-9.5375
स्वर	-9.5376
ार्क	-9.53765
▁बन्ध	-9.53811
द्युम्न	-9.53828
▁हव्य	-9.53903
▁पृ	-9.53994
व्रज	-9.54033
नाशन	-9.54053
▁गते	-9.54065
▁वीर्यवान्	-9.541
▁विपुल	-9.54249
▁नियम	-9.54291
▁गतिम्	-9.54366
रूपिण	-9.54433
▁विभु	-9.54481
▁प्रभव	-9.54523
ुद्	-9.54547
▁विज्ञेय	-9.54701
▁भास्कर	-9.54834
▁लोभ	-9.54835
िणो	-9.54895
नित्य	-9.54972
▁अग्निर्	-9.5506
▁वयम्	-9.55132
▁देव्या	-9.55146
घोर	-9.55226
▁इष	-9.55295
ाढ्य	-9.55344
स्फुर	-9.5539
▁कपि	-9.55436
पार	-9.55509
सूत्र	-9.55546
यौवन	-9.55611
▁शान्ति	-9.55653
शान्त	-9.55671
मुत्	-9.55692
वेश्म	-9.55796
निर्मित	-9.55809
▁दुः	-9.55923
ाक्षी	-9.55972
वच्	-9.56043
▁महापुराणे	-9.56221
रुद	-9.56282
▁गच्छति	-9.56333
िह्नितपुस्तकपाठः	-9.56358
▁भार्गव	-9.56358
▁गरुड	-9.56358
▁मरुत	-9.56372
लोल	-9.5642
▁प्रकाश	-9.56593
ाशन	-9.56601
युद्ध	-9.56646
▁प्रविश्य	-9.56653
निमित्त	-9.56795
▁पर्व	-9.56802
त्येव	-9.56846
सद्	-9.56855
▁पदम्	-9.56871
संवृत	-9.56904
किर	-9.56922
ोपेत	-9.56963
▁पुनर	-9.5704
ादयः	-9.57056
▁यश्	-9.57075
▁सर्ग	-9.57117
▁देवानां	-9.57164
ितुं	-9.57211
▁जह	-9.57265
ोऽपि	-9.5729
▁पाश	-9.5734
▁विमल	-9.57424
▁विक्रम	-9.57535
गन्धर्व	-9.57554
▁समुद्	-9.57556
▁विनाश	-9.57562
▁वपु	-9.57633
पतेः	-9.57679
व्यक्त	-9.57704
▁वित्त	-9.57786
▁गाव	-9.57924
गृह्ण	-9.57937
▁छि	-9.58002
चु	-9.58007
सप्त	-9.58015
▁ऽग्नि	-9.58073
शोभित	-9.58077
▁ऽस्ति	-9.58154
ष्क	-9.58198
भूय	-9.58217
द्वेष	-9.58229
गल	-9.58291
▁अन्तर्	-9.58308
वत्या	-9.58349
पात्र	-9.5852
▁भिक्ष	-9.58679
▁सुकृत	-9.58753
मणि	-9.58811
दंष्ट्र	-9.58815
जायत	-9.58836
▁संप्राप्त	-9.5886
▁महिष	-9.58879
चक्षुष	-9.58914
माला	-9.58978
▁विहित	-9.59027
ग्राह	-9.59156
ूक	-9.59259
▁क्रतु	-9.59362
▁श्रुति	-9.59378
वृक्ष	-9.59389
▁सर्वतः	-9.59434
श्रान्त	-9.59463
मुच्य	-9.5955
▁तीक्ष्ण	-9.59917
▁अपश्य	-9.59976
्यसे	-9.60036
्यमाना	-9.60038
लोम	-9.60069
▁संयुगे	-9.6007
▁नित्यम्	-9.60079
▁आत्मानं	-9.60081
मिच्छ	-9.60191
स्मित	-9.60336
रुवाच	-9.60341
सीद	-9.60346
▁धर्मात्मा	-9.60385
रुद्ध	-9.60393
पद्म	-9.60411
पद्यते	-9.60416
ासौ	-9.60432
ानीक	-9.60475
▁क्रूर	-9.60492
दीक्ष	-9.60517
संग	-9.60613
विद्ध	-9.60632
काङ्क्ष	-9.60651
▁रति	-9.60692
▁गुह	-9.60805
▁शिला	-9.60898
वस्त्र	-9.60951
▁नृपति	-9.6099
पुंगव	-9.6108
▁लभ	-9.61081
▁भृत्य	-9.61189
▁स्थिर	-9.61199
▁धात	-9.61202
मूत्र	-9.61343
▁यव	-9.61374
र्त्त	-9.61407
▁भेद	-9.6158
शुभ	-9.61581
शर	-9.61661
कीर्ति	-9.61672
▁सर्वाणि	-9.61732
रेव	-9.6183
▁पूजित	-9.61838
▁चित्त	-9.61873
विवर्जित	-9.6191
▁मध्यम	-9.61958
जगाम	-9.61969
▁उभय	-9.61971
शोणित	-9.61985
▁सृज	-9.621
दर्भ	-9.6213
▁यथाविधि	-9.62145
▁मातृ	-9.62148
वाक्	-9.6217
▁शृण्व	-9.6226
▁रवि	-9.62284
संकाश	-9.62398
▁सम्यक्	-9.62423
र्पित	-9.62448
▁आकाश	-9.62481
चिद	-9.62502
ीन्द्र	-9.62583
श्री	-9.62592
लता	-9.626
▁परस्परम्	-9.62699
▁उष	-9.62758
▁विष्णुर्	-9.62803
▁त्वद्	-9.63067
पाट	-9.63094
ाचल	-9.63115
▁गृहीत	-9.63185
▁भूतानि	-9.63201
त्यर्थ	-9.63256
लंकृत	-9.63257
▁महेन्द्र	-9.63293
▁भृशम्	-9.63357
▁व्यवस्थित	-9.63369
▁विद्याधर	-9.63451
ब्रुव	-9.6349
यथा	-9.63518
▁युष्म	-9.63527
सिद्धि	-9.63551
हरण	-9.63557
▁उच्च	-9.63631
ण्व	-9.63647
द्भिः	-9.63704
▁लोकेषु	-9.63857
▁वैष्णव	-9.63921
▁पुरुषोत्तम	-9.63934
स्थल	-9.6394
▁विद्धि	-9.6394
▁धीर	-9.63956
ानल	-9.63976
▁कल्याण	-9.63989
चय	-9.64074
▁आश्रित	-9.64074
मुदित	-9.64079
च्छेद	-9.64085
क्ति	-9.6418
▁पप्रच्छ	-9.64207
▁तेषाम्	-9.64287
ासीत्	-9.64388
▁ऽप्य	-9.64391
▁निवेश	-9.64444
रश्मि	-9.64497
प्रतिम	-9.6452
ात्मने	-9.6453
▁विदुः	-9.64574
प्रतिष्ठित	-9.64615
▁रौद्र	-9.64663
▁संस्थित	-9.64762
कृष्ण	-9.64776
▁तयोर्	-9.64801
प्रभृति	-9.64843
▁पृथु	-9.64871
▁त्यक्त	-9.64898
पर्वत	-9.65036
ाख्यान	-9.6505
▁एतन्	-9.65084
क्षोभ	-9.65151
▁जघान	-9.65195
▁इच्छामि	-9.65296
▁भग्न	-9.65334
चेष्ट	-9.65392
▁शम	-9.65469
त्यन्त	-9.65516
▁तृण	-9.65578
▁दद्यात्	-9.65586
▁नाभि	-9.65637
ङ्कार	-9.6565
▁शल्य	-9.65673
▁वचो	-9.6578
▁समुत्	-9.6587
स्कन्ध	-9.6589
▁भिन्न	-9.65908
ब्रू	-9.65939
▁चान्ये	-9.65966
पाक	-9.6604
यामि	-9.66047
▁राज्ञो	-9.66049
पेक्ष	-9.66057
▁समागत	-9.66109
▁यानि	-9.66128
▁सप्तम	-9.66156
तुल्य	-9.66212
▁वृत्ति	-9.66389
▁खग	-9.66414
भ्यर्च्य	-9.66534
दानव	-9.66637
▁क्वचित्	-9.66739
नुग्रह	-9.66899
भङ्ग	-9.669
▁मारुत	-9.669
▁सदृश	-9.66902
▁पश्यामि	-9.66959
▁घन	-9.67005
निश	-9.67078
▁शकुन	-9.67108
ादिषु	-9.67226
जायते	-9.67378
▁अल्प	-9.67414
▁प्रदक्षिण	-9.67452
▁आर्य	-9.67486
▁अधर्म	-9.67583
▁बृहस्पति	-9.67592
▁यदु	-9.67651
ाख्यात	-9.67653
▁विधिना	-9.67697
▁संजय	-9.67761
▁निवृत्त	-9.67881
▁सम्यग्	-9.67919
▁प्रभाव	-9.67923
संशय	-9.67981
▁यद्य्	-9.68028
▁नराः	-9.68032
▁व्यक्त	-9.68087
▁पृथ	-9.68113
▁कला	-9.6813
▁भवन्त	-9.68171
दृश्यन्त	-9.68202
साधन	-9.68207
▁दुर्लभ	-9.68275
ान्तक	-9.68349
▁विव्याध	-9.68377
स्तेन	-9.68491
▁आस्थाय	-9.68549
▁धर्मज्ञ	-9.6859
▁सर्वतो	-9.68648
चोदित	-9.68685
ध्वर	-9.68805
▁प्रवक्ष्यामि	-9.68851
▁रोच	-9.68871
मेष	-9.69119
▁सात्यकि	-9.69164
▁होम	-9.69215
▁हेतु	-9.69282
▁त्रिदश	-9.69345
मृग	-9.69402
▁आग्नेय	-9.69485
▁युवा	-9.69504
विग्रह	-9.69504
▁विश्वामित्र	-9.69665
▁खलु	-9.69683
शिव	-9.69735
ौषध	-9.69815
गुर	-9.69922
परीत	-9.70063
▁मूर्ति	-9.70084
▁वक्ष्यामि	-9.70282
क्ष्ण	-9.70343
▁नूनं	-9.70359
▁बली	-9.70369
स्येव	-9.70393
मिश्र	-9.70401
श्वमेध	-9.70544
दल	-9.70558
▁गृह्ण	-9.70609
ानन्द	-9.70628
मृद	-9.70649
▁यस्मिन्	-9.70649
▁कुर्वन्	-9.70701
लब्ध	-9.70741
नृप	-9.708
▁पुरु	-9.70804
▁स्मृता	-9.70834
▁सर्वकाम	-9.71112
▁भुवन	-9.7115
पाश	-9.71182
कर्मणा	-9.71185
कुम्भ	-9.712
▁ततस्त	-9.7125
▁रुधिर	-9.7126
यच्छ	-9.71263
वश्य	-9.71332
▁अवाप	-9.71429
▁द्विष	-9.7143
न्त्या	-9.71467
ण्	-9.71515
▁जग्राह	-9.71717
कण्टक	-9.71739
णीय	-9.71763
▁तूर्णं	-9.71799
▁अर्हति	-9.71911
▁विख्यात	-9.72008
प्रभाव	-9.72073
मिष	-9.72146
▁निशित	-9.72156
तनु	-9.72174
निपात	-9.7218
वधू	-9.72194
▁अनेन	-9.72245
▁दुहित	-9.72254
▁प्रधान	-9.72419
▁सख्य	-9.72419
▁ऽर्थ	-9.72449
▁वरद	-9.72471
▁सरित	-9.7255
▁कंस	-9.72626
▁अव्यक्त	-9.72638
विद्य	-9.72785
▁राष्ट्र	-9.72804
कृद्	-9.72851
▁सरस्वती	-9.72886
ान्तिक	-9.72909
▁कर्ता	-9.72924
वस्थित	-9.72959
▁संशय	-9.73084
▁पथि	-9.73093
मोच	-9.73199
धार्मिक	-9.73217
▁भूप	-9.73233
ारुण	-9.73258
यन्ती	-9.73308
▁पितुर्	-9.73322
▁गाय	-9.73398
चरन्	-9.73455
वारण	-9.73501
त्तु	-9.73525
▁रात्रौ	-9.73582
सद	-9.73606
▁संग्रामे	-9.73781
▁तप्त	-9.73796
ङ्ख	-9.73831
▁कलि	-9.73835
▁अस्मिन्	-9.73903
▁संनि	-9.73943
नाभ	-9.73946
ष्व्	-9.74003
ूह	-9.74057
▁छिन्न	-9.74128
▁कश्यप	-9.74237
▁प्रोवाच	-9.74299
▁शरण	-9.74309
न्तरिक्ष	-9.74309
स्मात्	-9.74321
▁चिच्छेद	-9.74391
स्पृष्ट	-9.74394
▁तासा	-9.74396
▁तेजो	-9.74426
▁कुसुम	-9.7448
धृ	-9.74481
▁भविता	-9.7451
ोरग	-9.74533
▁गतिः	-9.74552
क्षिप्य	-9.7467
▁रत	-9.7468
▁महेष्वास	-9.74716
द्वै	-9.74759
तन्त्र	-9.74771
लिख	-9.74774
▁शयन	-9.74832
मूर्ति	-9.74964
▁कनक	-9.75028
▁समासाद्य	-9.75225
दाह	-9.75226
सेवित	-9.75232
▁मुदा	-9.75238
गमत्	-9.75276
▁अस्त	-9.75321
निर्जित	-9.75326
▁प्रसीद	-9.75356
चेतन	-9.75363
ताव्	-9.75375
▁पपात	-9.75382
स्वरूप	-9.75427
▁त्वय	-9.75431
▁आचार्य	-9.75586
विशेष	-9.75607
पितामह	-9.75607
▁तिष्ठति	-9.7561
▁ऋण	-9.75641
तुष्ट	-9.75644
▁ऽन्त	-9.7574
▁भूम	-9.7574
धातु	-9.75742
▁दास्य	-9.75766
▁विस्मय	-9.75777
ुक्त	-9.75914
भ्रु	-9.75927
ोत्सव	-9.75943
▁पुमान्	-9.76019
पूजित	-9.76145
▁पश्यति	-9.76278
▁द्वौ	-9.76294
▁प्राज्ञ	-9.76299
स्ततः	-9.76357
भग	-9.76482
▁सुप्त	-9.76645
भाषित	-9.76725
▁धृष्टद्युम्न	-9.76754
▁वृथा	-9.76762
▁राजन्न्	-9.76762
▁श्रोत्र	-9.77026
▁दैवत	-9.77065
▁मरण	-9.77089
दर्थ	-9.77091
शस्त्र	-9.77112
शरीर	-9.77131
ासीन	-9.77317
ह्रद	-9.77335
पिण्ड	-9.77412
▁संध्या	-9.77457
बाह	-9.77537
स्तम्भ	-9.77556
▁पश्चिम	-9.77612
तृप्त	-9.77656
पुट	-9.77681
वत्स	-9.77754
▁स्वस्ति	-9.7781
▁विदुर	-9.77822
श्चापि	-9.77892
▁एतच्	-9.77906
करोत्	-9.77927
प्सरस	-9.77983
प्रीत	-9.78018
▁प्रोक्ता	-9.78049
पृष्ठ	-9.78059
▁दारुण	-9.78121
बन्धन	-9.78123
▁यूय	-9.782
मित्य	-9.78285
▁मुहुर्	-9.78307
विभाग	-9.78401
पद्यत	-9.7849
▁वृषभ	-9.78495
मिह	-9.7851
▁आसीत्	-9.78686
▁उत्स	-9.78724
सूर्य	-9.78799
▁परस्पर	-9.78838
ललित	-9.78853
पौरुष	-9.78873
▁वीक्ष्य	-9.79064
▁काष्ठ	-9.79095
त्यु	-9.79129
दीप्त	-9.79182
▁तस्मान्	-9.79488
▁मधुसूदन	-9.79541
ेनापि	-9.79559
▁अन्ध	-9.7956
▁परमेश्वर	-9.79753
▁जगाद	-9.79825
बाण	-9.79841
नुज्ञात	-9.79856
प्रण	-9.8005
राक्षस	-9.80148
कूप	-9.80339
र्चित	-9.8035
▁रात्रि	-9.80405
क्षेत्र	-9.80526
कर्मणि	-9.80535
लग्न	-9.80607
यितुं	-9.80662
▁सखा	-9.80671
▁कृश	-9.8069
▁साध्य	-9.80705
ातुर	-9.80717
प्सु	-9.80772
ह्लाद	-9.80781
▁शून्य	-9.80787
हृत्	-9.80846
▁षष्ठ	-9.8088
▁धन्य	-9.80884
▁अरिंदम	-9.80952
निधि	-9.81056
▁महात्मा	-9.81066
▁शिशु	-9.81075
▁स्यान्	-9.81083
तनय	-9.81123
दानेन	-9.81178
▁शुच	-9.81237
गामिन	-9.81264
परिवार	-9.81321
▁हृद	-9.81368
▁अशेष	-9.8138
▁नश्य	-9.81388
▁वर्तमान	-9.81433
▁तस्थौ	-9.8186
▁संवत्सर	-9.81881
▁विद्वान्	-9.81929
▁रिपु	-9.81956
विज्ञान	-9.81995
▁गुरो	-9.82014
पराजित	-9.82182
निन्द	-9.82214
शिखर	-9.8226
सख	-9.82355
बर	-9.82365
▁प्रत्युवाच	-9.82402
द्विष	-9.8242
सदृश	-9.82484
▁ऽहम्	-9.82496
रिण	-9.82581
कृष्य	-9.82634
गीत	-9.82677
▁पव	-9.82685
शिष्य	-9.8276
लङ्घ	-9.82806
तत्पर	-9.8292
निष्	-9.83054
▁असुर	-9.83081
स्व्	-9.83085
भ्रष्ट	-9.83247
िष्यन्ति	-9.83322
▁विवाह	-9.83435
दग्ध	-9.83455
▁प्रहृष्ट	-9.83534
वृध	-9.8362
शीर्ष	-9.83651
▁प्रतापवान्	-9.83854
▁परंतप	-9.83939
▁शिरसा	-9.84035
▁दिवस	-9.84138
▁विषम	-9.84149
▁भुक्त्वा	-9.84223
▁पराशर	-9.84258
पर्व	-9.84309
▁ऽयम्	-9.84325
तव्यं	-9.84368
सारथि	-9.84391
ादर	-9.84397
समृद्ध	-9.8442
गृहीत	-9.84423
यात्रा	-9.84583
ैतत्	-9.84711
लुब्ध	-9.84804
ग्रहण	-9.84931
▁वसुधा	-9.85036
▁त्वरित	-9.85137
रुद्र	-9.85206
जग्मुर्	-9.85236
▁निशम्य	-9.85339
▁सहदेव	-9.85413
्यर्थं	-9.85638
▁यशस्विन	-9.85713
र्घ्य	-9.85714
कर्षण	-9.85718
द्युत	-9.85819
▁भूतानां	-9.85928
▁व्यसन	-9.85948
▁ब्रह्माण	-9.85996
हृष्ट	-9.86082
मग्न	-9.8609
▁संख्ये	-9.86131
▁तादृश	-9.86133
गोत्र	-9.86178
वात	-9.86259
▁त्रिषु	-9.86267
वृष	-9.86295
▁द्विगुण	-9.86423
▁विमुक्त	-9.86459
▁पाताल	-9.86477
स्यास्य	-9.86482
ुत्तर	-9.86486
रुच	-9.86674
ग्राह्य	-9.86726
▁नक्षत्र	-9.86757
विशारद	-9.86844
▁मदन	-9.86857
रास	-9.86869
▁योगिन	-9.86925
▁असौ	-9.86974
विभूषित	-9.86976
▁नृत्य	-9.87067
▁पालय	-9.87146
प्रदान	-9.87161
▁सायक	-9.87361
▁षड	-9.87373
ोत्पल	-9.87522
▁यशो	-9.87717
▁पश्यत	-9.87729
▁स्थापय	-9.87741
▁रुक्म	-9.87773
▁किरीट	-9.87794
▁वसन्ततिलक	-9.87794
▁क्षिति	-9.87855
ाप्नुया	-9.88009
त्व्	-9.88086
▁प्रादु	-9.8825
▁तपोधन	-9.88255
▁मुञ्च	-9.88318
यन्त्र	-9.88332
श्नुते	-9.88384
▁आसीद्	-9.88419
▁महावीर्य	-9.8849
स्पृह	-9.88755
▁स्वाहा	-9.88775
▁कर्तुं	-9.88798
स्त्राणि	-9.88883
▁येषां	-9.8892
धर्ष	-9.88965
▁धृति	-9.89005
जिह्व	-9.89057
चिह्न	-9.89118
▁पितुः	-9.8917
व्यूह	-9.89183
गोचर	-9.89216
▁स्वभाव	-9.89218
▁दुष्	-9.89235
▁निशि	-9.89294
▁मुहुः	-9.89339
कृत्त	-9.8945
▁मेरु	-9.89541
लक्ष्य	-9.89596
वादी	-9.89605
राट्	-9.89637
न्द्रिय	-9.89665
पर्य	-9.89759
प्राण	-9.89771
ाह्न	-9.89783
भोज	-9.89793
धारिण	-9.89891
गस्त्य	-9.89916
▁गान्धार	-9.89924
बीज	-9.89996
ण्ठ	-9.90024
सागर	-9.90029
▁सुव्रत	-9.90067
▁राज्ञः	-9.90086
भ्रू	-9.90129
बाल	-9.90164
▁इत्युक्त	-9.90194
▁वर्जय	-9.90273
▁काक	-9.90281
चूर्ण	-9.90301
▁नरेन्द्र	-9.90367
▁आशु	-9.90433
संवाद	-9.90467
वस्था	-9.90481
▁महायशाः	-9.9051
▁हन्तु	-9.90578
▁आहुर्	-9.90693
▁बिभ्र	-9.90747
ैश्वर्य	-9.90806
धूत	-9.90815
▁कर्माणि	-9.90974
क्राम	-9.90988
▁ब्राह्म	-9.91066
▁धीमतः	-9.91101
▁क्षेम	-9.91192
▁विवेश	-9.91283
▁लङ्का	-9.91308
▁सखी	-9.91447
संनिभ	-9.91456
▁प्रायश्चित्त	-9.91498
पार्श्व	-9.91805
▁तयोः	-9.91842
▁तेनैव	-9.91903
▁शर्व	-9.91931
▁मुनिसत्तम	-9.92018
▁संक्रुद्ध	-9.92127
ीनाम्	-9.92252
▁न्याय	-9.92266
▁विजान	-9.92268
श्रिय	-9.92272
भूमि	-9.92299
▁विशुद्ध	-9.92426
▁रोद	-9.92432
वर्तिन	-9.92646
▁खल	-9.92665
कान्त	-9.92676
षध	-9.92677
कार्मुक	-9.92699
शस्त	-9.92702
▁जातु	-9.92729
▁प्रवर्त	-9.92814
नेक	-9.92921
निर्गत	-9.92941
▁गवां	-9.92978
▁लभेत्	-9.9303
यमाण	-9.93148
पीठ	-9.9334
मादाय	-9.93373
▁पृथग्	-9.93374
मन्दिर	-9.93412
▁निद्रा	-9.93563
▁उपास	-9.93654
▁आसीन	-9.93719
▁विधीयते	-9.93763
▁मनुज	-9.93853
▁धर्मार्थ	-9.93863
▁ह्री	-9.93922
रिष्ट	-9.94009
▁सद्यः	-9.94048
▁प्रत्यक्ष	-9.9407
भवेत्	-9.94131
साहस्र	-9.94198
▁वन्द	-9.94264
स्फुट	-9.94318
पञ्चाश	-9.94328
▁पश्चात्	-9.94376
▁भर्ता	-9.9438
▁एकादश	-9.94382
परिग्रह	-9.94431
▁तीव्र	-9.94546
ासीद्	-9.94643
वाल	-9.94683
▁भविष्यन्ति	-9.94836
शैल	-9.9484
▁विराट	-9.94978
शिक्ष	-9.94985
मोहित	-9.95014
शूल	-9.95034
▁शंकर	-9.95046
▁गगन	-9.95055
▁महर्षि	-9.95164
▁पन्नग	-9.95182
▁इत्थं	-9.95351
ात्मनि	-9.95442
पाण	-9.95482
ितव्य	-9.95511
▁छ्र	-9.95831
▁बुद्धिर्	-9.95835
न्यसेत्	-9.95893
▁व्रजेत्	-9.96086
ुक्त्वा	-9.961
रक्षित	-9.96362
▁तत्क्षण	-9.96393
▁ईदृश	-9.96493
समागम	-9.96576
ैरपि	-9.96615
▁पण्डित	-9.96619
त्यक्त	-9.96688
ाह्वय	-9.96704
▁विद्व	-9.96737
प्रमाण	-9.96804
▁समर्थ	-9.96804
हारिण	-9.96972
पाठ	-9.97014
▁परिकीर्तित	-9.97015
▁बहून्	-9.97021
▁दयित	-9.97024
▁तथेत्य	-9.97048
▁भानु	-9.97067
नन्त	-9.97096
▁समाचरेत्	-9.97363
▁सद्यो	-9.97485
गर्ह	-9.97503
▁पूत	-9.97851
▁कीर्तित	-9.9791
▁कोश	-9.97965
▁आहु	-9.98007
▁यान	-9.98111
ार्चन	-9.9813
▁शुक	-9.98295
▁स्वर्ण	-9.98317
तृष्ण	-9.98382
धत्त	-9.98455
▁पश्चाद्	-9.98491
हृदय	-9.98585
▁रोम	-9.98756
▁धिय	-9.98808
▁द्विजसत्तम	-9.98901
कन्या	-9.98924
▁ब्रह्मलोक	-9.98945
▁रेवा	-9.99027
▁मायया	-9.99081
वर्तन्त	-9.99119
त्रस्त	-9.99205
▁लब्ध्वा	-9.99221
▁दुरात्म	-9.99235
▁वृद्धि	-9.99269
▁भक्ष्य	-9.99507
▁तमस	-9.99531
चतुष्	-9.9958
च्छन्न	-9.99585
▁पुरुषर्षभ	-9.99647
दृश्यत	-9.99729
▁सर्वभूतानां	-9.99768
द्रव्य	-9.99826
मात्रेण	-9.99881
वृत्तान्त	-9.99916
▁अन्यथा	-9.99971
चिकीर्ष	-9.99994
▁ताम्र	-10.0003
▁एतस्मिन्	-10.0008
▁पश्यन्ति	-10.0014
प्रकाश	-10.0016
वर्त्त	-10.0016
ष्ट्र	-10.0016
▁द्रौणि	-10.0021
▁सुदुर्	-10.0021
विक्रय	-10.0023
▁मिथ्या	-10.0043
तयो	-10.0043
बहु	-10.0053
लीन	-10.0054
▁स्थावर	-10.0055
▁तापस	-10.0056
▁चरेत्	-10.0076
▁दिवाकर	-10.0087
भिषेक	-10.0095
पल्लव	-10.0098
▁अमर	-10.0102
कीर्तय	-10.0111
पूजन	-10.0129
▁यस्मात्	-10.013
वलय	-10.0133
कुमार	-10.0139
हत्य	-10.0139
▁धनुः	-10.0152
▁भर्तृ	-10.0152
लेप	-10.0159
▁पवन	-10.0161
▁ध्यात्वा	-10.0169
कीर्तन	-10.0174
▁कर्तुम्	-10.0175
▁व्याघ्र	-10.0179
▁दिष्ट्या	-10.0182
▁शाक	-10.0185
ाशा	-10.019
▁विष्णोर्	-10.0192
▁व्यवहार	-10.0197
पताक	-10.0199
दास	-10.02
▁मघव	-10.0203
त्वात्	-10.0204
▁यस्तु	-10.0206
▁महासुर	-10.0209
▁महाप्राज्ञ	-10.0218
गूढ	-10.0219
स्तथैव	-10.0219
िष्णु	-10.0226
▁ऽर्जुन	-10.0251
▁चौर	-10.0255
नायक	-10.0263
▁धनुष	-10.0268
हूत	-10.027
िन्या	-10.027
ाधम	-10.0283
ब्राह्मण	-10.0283
त्राण	-10.0298
ादीनां	-10.0314
▁तू	-10.0318
▁गमिष्य	-10.0322
▁एकैक	-10.0323
दारु	-10.0328
▁विस्मित	-10.0339
रुचि	-10.034
ादयो	-10.0341
वेक्ष्य	-10.0341
▁व्योम	-10.0349
▁पुण्डरीक	-10.0351
किल्बिष	-10.0351
▁बुद्ध्या	-10.0365
▁पाण्डवानां	-10.0367
▁बहुधा	-10.0371
▁मूर्ध्नि	-10.0374
▁प्रविवेश	-10.0374
लाल	-10.0374
▁जित्वा	-10.0379
▁काव्य	-10.0382
▁दुःखित	-10.039
ोच्यते	-10.0397
▁प्रतिज्ञा	-10.0407
▁प्रणत	-10.0414
मानुष	-10.042
जहार	-10.0423
ाङ्गना	-10.0427
▁द्विप	-10.0436
▁कुर्वीत	-10.0445
▁स्त्रीणां	-10.0455
▁रोष	-10.0457
▁नृणाम्	-10.0469
भक्ति	-10.0471
▁शत्रू	-10.0492
▁षण्	-10.052
▁दातु	-10.0521
▁शोभन	-10.0524
निवेश	-10.0537
बिन्दु	-10.0537
वाप्त	-10.0545
▁मत्वा	-10.0554
▁त्रयोदश	-10.0555
▁राजंस्	-10.0567
▁धाम	-10.0569
वर्चस	-10.0569
लोभ	-10.0578
निन्दित	-10.0578
▁आर्त	-10.0581
स्माकं	-10.0589
▁ताल	-10.0594
▁वारुण	-10.0598
▁द्रुपद	-10.0601
मनोहर	-10.0602
▁अस्माक	-10.0606
भ्राज	-10.0619
▁सूतपुत्र	-10.0643
▁पन्था	-10.0647
▁लज्ज	-10.0648
▁तपस्विन	-10.0654
ुत्स	-10.0658
वाहिनी	-10.0661
▁पुरुषव्याघ्र	-10.067
▁बहवो	-10.067
▁मृदु	-10.068
रावत	-10.0691
▁भुङ्क्ते	-10.0693
▁हनूम	-10.0694
लभ्य	-10.0698
▁तुभ्यं	-10.0708
▁यावन्	-10.0709
क्षिण	-10.0718
युञ्ज	-10.072
भ्येत्य	-10.0724
संस्कार	-10.0731
▁श्रद्धा	-10.0734
ङ्गिरस	-10.0738
▁व्याधि	-10.0744
कर्माण	-10.0745
▁योषित	-10.0764
राशि	-10.0766
▁विहाय	-10.0769
चेष्टित	-10.077
▁पृथ्वी	-10.0786
निरुद्ध	-10.0791
भीत	-10.0796
▁यशस	-10.081
▁द्यूत	-10.081
▁विनय	-10.0816
▁महीयते	-10.0817
▁भवेन्	-10.0827
षू	-10.083
▁गाण्डीव	-10.0833
▁महीपतिः	-10.0843
▁बलवान्	-10.0847
दैवत	-10.0851
▁पातय	-10.0858
▁इमां	-10.0865
ादीन्	-10.0872
ाचार्य	-10.0884
▁विन्ध्य	-10.0885
▁संपूज्य	-10.0904
▁तस्मिंस्	-10.0928
▁हन्या	-10.0928
भोज्य	-10.0929
▁कारय	-10.0945
▁वसुदेव	-10.0972
भावित	-10.0991
▁क्रमेण	-10.0995
▁प्रवर्तते	-10.1005
▁हरेः	-10.1014
▁जटा	-10.1018
▁वृकोदर	-10.1023
▁स्कन्द	-10.1023
▁धरणी	-10.1024
▁कुर्वन्ति	-10.103
▁कवच	-10.1038
दुष्कर	-10.1038
होम	-10.1056
▁संगत	-10.1069
▁नमस्ते	-10.1069
▁ऽभूत्	-10.1075
▁भक्षय	-10.1082
स्नान	-10.109
▁महाबाहुर्	-10.1095
न्योन्य	-10.1104
▁प्राप्नोति	-10.1114
▁मन्वन्तर	-10.1119
दीन	-10.1126
पक्व	-10.1174
▁सखि	-10.1181
▁ददाति	-10.1214
वज्र	-10.1216
स्तीर्ण	-10.1218
▁भर्तार	-10.1218
▁वामन	-10.1225
शास	-10.1226
विह्वल	-10.123
त्वाद्	-10.1254
▁संकल्प	-10.1269
▁षष्टि	-10.1271
▁विभीषण	-10.1281
सम्भव	-10.1291
▁सुभग	-10.1298
केसर	-10.1299
▁प्रतिष्ठा	-10.1311
तर्पय	-10.1318
▁त्रिपुर	-10.1332
ञ	-10.1339
▁हुताशन	-10.1341
▁ब्रूया	-10.1347
रक्षण	-10.1364
▁ब्रह्मचर्य	-10.1365
▁उपस्थित	-10.1371
विलास	-10.1381
▁प्रत्यु	-10.1386
▁किमर्थं	-10.1389
▁कुञ्जर	-10.1389
▁सावित्र	-10.1399
▁वाजिन	-10.1408
▁अब्रवीद्	-10.1414
प्सरो	-10.1419
क्रीड	-10.142
▁बोधि	-10.1422
▁यशः	-10.1424
▁प्रासाद	-10.1425
▁विधिवत्	-10.1442
ञ्चित	-10.1446
▁पलाय	-10.1447
▁साहस	-10.1449
▁सिन्धु	-10.1464
वल्लभ	-10.1471
लिप्त	-10.1476
▁प्राकृत	-10.1508
पङ्कज	-10.1515
▁पश्चा	-10.1523
ेरित	-10.1527
वाजि	-10.1529
दिग्ध	-10.1531
ध्वनि	-10.1533
ाणाम	-10.1533
▁परीक्ष	-10.1536
▁कौशिक	-10.1539
▁परित्यज्य	-10.1539
पुरोगमा	-10.154
कन्यका	-10.155
▁दाता	-10.156
▁शनैः	-10.1569
▁क्षुद्र	-10.1582
▁प्रार्थय	-10.1584
ार्दित	-10.1584
▁युयुध	-10.159
▁सुरासुर	-10.1605
▁श्रूयता	-10.1615
▁संग्राम	-10.1615
▁मारिष	-10.1615
▁महातपाः	-10.1615
्तव्य	-10.1618
शालिन	-10.1623
ामात्य	-10.1623
▁होता	-10.1624
लेपन	-10.1629
ुष्म	-10.1641
▁दुःशासन	-10.1642
▁लवण	-10.1644
▁दुष्कृत	-10.1652
▁देवासुर	-10.1652
▁यादव	-10.1659
▁पूजयेत्	-10.1674
▁महामुने	-10.1691
▁स्वाध्याय	-10.1693
कल्मष	-10.1717
जङ्घ	-10.1731
कल्पित	-10.174
▁वैवस्वत	-10.1743
सत्कृत	-10.1763
सृत	-10.1765
दैत्य	-10.177
स्नेह	-10.1775
▁अनीक	-10.1779
▁वराह	-10.1785
▁प्राग्	-10.181
▁पुलस्त्य	-10.182
▁लघु	-10.1821
दृक्	-10.1823
निरत	-10.1827
▁ययुः	-10.1837
वर्त्म	-10.1845
▁भल्ल	-10.1855
ग्निहोत्र	-10.1855
पङ्क्त	-10.1861
बिम्ब	-10.1866
▁प्रणिपत्य	-10.1872
▁कैलास	-10.1898
संस्कृत	-10.1908
▁ब्रह्महत्या	-10.1915
▁इत्युक्त्वा	-10.1919
ार्द्र	-10.1919
वत्सल	-10.1922
▁वर्षाणि	-10.1943
▁पीत्वा	-10.1951
▁धीमान्	-10.1951
▁न्यवेदय	-10.1953
▁स्युर्	-10.1974
▁बृहद्	-10.1975
▁स्थूल	-10.1977
▁समेत्य	-10.1997
▁उत्सृज्य	-10.2004
▁निवेदय	-10.2014
▁कारयेत्	-10.2017
▁शरवर्ष	-10.2024
▁राजर्षि	-10.2024
भीषण	-10.2038
विचक्षण	-10.2043
▁बलिन	-10.2048
वृन्द	-10.2052
पृथ	-10.2055
तूष्णी	-10.2058
▁ऋक्ष	-10.2064
समायुक्त	-10.2071
▁मेदिनी	-10.2088
भाण्ड	-10.209
विस्तार	-10.2094
क्रन्द	-10.2104
▁मात्रा	-10.2104
वोच	-10.2111
▁शतशो	-10.2115
▁संज्ञा	-10.2116
कुसुम	-10.2119
▁अनुत्तमम्	-10.2137
व्यथ	-10.215
▁तथेति	-10.2163
▁फल्गुन	-10.2163
▁त्रिविध	-10.2177
▁प्रेषय	-10.2178
▁कृपण	-10.2188
▁गृध्र	-10.219
विरोध	-10.2219
▁आत्मानम्	-10.222
▁बाह्य	-10.2224
▁प्रजानां	-10.2225
▁विनश्य	-10.2238
▁सान्त्व	-10.2258
मेघ	-10.2267
▁हृषीकेश	-10.2271
▁पातक	-10.2301
▁गतिर्	-10.2303
▁भृग	-10.2308
कुर्वाण	-10.2315
हेतु	-10.2325
मन्व	-10.2325
▁स्तोत्र	-10.2327
▁पौत्र	-10.2327
▁साक्षाद्	-10.2331
▁हरिण	-10.2336
ताडय	-10.234
रेणु	-10.235
▁सैन्धव	-10.2353
ाजिन	-10.2354
▁दातव्य	-10.2361
गौर	-10.2369
जट	-10.2373
▁महामुनि	-10.2381
मूढ	-10.2396
लिंग	-10.2407
गम्भीर	-10.2408
रन्ध्र	-10.2421
▁श्लोक	-10.2424
मूर्छ	-10.2435
▁आहवे	-10.2459
▁शची	-10.2472
युग्म	-10.2477
▁ऽब्रवीद्	-10.2491
ैषिण	-10.2493
▁स्याद	-10.2496
▁जायन्ते	-10.2519
▁क्रियते	-10.252
▁तुमुल	-10.2522
▁पक्षिण	-10.2536
▁बह्व	-10.2539
मत्सर	-10.2559
▁साक्षिण	-10.2571
▁पावन	-10.2578
▁श्रीमार्कण्डेय	-10.2602
वत्सर	-10.2607
गर्त	-10.2616
तूर्ण	-10.2617
ेप्सित	-10.2619
धन्वा	-10.2621
▁लेभे	-10.263
▁उत्थाय	-10.2631
ङ्कुश	-10.2641
धिष्ठित	-10.2653
▁जिह्वा	-10.2656
▁वक्तुम्	-10.2659
▁मनीषिण	-10.2659
राष्ट्र	-10.2681
▁पुरस्कृत्य	-10.2687
संरब्ध	-10.2688
▁शय्या	-10.2695
▁सुयोधन	-10.2716
ोत्साह	-10.2719
▁प्रहसन्	-10.2726
▁मन्यते	-10.2744
स्रोत	-10.2754
▁द्विधा	-10.2757
कोविद	-10.2764
संश्रय	-10.2773
▁यमुना	-10.2773
▁कदाचन	-10.2777
दृग्	-10.2793
▁जनमेजय	-10.2801
कीर्त्य	-10.2805
▁आरुह्य	-10.2831
इ	-10.2847
▁रुचिर	-10.2855
▁मूर्ख	-10.2858
▁कुरुक्षेत्र	-10.2863
मातङ्ग	-10.288
श्लाघ	-10.2888
ाज्ञया	-10.2893
▁शृणुष्व	-10.2898
▁जगन्नाथ	-10.2916
▁ऋतु	-10.2917
▁प्रगृह्य	-10.292
ाऽऽ	-10.2927
ङ्घ्रि	-10.2945
▁कुपित	-10.2952
सूनु	-10.2971
▁त्रेता	-10.2973
▁धीमता	-10.2974
निरीक्ष	-10.2975
नमस्कृत	-10.2981
▁मुष्टि	-10.2991
▁महीपते	-10.2996
▁ब्रुवन्	-10.2997
▁मुमोच	-10.3008
▁धैर्य	-10.3008
मर्याद	-10.301
पर्यन्त	-10.3012
संचय	-10.3029
▁नरवाहनदत्त	-10.3032
▁सुदारुण	-10.3033
▁राधेय	-10.3035
▁शुभ्र	-10.3036
▁विवस्व	-10.3038
▁निशाचर	-10.3041
▁ताभ्या	-10.306
द्यापि	-10.306
▁दरिद्र	-10.3062
द्वन्द्व	-10.3062
▁किंचित्	-10.3064
ोद्यत	-10.3097
▁केचित्	-10.3097
▁क्रियता	-10.3104
तस्थु	-10.3107
▁भविष्यसि	-10.3111
मृत्यु	-10.3111
▁ऋषीणा	-10.3121
▁नीच	-10.3123
▁धारा	-10.3123
विहीन	-10.3123
कौतुक	-10.3129
▁समुत्पन्न	-10.3154
▁लोहित	-10.3157
▁विलोक्य	-10.3163
▁त्रिदिव	-10.3168
▁मैथिल	-10.318
▁सांख्य	-10.3184
▁मैत्रेय	-10.3186
रोचन	-10.3189
नगर	-10.3192
▁कुमुद	-10.3206
▁आयान्त	-10.323
अ	-10.509
ऋ	-10.8813
ए	-11.0888
आ	-11.164
ङ	-11.68
उ	-12.2911
ई	-12.6594
