<pad>	0
<unk>	0
<s>	0
</s>	0
<0x00>	0
<0x01>	0
<0x02>	0
<0x03>	0
<0x04>	0
<0x05>	0
<0x06>	0
<0x07>	0
<0x08>	0
<0x09>	0
<0x0A>	0
<0x0B>	0
<0x0C>	0
<0x0D>	0
<0x0E>	0
<0x0F>	0
<0x10>	0
<0x11>	0
<0x12>	0
<0x13>	0
<0x14>	0
<0x15>	0
<0x16>	0
<0x17>	0
<0x18>	0
<0x19>	0
<0x1A>	0
<0x1B>	0
<0x1C>	0
<0x1D>	0
<0x1E>	0
<0x1F>	0
<0x20>	0
<0x21>	0
<0x22>	0
<0x23>	0
<0x24>	0
<0x25>	0
<0x26>	0
<0x27>	0
<0x28>	0
<0x29>	0
<0x2A>	0
<0x2B>	0
<0x2C>	0
<0x2D>	0
<0x2E>	0
<0x2F>	0
<0x30>	0
<0x31>	0
<0x32>	0
<0x33>	0
<0x34>	0
<0x35>	0
<0x36>	0
<0x37>	0
<0x38>	0
<0x39>	0
<0x3A>	0
<0x3B>	0
<0x3C>	0
<0x3D>	0
<0x3E>	0
<0x3F>	0
<0x40>	0
<0x41>	0
<0x42>	0
<0x43>	0
<0x44>	0
<0x45>	0
<0x46>	0
<0x47>	0
<0x48>	0
<0x49>	0
<0x4A>	0
<0x4B>	0
<0x4C>	0
<0x4D>	0
<0x4E>	0
<0x4F>	0
<0x50>	0
<0x51>	0
<0x52>	0
<0x53>	0
<0x54>	0
<0x55>	0
<0x56>	0
<0x57>	0
<0x58>	0
<0x59>	0
<0x5A>	0
<0x5B>	0
<0x5C>	0
<0x5D>	0
<0x5E>	0
<0x5F>	0
<0x60>	0
<0x61>	0
<0x62>	0
<0x63>	0
<0x64>	0
<0x65>	0
<0x66>	0
<0x67>	0
<0x68>	0
<0x69>	0
<0x6A>	0
<0x6B>	0
<0x6C>	0
<0x6D>	0
<0x6E>	0
<0x6F>	0
<0x70>	0
<0x71>	0
<0x72>	0
<0x73>	0
<0x74>	0
<0x75>	0
<0x76>	0
<0x77>	0
<0x78>	0
<0x79>	0
<0x7A>	0
<0x7B>	0
<0x7C>	0
<0x7D>	0
<0x7E>	0
<0x7F>	0
<0x80>	0
<0x81>	0
<0x82>	0
<0x83>	0
<0x84>	0
<0x85>	0
<0x86>	0
<0x87>	0
<0x88>	0
<0x89>	0
<0x8A>	0
<0x8B>	0
<0x8C>	0
<0x8D>	0
<0x8E>	0
<0x8F>	0
<0x90>	0
<0x91>	0
<0x92>	0
<0x93>	0
<0x94>	0
<0x95>	0
<0x96>	0
<0x97>	0
<0x98>	0
<0x99>	0
<0x9A>	0
<0x9B>	0
<0x9C>	0
<0x9D>	0
<0x9E>	0
<0x9F>	0
<0xA0>	0
<0xA1>	0
<0xA2>	0
<0xA3>	0
<0xA4>	0
<0xA5>	0
<0xA6>	0
<0xA7>	0
<0xA8>	0
<0xA9>	0
<0xAA>	0
<0xAB>	0
<0xAC>	0
<0xAD>	0
<0xAE>	0
<0xAF>	0
<0xB0>	0
<0xB1>	0
<0xB2>	0
<0xB3>	0
<0xB4>	0
<0xB5>	0
<0xB6>	0
<0xB7>	0
<0xB8>	0
<0xB9>	0
<0xBA>	0
<0xBB>	0
<0xBC>	0
<0xBD>	0
<0xBE>	0
<0xBF>	0
<0xC0>	0
<0xC1>	0
<0xC2>	0
<0xC3>	0
<0xC4>	0
<0xC5>	0
<0xC6>	0
<0xC7>	0
<0xC8>	0
<0xC9>	0
<0xCA>	0
<0xCB>	0
<0xCC>	0
<0xCD>	0
<0xCE>	0
<0xCF>	0
<0xD0>	0
<0xD1>	0
<0xD2>	0
<0xD3>	0
<0xD4>	0
<0xD5>	0
<0xD6>	0
<0xD7>	0
<0xD8>	0
<0xD9>	0
<0xDA>	0
<0xDB>	0
<0xDC>	0
<0xDD>	0
<0xDE>	0
<0xDF>	0
<0xE0>	0
<0xE1>	0
<0xE2>	0
<0xE3>	0
<0xE4>	0
<0xE5>	0
<0xE6>	0
<0xE7>	0
<0xE8>	0
<0xE9>	0
<0xEA>	0
<0xEB>	0
<0xEC>	0
<0xED>	0
<0xEE>	0
<0xEF>	0
<0xF0>	0
<0xF1>	0
<0xF2>	0
<0xF3>	0
<0xF4>	0
<0xF5>	0
<0xF6>	0
<0xF7>	0
<0xF8>	0
<0xF9>	0
<0xFA>	0
<0xFB>	0
<0xFC>	0
<0xFD>	0
<0xFE>	0
<0xFF>	0
ं	-3.41451
ा	-3.90912
ः	-4.12359
े	-4.15638
▁	-4.27093
ो	-4.29188
म्	-4.34948
▁च	-4.40257
▁न	-4.51882
▁स	-5.05586
स्य	-5.14019
▁अ	-5.1706
ेन	-5.31568
▁इति	-5.45933
▁वा	-5.51252
ति	-5.52546
म	-5.60788
ि	-5.62358
▁ति	-5.64395
ी	-5.65455
स्	-5.675
ाः	-5.79277
▁तु	-5.88997
न्	-5.92737
▁एव	-5.94712
न	-5.98968
ाय	-6.04547
क	-6.1149
त	-6.1321
्य	-6.15085
त्	-6.1524
या	-6.15561
ानि	-6.16173
▁हि	-6.1629
▁वि	-6.2186
ौ	-6.22866
ान्	-6.23493
न्ति	-6.24118
▁तथा	-6.27539
तो	-6.29722
▁ते	-6.30366
ता	-6.31986
स्स	-6.32858
ात्	-6.33112
ैः	-6.33528
▁यथा	-6.33597
▁प्र	-6.34006
व	-6.34071
र्	-6.39014
▁ऽ	-6.40069
▁सर्व	-6.41057
य	-6.42001
▁आ	-6.42201
▁परि	-6.42499
▁य	-6.44914
ादि	-6.47351
ते	-6.48091
श्	-6.48406
ैर्	-6.54023
▁एवं	-6.55847
▁तत्	-6.56619
▁नाम	-6.5672
▁तत्र	-6.57306
▁महा	-6.57551
▁तद्	-6.58262
र	-6.59021
▁स्व	-6.59414
पि	-6.60284
्	-6.6084
▁सु	-6.61587
▁तं	-6.6316
ेषु	-6.63848
ेति	-6.63913
ानां	-6.6408
▁क	-6.68902
स	-6.69921
▁अथ	-6.71963
ेण	-6.72529
▁सा	-6.74352
श्च	-6.7504
▁सं	-6.76666
ना	-6.77578
तः	-6.79274
वि	-6.80346
ाद्	-6.80581
▁नि	-6.80861
▁तेन	-6.82578
द्	-6.84495
▁तस्य	-6.85275
▁त	-6.93169
▁अपि	-6.94901
▁सो	-6.97615
▁व	-7.0009
ञ्च	-7.00412
▁एक	-7.00816
▁मे	-7.01
▁पन	-7.01026
▁देव	-7.01546
▁यो	-7.04213
▁आह	-7.04285
▁किं	-7.0459
त्व	-7.04866
ां	-7.05775
▁भवति	-7.05835
▁उप	-7.06376
▁प	-7.08559
▁या	-7.10063
ु	-7.10784
नं	-7.12021
नि	-7.13368
▁ततो	-7.14833
सु	-7.16143
▁ऽपि	-7.16229
▁वै	-7.16747
प	-7.17149
द	-7.17374
सं	-7.17416
▁म	-7.1794
मिति	-7.18748
▁सम	-7.1888
▁पर	-7.20397
मेव	-7.21529
▁पटि	-7.21623
▁पञ्च	-7.21846
का	-7.2291
▁इत्य्	-7.23349
िका	-7.25243
कं	-7.25383
▁सह	-7.27517
ऽ	-7.28059
प्र	-7.28168
▁ये	-7.28816
्या	-7.28955
▁ब्रह्म	-7.28959
क्	-7.29106
▁प्रति	-7.29675
▁तद	-7.30177
ित	-7.30852
त्वात्	-7.31024
ार्थ	-7.31493
मा	-7.32368
▁ह	-7.32665
▁धर्म	-7.32821
▁काम	-7.32883
प्	-7.33094
▁ता	-7.34706
सि	-7.35051
ज	-7.35448
थ	-7.36679
ाति	-7.36726
▁होति	-7.36883
▁इव	-7.37276
▁तदा	-7.38355
ल	-7.38925
श	-7.39959
यो	-7.40166
तु	-7.40351
▁ततः	-7.41811
च	-7.4329
ानं	-7.43291
▁र	-7.43332
▁अभि	-7.44362
▁रूप	-7.44737
▁तत्थ	-7.44807
▁यत्	-7.45322
▁मा	-7.45557
▁यदि	-7.45719
▁पूर्व	-7.46337
त्वं	-7.46348
ण	-7.47503
ू	-7.47966
▁यद्	-7.49247
▁श्री	-7.50017
को	-7.50525
ित्वा	-7.51193
ैव	-7.52617
▁तस्स	-7.52946
▁भाव	-7.53256
रूप	-7.53453
▁कर्म	-7.53545
भिः	-7.53547
ोप	-7.53928
▁अनु	-7.54243
ेहि	-7.5431
ाद	-7.54629
▁मम	-7.55716
ान	-7.56022
स्तु	-7.56368
ह	-7.5691
ग	-7.57676
▁ज	-7.60877
▁कथं	-7.61311
▁ग	-7.6155
िता	-7.61616
स्व	-7.61663
▁येन	-7.61796
▁गुण	-7.61985
यति	-7.62119
▁कृत्वा	-7.62196
त्र	-7.62347
▁स्यात्	-7.62799
▁समा	-7.63217
ाणां	-7.63237
धर्म	-7.63301
हि	-7.63561
▁चैव	-7.63646
▁नु	-7.64831
▁अत्र	-7.6577
वत्	-7.66062
ेत्	-7.66381
ाव	-7.6662
▁रस	-7.66761
▁इदं	-7.67116
िक	-7.67562
ञ्	-7.67903
▁वेद	-7.68771
▁राज	-7.6883
ाणि	-7.69288
▁द	-7.69801
▁लोक	-7.70129
▁ना	-7.70509
तया	-7.70755
▁चित्त	-7.70807
येत्	-7.7127
ग्	-7.71368
▁सति	-7.71871
ट्	-7.72747
भ	-7.7284
▁ण	-7.72901
▁ज्ञान	-7.73044
च्	-7.73354
कम्	-7.73376
वा	-7.73462
▁हेतु	-7.73969
▁इ	-7.73985
ै	-7.74125
ज्ञान	-7.74391
भाव	-7.74751
▁काल	-7.74829
▁पुनः	-7.75302
▁उ	-7.76071
▁त्रि	-7.76844
ाद्य	-7.77124
सा	-7.77277
▁फल	-7.77283
▁भवेत्	-7.77899
▁यत्र	-7.78506
ये	-7.78558
▁अव	-7.78636
त्वेन	-7.78878
▁राजा	-7.79606
▁पे	-7.79847
▁पुनर्	-7.80522
यं	-7.80559
▁भव	-7.81122
▁मन्त्र	-7.81162
▁अयं	-7.8118
ङ्ग	-7.82567
ाम्	-7.83331
ैक	-7.83828
न्ते	-7.83909
भिर्	-7.83964
गुण	-7.84009
▁वुत्तं	-7.84288
के	-7.84407
तां	-7.85003
▁अन	-7.85231
▁यं	-7.85331
▁श	-7.85719
▁ख	-7.85779
ेसु	-7.86014
▁शिव	-7.86188
▁पद	-7.86267
▁बुद्ध	-7.86543
▁निर्	-7.87114
▁जन	-7.87756
▁एवम्	-7.88233
▁भूत	-7.89505
कार	-7.8976
▁कृत	-7.90064
ेव	-7.901
तं	-7.90503
कर	-7.9082
ान्तर	-7.90831
▁धम्म	-7.90939
भूत	-7.91057
ेत	-7.91451
ती	-7.91467
त्ता	-7.91622
▁सुख	-7.91651
▁ब	-7.91953
▁काय	-7.92649
देव	-7.92808
▁त्वं	-7.93144
▁बहु	-7.93524
भेद	-7.9421
▁नव	-7.94316
▁मया	-7.94497
▁बल	-7.95111
▁छ	-7.95213
▁न्ति	-7.95755
▁च्	-7.961
मात्र	-7.96556
तीति	-7.96591
▁तव	-7.96616
ाह	-7.96788
मान	-7.96931
ङ्	-7.97365
▁खो	-7.97762
▁पुत्र	-7.98153
▁पाप	-7.98321
न्त	-7.9859
▁व्	-7.98634
ष्ट	-7.99043
ितं	-7.99063
▁सम्	-7.99416
भि	-7.99599
परि	-7.99615
नु	-7.99678
ानु	-7.99853
▁दि	-8.0057
ज्	-8.00753
▁थ	-8.00821
▁नमः	-8.01182
▁को	-8.01441
कर्म	-8.01915
ने	-8.02276
▁जीव	-8.02334
▁का	-8.02981
▁ल	-8.03298
ानाम्	-8.03546
▁सोम	-8.03566
▁योग	-8.03862
ध	-8.04048
▁अत्थो	-8.04358
्यते	-8.0446
▁सर्वे	-8.04775
दा	-8.04873
▁वसेन	-8.05431
त्य	-8.05449
▁यः	-8.05785
पद	-8.06215
▁नो	-8.06272
▁दश	-8.06713
▁यस्य	-8.06757
नी	-8.07059
▁त्व	-8.07465
▁विय	-8.07658
योः	-8.07664
▁सदा	-8.07794
▁शब्द	-8.07872
फल	-8.07992
ास्	-8.08584
▁कृष्ण	-8.08758
▁परम	-8.08822
ामि	-8.08946
▁इत्य	-8.09016
▁भिक्खु	-8.09205
▁पाद	-8.09682
▁एतद्	-8.09755
▁आदि	-8.10018
िनी	-8.10143
ात्म	-8.10527
▁अहं	-8.1062
▁सप्त	-8.11527
ाश्	-8.11538
ापि	-8.11891
▁गो	-8.12097
▁ब्राह्मण	-8.12102
च्छ	-8.12109
▁ए	-8.12355
▁सि	-8.12804
सम	-8.12844
वर्ण	-8.1303
▁ध	-8.13441
ेत्वा	-8.1375
मि	-8.13959
कः	-8.14002
▁अर्थ	-8.14083
मन्त्र	-8.14451
▁तस्मा	-8.14618
लक्षण	-8.14628
रस	-8.1468
ैर	-8.1482
▁भग	-8.14861
▁प्राण	-8.14961
▁तेषां	-8.15168
ीय	-8.15351
▁इह	-8.15459
त्वा	-8.15628
▁कुल	-8.15727
स्त	-8.15805
ाङ्ग	-8.15978
त्वे	-8.16567
वान्	-8.16645
पाद	-8.16863
षु	-8.18009
जन	-8.18052
ोति	-8.18211
ायां	-8.18409
न्न	-8.18436
▁कु	-8.18689
यः	-8.18716
▁एष	-8.18885
न्तो	-8.18937
वर	-8.19049
योर्	-8.1923
▁एत्थ	-8.19276
▁अप्प	-8.19289
म्पि	-8.19324
▁अन्य	-8.19404
च्च	-8.19436
स्या	-8.19508
▁दुःख	-8.19676
▁तो	-8.19882
णा	-8.20103
राज	-8.20183
त्य्	-8.20394
▁सत्य	-8.20565
योग	-8.20722
▁तन्	-8.21013
ाभि	-8.21144
▁यदा	-8.2197
▁व्य	-8.22011
▁भगवान्	-8.22505
▁कम्म	-8.22509
▁ओ	-8.22661
ताम्	-8.22751
▁कर	-8.22752
मुख	-8.22991
▁कार्य	-8.23313
न्तु	-8.23346
▁दृष्ट्वा	-8.23612
▁द्वे	-8.23641
विशेष	-8.23768
▁आत्म	-8.23834
▁मनो	-8.23888
▁भ	-8.23891
व्य	-8.23954
मपि	-8.24097
चित्त	-8.24102
से	-8.2499
ेद्	-8.24994
रा	-8.25013
▁अप	-8.25058
स्थ	-8.25208
ान्त	-8.25328
▁मान	-8.2542
धि	-8.25995
काल	-8.26009
माह	-8.26023
ब्	-8.26121
▁येव	-8.26284
▁गच्छ	-8.26421
त्वम्	-8.2684
धा	-8.26842
▁विश्व	-8.26974
▁गत	-8.26975
▁सब्ब	-8.27222
क्ष	-8.27257
▁पि	-8.2734
▁सत्त	-8.27417
तर	-8.27461
विषय	-8.27563
▁विषय	-8.27844
▁घट	-8.28085
▁कत्वा	-8.28461
▁चा	-8.28587
ोक्त	-8.28802
ान्य	-8.28981
नो	-8.29099
▁तस्मात्	-8.29651
▁तीति	-8.29738
▁यज्ञ	-8.29879
▁सत्त्व	-8.30033
गत	-8.30516
▁गन्ध	-8.30705
▁नाग	-8.31202
▁नित्य	-8.31279
यां	-8.31509
▁पुरुष	-8.3158
▁ननु	-8.31614
क्रम	-8.31992
ट	-8.32306
▁धम्मा	-8.32575
▁स्वाहा	-8.32617
▁भेद	-8.33074
रि	-8.33162
ाश्च	-8.33583
▁प्रत्य	-8.33792
▁द्वि	-8.33941
▁कारण	-8.33948
▁परा	-8.33974
▁नाना	-8.34258
न्य	-8.34563
▁वर	-8.34641
्व	-8.34907
▁मह	-8.35095
▁खलु	-8.35096
▁वर्ण	-8.35154
▁वज्र	-8.35568
ख	-8.35798
्य्	-8.35855
ाप	-8.36336
▁लोके	-8.36737
पर	-8.3674
▁वुत्त	-8.36764
द्ध	-8.36918
▁ह्य	-8.36962
प्य	-8.37052
नम्	-8.37065
कृत	-8.37359
▁गुरु	-8.37677
दि	-8.37743
▁जात	-8.37831
भव	-8.38036
त्थ	-8.38043
र्थ	-8.38558
मुप	-8.3876
▁रूपं	-8.38887
▁धम्मो	-8.3896
▁तेसं	-8.39103
▁निर	-8.39229
ेश्वर	-8.39398
गण	-8.3941
▁रथ	-8.39457
शब्द	-8.39689
ल्	-8.39727
▁करोति	-8.39854
▁अस्य	-8.40453
▁देह	-8.40456
▁मूल	-8.40483
▁तम्	-8.40897
दोष	-8.41133
▁मेव	-8.41695
ष	-8.41905
▁तस्माद्	-8.42003
मु	-8.42437
▁पति	-8.42579
देश	-8.42649
भाग	-8.42731
▁पुन	-8.4288
▁धम्मं	-8.43314
▁उत्तर	-8.43317
▁मि	-8.43406
▁ह्य्	-8.43521
ड	-8.43739
रु	-8.4374
▁चेत्	-8.43865
▁अति	-8.43912
▁व्ध	-8.44196
ीति	-8.44235
▁सर्वं	-8.44392
सो	-8.44576
▁सिद्ध	-8.4462
▁इन्द्र	-8.44679
▁अत	-8.44765
द्य	-8.45012
कुल	-8.45183
▁परं	-8.45471
▁तां	-8.45924
▁वन	-8.45971
बल	-8.46151
▁पच्चया	-8.46307
▁मन	-8.46335
मय	-8.46506
▁शुद्ध	-8.46569
यन्	-8.46573
▁नास्ति	-8.46655
▁स्म	-8.46733
▁उच्यते	-8.4687
ाभ्यां	-8.46994
▁उवाच	-8.47129
▁तथैव	-8.47239
ार्थं	-8.4791
▁कथ	-8.48081
▁विशेष	-8.48115
▁भवन्ति	-8.48138
▁मुख	-8.48281
▁प्रथम	-8.48326
▁गण	-8.48535
ेय्	-8.48542
वद्	-8.48572
▁पद्म	-8.49172
्यं	-8.49233
लोक	-8.49269
सिद्ध	-8.4951
▁रो	-8.49652
▁चित्तं	-8.49668
वद	-8.49843
स्वभाव	-8.50186
▁प्रमाण	-8.50285
▁दान	-8.50513
▁जल	-8.50587
िर्	-8.50691
▁धन	-8.50814
▁पच्चयो	-8.51266
▁रि	-8.51377
▁एतत्	-8.51424
▁बोधि	-8.51427
मे	-8.51576
ेन्द्र	-8.51718
ोऽ	-8.52186
▁प्रत्यक्ष	-8.52218
▁सूर्य	-8.52222
ितः	-8.52405
▁क्रिया	-8.52497
▁कल्प	-8.52744
▁विप्र	-8.5276
ब	-8.52769
▁भगवन्	-8.53044
सर्व	-8.53084
भू	-8.53219
जा	-8.53294
▁धि	-8.53348
▁तर	-8.53363
सार	-8.53901
पूर्व	-8.54111
यन्ति	-8.54123
▁देवता	-8.54502
▁दोष	-8.55208
ज्ज	-8.55218
ात्मा	-8.55323
क्ख	-8.55454
▁अत्तनो	-8.55514
्वा	-8.55657
महा	-8.55774
▁विद्या	-8.55845
▁सुर	-8.5586
वाक्य	-8.55993
▁लिङ्ग	-8.5635
ण्ड	-8.56373
▁पुष्प	-8.56655
▁शक्ति	-8.56969
▁भोग	-8.57219
िनो	-8.57398
ोत्तर	-8.57597
▁पुण्य	-8.57949
▁अङ्ग	-8.5797
ाग्र	-8.58325
▁विना	-8.5845
▁नैव	-8.5863
▁कार	-8.58678
णि	-8.5869
ितो	-8.58773
काम	-8.58936
हा	-8.58972
रिति	-8.59021
▁वीर	-8.59166
▁भाग	-8.59248
ाश्रय	-8.59456
नाम	-8.59618
वेद	-8.59922
पुत्र	-8.59986
▁यद	-8.60131
ैश्	-8.60189
▁शरीर	-8.60331
▁जाति	-8.604
ितम्	-8.60552
ाव्	-8.60559
▁ताय	-8.6064
▁सुभूते	-8.60677
▁यावत्	-8.60726
दान	-8.60896
स्तथा	-8.60911
▁एकं	-8.6115
वे	-8.61224
▁भय	-8.61293
▁किम्	-8.61295
▁बन्ध	-8.61403
ैश्च	-8.61433
▁एत	-8.61462
अ	-8.61626
▁प्	-8.6189
▁इध	-8.61956
सम्	-8.62069
ानाम	-8.62102
▁करण	-8.62125
▁नेव	-8.62203
▁शत	-8.62297
पा	-8.62399
त्वाद्	-8.62461
▁दृष्ट	-8.62506
णं	-8.62595
करण	-8.62604
ुर्	-8.6262
कार्य	-8.62626
▁रुद्र	-8.62778
र्य	-8.62784
▁बं	-8.62803
शक्ति	-8.62862
▁देवा	-8.63182
▁काले	-8.63196
कल्प	-8.63255
▁याति	-8.63312
▁आस	-8.63803
कु	-8.63852
सी	-8.63997
ेन्द्रिय	-8.64095
▁दिव्य	-8.64105
▁उद्	-8.64109
▁प्रज्ञापारमिता	-8.64219
षि	-8.64261
▁पस्स	-8.64591
्यां	-8.64754
▁नाति	-8.64796
वास	-8.64869
▁अस्स	-8.6491
▁प्रकाश	-8.65056
ाभाव	-8.65547
पात	-8.65683
▁भिक्खवे	-8.65716
ादौ	-8.6583
▁राग	-8.65871
▁तस्या	-8.65956
▁अधि	-8.66144
▁ताव	-8.66404
▁वचन	-8.6654
त्त	-8.66625
▁शास्त्र	-8.66713
ला	-8.66732
स्यैव	-8.66735
▁पटिच्च	-8.66785
▁भविष्यति	-8.66787
न्तं	-8.6702
▁ठान	-8.67089
निर्	-8.67206
▁कस्य	-8.67219
▁इन्द्रिय	-8.67284
ञ्ज	-8.67541
भ्य	-8.67611
▁प्रिय	-8.67753
▁दुक्ख	-8.67958
▁तानि	-8.68075
िस्	-8.68316
द्वय	-8.68475
स्यापि	-8.68529
▁दण्ड	-8.69166
▁त्व्	-8.69298
▁तस्मिन्	-8.69318
▁स्याद्	-8.6969
हस्त	-8.69792
▁वस्तु	-8.69806
▁वेदितब्	-8.69831
ग्रह	-8.70011
ग्ग	-8.70166
ेर्	-8.70191
िनः	-8.7035
▁धातु	-8.70386
▁ञाण	-8.70514
▁अस	-8.70523
मार्ग	-8.70746
▁माया	-8.70869
▁राम	-8.70897
▁जय	-8.70899
रे	-8.70958
▁साध्य	-8.71018
▁एते	-8.71025
हर	-8.71056
ेभ्यो	-8.71193
▁वचनं	-8.71232
▁सार	-8.71268
जात	-8.71503
▁दीप	-8.71649
▁अप्य्	-8.71663
▁समाधि	-8.7182
▁तथागत	-8.72019
▁श्रुत्वा	-8.72051
▁वत्थु	-8.72059
▁हुत्वा	-8.72135
पक्ष	-8.7218
ान्य्	-8.72288
▁चन्द्र	-8.72343
▁बोधिसत्त्वो	-8.72417
स्वरूप	-8.72422
ेनैव	-8.72542
▁बोधिसत्त्व	-8.7258
▁उक्त	-8.7269
▁जप	-8.72765
▁वेदना	-8.73015
▁तान्	-8.73018
ाकार	-8.73222
युक्त	-8.73284
यित्वा	-8.73442
▁पक्ष	-8.7359
▁इत्यादि	-8.73627
▁अञ्ञ	-8.73713
यत्	-8.73903
ितुं	-8.74066
घ	-8.74089
▁रक्त	-8.7411
▁कथा	-8.74131
▁सकल	-8.74154
▁ठ	-8.74206
▁दक्षिण	-8.74288
▁पवत्त	-8.74475
ादीनां	-8.74648
न्ती	-8.74757
मूल	-8.74854
▁नील	-8.74855
▁मोह	-8.75033
▁भावः	-8.75566
▁स्वभाव	-8.75622
▁भूमि	-8.75642
▁हर	-8.75683
लिङ्ग	-8.75802
▁तस्मिं	-8.75888
री	-8.76055
मन	-8.76127
▁रत्न	-8.76128
▁सर्वत्र	-8.76194
▁वत्त	-8.76256
▁गृह	-8.76356
▁क्	-8.76431
▁अत्थि	-8.77146
प्रमाण	-8.77151
▁द्वादश	-8.77244
▁सामान्य	-8.77361
ेयं	-8.77664
रूपा	-8.7778
हित	-8.77976
▁सहस्र	-8.78168
मित्य	-8.78187
▁पत्ति	-8.78222
ल्ल	-8.7829
ित्	-8.78362
दर्शन	-8.78379
▁हरि	-8.78396
▁सेव	-8.78449
रत्न	-8.78469
▁भिन्न	-8.78487
▁मध्य	-8.78706
▁विपाक	-8.78795
▁चित्र	-8.7891
वती	-8.78948
ैस्	-8.78949
ाच्च	-8.79118
▁वास	-8.79299
ेश	-8.79379
काय	-8.7951
▁अतो	-8.79577
▁मग्ग	-8.7966
▁वाक्य	-8.79767
▁उत्	-8.79802
वृत्त	-8.79809
▁विष्णु	-8.79884
▁इदम्	-8.79965
▁मधु	-8.80003
हं	-8.80282
▁त्वया	-8.80418
▁निमित्त	-8.80575
ाग्नि	-8.80626
▁समान	-8.80654
मनु	-8.80679
▁साधु	-8.80838
▁नृप	-8.80839
▁दस	-8.80913
▁त्वा	-8.80921
▁क्रम	-8.80944
▁तथ	-8.80951
▁देवि	-8.80981
स्थान	-8.81005
प्रति	-8.81116
प्रत्यय	-8.81141
ाख्य	-8.81302
भोग	-8.81315
वार	-8.8133
▁सङ्खा	-8.81409
▁भगवा	-8.81428
▁मां	-8.8144
▁अट्ठ	-8.81473
▁तम	-8.81477
▁जान	-8.81525
▁नमो	-8.8157
▁प्राप्त	-8.81704
देह	-8.81717
▁द्वितीय	-8.81728
शत	-8.81743
▁द्रव्य	-8.81754
▁वद	-8.81761
▁अत्त	-8.81856
हार	-8.81924
▁कुर्यात्	-8.82111
गा	-8.82176
▁वस	-8.82277
क्रिया	-8.82415
▁बीज	-8.82486
वचन	-8.82528
बन्ध	-8.82557
▁विध	-8.82589
▁मोक्ष	-8.8259
ब्रह्म	-8.82637
▁केन	-8.82899
▁देवी	-8.83081
▁जायते	-8.83187
▁मास	-8.83207
्यै	-8.83382
▁वार	-8.83414
▁इमे	-8.83433
▁शृणु	-8.83491
▁वाति	-8.83501
ट्ठ	-8.83546
▁नित्यं	-8.83582
सत्त्व	-8.8405
▁अस्ति	-8.84062
प्राप्त	-8.84115
ेत्य	-8.84116
शेष	-8.84203
▁स्त्री	-8.84402
▁सन्ति	-8.84453
▁संसार	-8.8468
▁मार्ग	-8.84699
▁अत्थ	-8.84711
▁अनेन	-8.84734
चक्र	-8.84746
▁भू	-8.84902
चि	-8.84989
▁नर	-8.85047
▁इमं	-8.85101
▁चापि	-8.85162
▁पात	-8.85205
▁शान्त	-8.85233
▁स्वयं	-8.85275
▁मध्ये	-8.85371
मल	-8.85476
▁फलं	-8.85525
▁यम	-8.85612
काले	-8.85669
भय	-8.85744
▁हस्त	-8.8595
▁शुभ	-8.86323
▁ऽयं	-8.86479
ाक्ष	-8.86491
पुष्प	-8.86648
दु	-8.86702
▁पुर	-8.86839
ण्	-8.8689
▁मत्त	-8.86948
र्ष	-8.86981
▁अनेक	-8.87037
▁याव	-8.871
स्त्व	-8.87211
▁बाल	-8.87307
ज्ञ	-8.87388
गन्ध	-8.87521
मण्डल	-8.87605
▁यस्स	-8.8765
ग्र	-8.87739
▁तच्	-8.87786
विद्या	-8.87815
▁दिट्ठि	-8.8799
▁तत्त्व	-8.88038
सुख	-8.8805
क्षय	-8.88086
▁श्रुत	-8.88132
नीय	-8.88148
▁पिण्ड	-8.88352
भिन्न	-8.88383
मी	-8.88491
साधन	-8.88557
मह	-8.88699
▁लक्षण	-8.88716
ात्मक	-8.88741
▁पुनर	-8.88771
▁क्ष	-8.88976
▁वर्ष	-8.89231
▁द्वार	-8.89374
ाप्य	-8.89404
कारण	-8.8963
चर	-8.89751
▁बो	-8.89989
ाच्	-8.90048
▁अह	-8.90086
▁ध्यान	-8.90104
ेष्व	-8.90249
▁कुरु	-8.90306
▁स्वर्ग	-8.90507
▁कत	-8.90527
ोर्	-8.9061
▁नत्थि	-8.90628
▁सन्	-8.90759
▁पुरा	-8.90871
▁गम	-8.90905
▁दुर्	-8.90939
▁चक्र	-8.90972
▁भन्ते	-8.91025
▁मु	-8.91091
पुरुष	-8.91154
▁उभय	-8.91173
▁सील	-8.91234
रो	-8.91464
▁कम	-8.91475
▁पूर्ण	-8.91531
▁सम्मा	-8.91562
▁उद	-8.91611
▁मार	-8.91686
रूपं	-8.91774
▁पच्चय	-8.9189
श्चैव	-8.92031
ानन्द	-8.92096
▁कुमार	-8.92114
▁वण्णना	-8.9216
िकं	-8.92241
▁थं	-8.92311
राग	-8.92643
▁पदं	-8.92747
ेय्य	-8.92873
▁पुत्त	-8.92991
िः	-8.93091
ुप्	-8.93153
सूत्र	-8.93195
▁एको	-8.93229
▁दिना	-8.93257
▁अनन्त	-8.93333
▁मृग	-8.9335
▁स्वरूप	-8.93387
बोध	-8.93419
पति	-8.93475
▁साम	-8.93721
▁सुत	-8.93733
▁वाम	-8.93793
ेर	-8.94047
▁दु	-8.94117
▁साधन	-8.9417
▁चेति	-8.94196
ान्न	-8.94246
धर	-8.94553
ुः	-8.94559
नेन	-8.94576
▁शर	-8.94631
हेतु	-8.94691
▁रक्ष	-8.947
▁सूत्र	-8.94948
विध	-8.94974
▁द्विज	-8.95034
▁जगत्	-8.95343
ह्	-8.95386
स्था	-8.9543
▁चतुर्	-8.9567
पाल	-8.958
▁उप्पज्ज	-8.95816
▁अपर	-8.95871
▁इत्यर्थः	-8.96151
▁जन्म	-8.96304
▁यावद्	-8.96327
▁समु	-8.96369
▁झान	-8.96485
ुत्	-8.96516
▁निरोध	-8.96586
दृष्ट	-8.96603
▁पठम	-8.96627
द्रव्य	-8.96752
णी	-8.96757
▁पश्य	-8.96782
वाद	-8.96808
▁प्रा	-8.96907
▁अहम्	-8.96923
▁कर्ण	-8.97016
ोद्	-8.97105
ेत्य्	-8.97111
न्तर	-8.97154
तस्	-8.97245
▁क्षण	-8.97333
▁बोध	-8.97342
▁होन्ति	-8.97437
ांश्	-8.97512
▁पञ्ञा	-8.97571
ेह	-8.97632
▁मद	-8.97726
धातु	-8.97801
▁पुब्ब	-8.97938
बीज	-8.98037
▁तदेव	-8.98059
▁रा	-8.98217
स्र	-8.98282
▁यथ	-8.98299
▁चर	-8.98403
▁देश	-8.98531
ेऽ	-8.98855
▁ती	-8.98882
▁सुत्त	-8.98921
▁इमिना	-8.99022
सहस्र	-8.99054
▁मुनि	-8.99136
▁अन्त	-8.99141
▁गता	-8.99166
श्वर	-8.99174
मिव	-8.9924
▁तिआदि	-8.99505
▁गहेत्वा	-8.99525
▁उप्पज्जति	-8.99526
व्रत	-8.99605
द्र	-8.99705
यते	-8.99797
▁तत	-8.99912
▁पा	-8.99975
▁गर्भ	-9.00071
▁बा	-9.00092
▁प्रधान	-9.00143
ेभ्यः	-9.00144
ेष्व्	-9.00182
▁यत	-9.00221
िणी	-9.00231
▁वाच	-9.00349
▁यतो	-9.00476
▁रूपा	-9.00506
▁दुतिय	-9.00523
लि	-9.00523
▁वो	-9.00672
प्प	-9.00795
▁गाम	-9.00797
स्ति	-9.00821
ार्ध	-9.0083
▁वय	-9.00885
ागम	-9.00907
वर्ष	-9.00917
▁अभाव	-9.0101
वै	-9.01284
▁कल	-9.013
िय	-9.01347
▁विद्यते	-9.01397
▁विष	-9.01611
▁कस्स	-9.01699
ोत्तम	-9.017
तत्त्व	-9.0199
▁अग्नि	-9.02017
▁पत्त	-9.02143
ठ	-9.02186
निमित्त	-9.02209
▁बाह्य	-9.02365
▁व्रज	-9.02393
▁तावत्	-9.02536
न्ता	-9.02668
▁आपत्ति	-9.02669
धन	-9.0282
िको	-9.03063
▁रण	-9.031
▁मुक्त	-9.03156
▁निब्ब्	-9.03201
▁वण्ण	-9.03201
▁दस्सन	-9.03274
▁वतो	-9.03308
ांश	-9.03314
▁मणि	-9.03342
भिर	-9.03458
ाणाम्	-9.03461
▁विधि	-9.03485
मध्य	-9.03538
ध्य	-9.03564
▁हित	-9.0357
▁अनुप	-9.03671
▁ठानं	-9.03704
▁अभ्य	-9.03742
ष्य	-9.03774
▁अवि	-9.03815
▁बुद्धि	-9.03842
त्रय	-9.03869
▁तर्हि	-9.03911
▁वाद	-9.03912
▁विज्ञान	-9.03985
ादिषु	-9.03999
▁षोडश	-9.04
▁हत्थ	-9.04051
वी	-9.04158
▁कथम्	-9.04179
लं	-9.04297
ृ	-9.04399
▁विकल्प	-9.04457
▁वुच्चति	-9.04519
ासन	-9.04844
शो	-9.04854
▁भद्र	-9.04911
▁भक्त	-9.0497
▁भो	-9.05051
वश	-9.05051
भा	-9.05159
▁ऽन्य	-9.05281
▁पीत	-9.05321
गम	-9.05325
सन्	-9.05455
▁गतो	-9.05565
▁चतु	-9.05602
▁दिस्वा	-9.05612
▁त्वम्	-9.0563
ाहं	-9.05645
ादयः	-9.05651
▁गत्वा	-9.05672
▁टि	-9.05712
▁अर्थः	-9.05749
णे	-9.05999
▁सङ्घ	-9.06125
▁पश्यति	-9.06192
नव	-9.06311
दुःख	-9.06357
श्व	-9.06549
▁शून्य	-9.06567
▁वस्स	-9.06775
▁सचे	-9.06986
▁तथापि	-9.06995
▁हृदय	-9.07056
▁संघ	-9.07071
ाथ	-9.07127
▁तीणि	-9.07149
▁इतर	-9.07205
▁मय	-9.07331
▁विनय	-9.07333
▁पृथिवी	-9.07353
▁चेव	-9.07401
ेन्	-9.07499
यु	-9.07571
▁केवल	-9.07645
▁कि	-9.0769
▁पशु	-9.07716
▁दूर	-9.07736
▁घ	-9.07875
येद्	-9.07879
दिश	-9.08009
दृश	-9.08067
बुद्ध	-9.081
ुर	-9.08115
ास	-9.08131
▁परम्	-9.0826
काः	-9.08352
▁तया	-9.08379
▁यन्	-9.08513
▁क्व	-9.08639
सह	-9.08736
ोदय	-9.08752
▁बद्ध	-9.08773
सौ	-9.08792
▁अन्यथा	-9.0885
▁तप	-9.08874
रेव	-9.08932
वर्ग	-9.09001
▁सिद्धि	-9.09022
गो	-9.09199
▁कम्मं	-9.09285
▁निज	-9.09294
▁आनन्द	-9.0933
मति	-9.09402
▁तृतीय	-9.09407
▁भिक्खू	-9.09612
▁भि	-9.09668
ाल	-9.09758
वन	-9.09821
ीकृत	-9.0997
▁किम	-9.10057
▁सच्च	-9.10063
▁आर्य	-9.10141
ीं	-9.10183
▁विसेस	-9.10206
▁पूर्वं	-9.10242
ग्नि	-9.10327
न्द	-9.10786
▁सर	-9.1083
ष्ठ	-9.109
नाय	-9.10911
ोऽपि	-9.10941
▁युक्त	-9.10954
▁स्थित	-9.1103
▁पु	-9.11035
▁वच	-9.11037
िं	-9.11047
▁किल	-9.11088
ाक्षर	-9.11328
ासु	-9.11481
▁नन्द	-9.11536
ीनां	-9.11684
▁उत्तम	-9.11883
▁मृत	-9.11959
्यमान	-9.12105
▁उत	-9.12115
▁भावो	-9.12146
▁प्रजा	-9.12235
▁वसे	-9.12236
म्ब	-9.12309
▁विहार	-9.12355
वृत्ति	-9.12627
स्तस्य	-9.12726
▁ऽप्य	-9.1289
▁चिर	-9.12978
मिदं	-9.12995
स्त्र	-9.13108
▁कुशल	-9.13203
▁पन्न	-9.13249
▁उदक	-9.13332
▁नियम	-9.13396
▁अरिय	-9.13398
पुर	-9.13405
▁चतुर्थ	-9.13491
▁सर्वा	-9.13644
मुच्यते	-9.13725
्यो	-9.13739
▁मञ्ञ	-9.13765
▁वापि	-9.13838
▁दयो	-9.13934
स्थित	-9.13945
मुक्त	-9.13986
▁ततस्	-9.14022
▁पृथक्	-9.14123
य्	-9.14145
▁तादृश	-9.1423
नाथ	-9.1443
▁विचार	-9.14448
▁कुसल	-9.14607
▁सुखं	-9.14641
र्व	-9.14649
▁हार	-9.14745
ार	-9.14951
रथ	-9.15053
पत्र	-9.15144
चार	-9.15169
▁तत्रैव	-9.15226
ली	-9.15446
▁लाभ	-9.15498
▁घृत	-9.1576
▁ऽथ	-9.15804
▁हा	-9.15973
▁दानं	-9.16107
मथ	-9.16136
योर	-9.1618
षा	-9.1618
िति	-9.16193
ेदं	-9.16222
▁दीर्घ	-9.16269
▁माता	-9.16522
▁गह	-9.16524
रं	-9.16536
संभव	-9.16549
क्त	-9.16555
शरीर	-9.16555
घ्न	-9.16594
ेत्यर्थः	-9.16646
िताः	-9.16651
विज्ञान	-9.16744
▁सत्	-9.16855
▁दर्शन	-9.16894
शून्यता	-9.16914
▁एता	-9.16968
मेक	-9.17191
▁शेष	-9.17235
ाम	-9.17243
ाधि	-9.17289
लाभ	-9.17387
▁सूक्ष्म	-9.17514
ास्ति	-9.17539
▁ब्	-9.17561
ान्ते	-9.17562
▁भज	-9.17607
▁आगत	-9.17821
प्रिय	-9.17826
▁ग्रह	-9.17864
मध्ये	-9.18092
▁स्थान	-9.18145
मान्	-9.18185
▁यत्थ	-9.182
▁भवे	-9.18201
▁स्वयम्	-9.18297
▁षट्	-9.18457
र्ह	-9.1846
▁प्रसाद	-9.18554
▁नियत	-9.18681
▁किलेस	-9.18687
ुद्	-9.18804
त्वाद	-9.18809
▁विप्प	-9.18825
▁अना	-9.18868
▁पच्चयेन	-9.18949
स्मिं	-9.18971
▁संस्कार	-9.18991
▁विस	-9.19016
▁सद्धिं	-9.19078
गर्भ	-9.19156
वाह	-9.19161
▁छन्द	-9.19225
दं	-9.19265
विधि	-9.19353
▁प्रकृति	-9.1942
सिद्धि	-9.19465
ङ्क	-9.19561
▁अतः	-9.1965
ह्य	-9.1967
▁गन्त्वा	-9.19679
▁जिन	-9.1971
▁चक्खु	-9.19731
▁ड	-9.19742
ेय	-9.19782
▁पर्य	-9.19794
▁आकाश	-9.1982
▁अग्ग	-9.1999
प्रकाश	-9.19992
विकल्प	-9.19998
▁सती	-9.20019
ेपि	-9.20027
▁सम्यक्	-9.20039
वः	-9.2008
जल	-9.2012
िते	-9.20302
▁सन्नि	-9.2032
▁वृत्त	-9.20343
▁चार	-9.20424
शास्त्र	-9.20761
▁नापि	-9.20952
▁मानो	-9.20996
पु	-9.21043
वस्तु	-9.21045
▁धूम	-9.21119
न्त्य	-9.21167
▁धार	-9.21191
▁रियं	-9.21196
▁स्	-9.21231
िना	-9.21265
▁मन्द	-9.21299
▁चीवर	-9.21388
वो	-9.21441
ोदक	-9.2152
कल	-9.21539
▁दन्त	-9.21628
▁व्रत	-9.2164
मद	-9.21751
घात	-9.21809
▁सिया	-9.22201
▁तौ	-9.22231
▁सिक्खा	-9.22337
▁हेतोः	-9.22353
▁षड्	-9.22486
▁तिष्ठ	-9.22597
भ्यो	-9.22751
▁अद्य	-9.22813
▁सेस	-9.23095
▁संशयः	-9.23108
▁तुल्य	-9.23109
ाकाश	-9.23238
▁कप्प	-9.23261
णां	-9.23292
ादिकं	-9.23334
व्	-9.2343
▁अहोसि	-9.23473
न्द्र	-9.23699
▁भावना	-9.23756
प्रयोग	-9.23765
नः	-9.23775
ैष	-9.23818
याम्	-9.23823
ाशय	-9.23846
दश	-9.23856
मोह	-9.2394
▁यज	-9.23948
गुरु	-9.23952
▁अधिप्	-9.23953
▁ज्ञानं	-9.24064
▁पूजा	-9.24068
▁शील	-9.24191
मत	-9.24256
ेत्यादि	-9.24284
▁गा	-9.24307
▁हीन	-9.24409
ग्रहण	-9.24434
▁कुम्भ	-9.24447
▁स्पर्श	-9.24452
▁ठाने	-9.24538
लो	-9.24563
प्रकार	-9.24603
▁आप	-9.2464
▁पर्वत	-9.24659
मात्रेण	-9.24764
त्वम	-9.24778
▁ऽन	-9.24807
न्न्	-9.24821
▁सय	-9.24844
▁मनः	-9.24891
▁के	-9.24999
ेतुं	-9.25016
▁हत	-9.25221
केन	-9.25372
▁माना	-9.25498
▁दत्त	-9.25544
▁वह्नि	-9.256
ादयो	-9.25866
त्या	-9.26001
▁क्लेश	-9.26003
▁चरति	-9.26016
▁भक्ति	-9.26031
▁सौ	-9.26063
ाया	-9.26118
ब्ब	-9.26205
िर	-9.26231
▁मनसा	-9.26313
क्षण	-9.26448
▁सङ्ग	-9.26461
न्यास	-9.26538
याम	-9.26716
▁होम	-9.26739
दर्श	-9.26759
▁राजन्	-9.2676
▁वध	-9.26785
ार्य	-9.26877
▁संप्र	-9.2704
▁सेना	-9.27071
▁पेत्वा	-9.27134
▁गमन	-9.27146
▁यु	-9.27149
दिति	-9.27186
▁तार	-9.27191
ायै	-9.27198
▁मुख्य	-9.27304
ेद	-9.27304
▁उक्तं	-9.2731
तत्	-9.27324
▁विनि	-9.2735
▁मित्र	-9.2746
चित	-9.27487
विरोध	-9.27515
▁क्षेत्र	-9.27602
म्हि	-9.27711
ायाः	-9.27713
▁वायु	-9.27785
रण	-9.278
जन्म	-9.27833
धार	-9.27835
ले	-9.2793
▁अष्ट	-9.28021
वह	-9.28093
जीव	-9.28124
▁दृश्यते	-9.28159
दत्त	-9.28286
▁अन्तर	-9.28286
▁वे	-9.28288
समा	-9.28504
▁स्मृति	-9.28617
▁पच्च	-9.28789
भ्यां	-9.28798
▁केवलं	-9.2882
न्ध	-9.28838
▁गाथा	-9.28936
नियम	-9.29055
▁व्या	-9.29103
▁नी	-9.29139
▁जानाति	-9.29187
विशिष्ट	-9.29196
ढ	-9.29252
ीर	-9.29253
त्ति	-9.29301
▁वृक्ष	-9.29324
▁तस्माद	-9.29357
▁वयं	-9.29392
त्रि	-9.29392
▁मधुर	-9.29439
▁तयो	-9.29485
ासि	-9.29506
▁पिता	-9.29506
▁यानि	-9.29552
संज्ञ	-9.2959
▁सब्बे	-9.29621
ादिति	-9.29661
मन्य	-9.29677
▁शिष्य	-9.29709
▁वाच्य	-9.29728
क्र	-9.29732
हीन	-9.29732
ांश्च	-9.2975
▁पितृ	-9.29781
▁पाक	-9.29936
▁क्षीर	-9.30074
ास्ते	-9.30103
▁एतेन	-9.30155
▁क्रोध	-9.30206
शून्य	-9.30218
संबन्ध	-9.30294
▁तावद्	-9.30434
▁एषा	-9.30435
▁धम्मस्स	-9.30576
था	-9.30591
▁ब्रह्मा	-9.30616
▁वह	-9.30632
▁श्रुति	-9.30657
ादिभिः	-9.30706
▁समस्त	-9.30717
▁ट	-9.30773
▁पार	-9.30801
गृह	-9.30825
िभिः	-9.30964
गोचर	-9.30985
▁शक्य	-9.30994
▁विञ्ञाण	-9.3102
▁प्राप्य	-9.31051
ाभास	-9.31052
शः	-9.31106
▁श्रेष्ठ	-9.31108
▁मरण	-9.31175
▁जीवित	-9.3119
च्छेद	-9.31215
श्री	-9.31325
▁थेर	-9.31342
्यम्	-9.31345
▁कारणं	-9.31366
▁समुट्	-9.31371
▁इष्ट	-9.3142
पथ	-9.31422
ेऽपि	-9.31476
▁अयम्	-9.31526
तम	-9.31565
स्मिन्	-9.31624
▁कला	-9.31627
▁प्रत्यय	-9.31664
शा	-9.31808
नां	-9.31864
▁धो	-9.31928
त्तं	-9.31984
▁ऽहं	-9.31998
र्ध्व	-9.32131
▁हंस	-9.32139
▁अन्न	-9.32144
▁परस्पर	-9.32313
जं	-9.32351
▁संज्ञा	-9.32371
▁वदन्ति	-9.32485
द्वार	-9.32486
फलं	-9.32557
ष्व	-9.32566
▁श्वेत	-9.32611
▁शुक्ल	-9.32632
▁राक्षस	-9.32635
▁वश	-9.32676
मभि	-9.32781
ोद	-9.32829
यामास	-9.3288
फ	-9.32914
▁वात	-9.3292
म्भ	-9.33058
▁ऽनु	-9.33058
▁सद्द	-9.33246
▁सञ्ञा	-9.3325
▁सेन	-9.33283
धी	-9.33509
वस	-9.33572
विष	-9.33646
▁य्	-9.33662
▁महत्	-9.3378
▁गोप	-9.33786
ामृत	-9.3384
▁इदानि	-9.33877
प्रभ	-9.33883
मात्रं	-9.33897
▁गति	-9.33902
▁भूत्वा	-9.33973
ाणाम	-9.34056
द्धि	-9.3407
ायतन	-9.34089
▁युत्त	-9.34091
▁मं	-9.34223
▁क्वचित्	-9.3425
व्या	-9.34279
▁सर्वेषां	-9.34281
▁खा	-9.34286
▁तिआ	-9.34469
▁गज	-9.34472
्यन्ते	-9.34516
▁सद	-9.34585
▁स्मर	-9.3469
श्रुत	-9.34748
त्स	-9.34775
ाख्या	-9.34931
▁वता	-9.35001
नन्द	-9.35022
▁अश्व	-9.35176
दे	-9.35182
▁वुत्ता	-9.35182
▁अमृत	-9.35238
▁पुञ्ञ	-9.35269
ियं	-9.3528
▁शक्र	-9.35379
▁प्रयोग	-9.3541
ादीनि	-9.35711
णो	-9.35757
ोत्	-9.35869
न्तः	-9.35913
▁भविस्	-9.35943
▁ऽप्य्	-9.36059
▁सुवर्ण	-9.36065
▁भीम	-9.36107
▁बाध	-9.36133
▁उपादाय	-9.36192
साध्य	-9.36245
▁श्व	-9.3631
पद्म	-9.36336
▁पुरिम	-9.36337
▁ञ	-9.36348
सू	-9.36405
▁पीठ	-9.3642
▁ज्ञात	-9.36482
▁विहर	-9.36595
▁हे	-9.36612
▁पत	-9.36613
बुद्धि	-9.36675
रक्त	-9.36711
▁दत्वा	-9.3676
कृत्य	-9.36869
▁स्वप्न	-9.36893
मास	-9.37138
▁भवेद्	-9.37145
धाय	-9.37171
▁सिंह	-9.372
▁कोटि	-9.37206
पदं	-9.37219
शील	-9.37279
िया	-9.37289
▁आहार	-9.37291
▁आत्मा	-9.37327
▁किर	-9.37345
▁प्रज्ञा	-9.37353
▁यतः	-9.37364
गता	-9.374
▁वत्स	-9.37511
▁सवि	-9.37608
क्रान्त	-9.37726
हत	-9.37784
र्ध	-9.37988
ादित्य	-9.38238
ञ्हि	-9.38265
▁कार्यं	-9.38296
विभाग	-9.38301
छ	-9.38325
▁सत	-9.38459
यन्त	-9.38505
मित	-9.38541
▁किञ्चि	-9.38674
क्ष्य	-9.38704
▁अपरि	-9.38771
िके	-9.38822
सेन	-9.38855
ुप	-9.38932
▁पीति	-9.38984
▁सम्बन्ध	-9.39006
▁चाति	-9.39033
▁तच्च	-9.39105
▁सत्था	-9.39241
▁कामा	-9.39255
▁लक्ख	-9.39308
नय	-9.39309
▁अहो	-9.39326
▁द्	-9.39355
▁विभाव	-9.3938
▁गङ्गा	-9.39454
▁अज	-9.39513
▁व्यवहार	-9.3961
दण्ड	-9.3965
▁मल	-9.39651
बाध	-9.39652
▁पथ	-9.39699
▁दिट्ठ	-9.39713
आ	-9.39727
रहित	-9.3978
▁रम्म	-9.39786
संयोग	-9.39804
▁चित्	-9.39825
▁होतीति	-9.39853
▁योजना	-9.39893
याः	-9.39954
च्छि	-9.39979
शु	-9.40045
सम्बन्ध	-9.40117
▁बभूव	-9.40147
चन्द्र	-9.40154
भूमि	-9.40157
तन्त्र	-9.40179
▁मृत्यु	-9.40218
▁एतं	-9.40271
▁सन्धि	-9.40394
▁पट	-9.40397
सम्भव	-9.40399
▁दीनं	-9.40404
▁प्रसिद्ध	-9.40406
▁दक्षिणा	-9.40436
▁रे	-9.40448
▁मध्यम	-9.40456
सर	-9.40458
▁दक्ष	-9.40467
▁पुराण	-9.40469
▁दट्ठब्	-9.40529
▁दैव	-9.40579
▁निट्ठि	-9.40589
ोच्यते	-9.40668
▁सहस्स	-9.40711
ाधिक	-9.40721
▁था	-9.40866
▁नेत्र	-9.40912
रू	-9.41012
मित्यर्थः	-9.41049
▁सुत्वा	-9.41298
▁वत्वा	-9.41315
▁क्रमेण	-9.41349
▁उपरि	-9.41373
▁रति	-9.41396
कस्य	-9.4144
बद्ध	-9.41472
▁भोजन	-9.41481
रूपेण	-9.41515
सत्	-9.41583
▁गिरि	-9.41604
नाश	-9.41637
▁भावेन	-9.41685
▁पूज	-9.41686
▁भास	-9.41742
▁वाचा	-9.41757
▁दृढ	-9.41777
▁ठित	-9.41827
▁भा	-9.41838
िनि	-9.41954
▁योनि	-9.41956
▁बोधिसत्त्वस्य	-9.41966
▁दा	-9.4199
ाभावात्	-9.42008
▁नारायण	-9.42024
▁मही	-9.42025
िष्यति	-9.42038
पान	-9.42039
िष	-9.42066
मयं	-9.42074
वज्र	-9.42111
▁चिद्	-9.42175
▁सूत	-9.42214
ाचार्य	-9.42387
▁अब्	-9.4241
भावेन	-9.42416
माण	-9.42434
वीर	-9.42444
▁वस्त्र	-9.42446
▁ऽर्थ	-9.42508
कैः	-9.42523
वृक्ष	-9.42525
▁सद्	-9.4259
▁इमा	-9.42613
▁कस्मा	-9.42717
खण्ड	-9.42727
ात्मना	-9.42746
कर्ण	-9.42755
▁साधक	-9.42762
▁यस्मा	-9.42777
ॠअ	-9.42796
क्क	-9.42844
▁पात्र	-9.42946
▁क्रमात्	-9.43012
भु	-9.43124
▁दिन	-9.43125
▁योजन	-9.43173
▁पुब्बे	-9.43175
स्तत्र	-9.43185
नाद	-9.43257
▁वृद्ध	-9.43278
▁असि	-9.4332
मुद्रा	-9.4337
▁दत्त्वा	-9.43399
त्था	-9.43598
र्ज	-9.43683
▁ऽस्य	-9.43706
▁गच्छति	-9.43762
▁जरा	-9.43832
▁निक्ख	-9.43837
घट	-9.43881
वीर्य	-9.43887
▁रोग	-9.43937
पत्य	-9.43941
्यादि	-9.4396
कोटि	-9.43974
▁लब्ध	-9.4399
ाचार	-9.44013
ेतब्	-9.44109
तिष्ठ	-9.44172
दन्त	-9.44345
▁फ	-9.44349
▁निष्	-9.44441
▁तीर्थ	-9.44447
▁कृतं	-9.44454
प्राण	-9.44456
▁तात	-9.44466
ोपि	-9.44475
▁प्रकृत	-9.44514
▁इयं	-9.44574
ाद्या	-9.44667
▁सर्वदा	-9.44668
विद्य	-9.44803
ात्र	-9.44834
ेसि	-9.4488
▁तद्यथा	-9.449
▁आदित्य	-9.44918
गतं	-9.44942
▁गहित	-9.44946
▁दृश्य	-9.44984
▁समास	-9.44985
ासौ	-9.44992
नात्	-9.4504
▁ही	-9.45051
▁देस	-9.45073
▁हेम	-9.45077
ाश्व	-9.45098
ुं	-9.45112
▁ग्राम	-9.45232
ष्	-9.45237
सत्य	-9.45252
▁रम	-9.45272
▁लक्ष	-9.4529
▁तेषु	-9.4532
ध्यान	-9.45365
▁क्षय	-9.45402
▁मनुष्य	-9.45421
▁आरम्म	-9.45426
▁वरुण	-9.45554
त्येव	-9.45621
▁कौशिक	-9.45677
▁मण्डल	-9.45713
▁नान्य	-9.45796
मृत	-9.45815
स्वर	-9.45865
▁यव	-9.45943
र्म	-9.4597
तीर्थ	-9.46032
▁दस्सेति	-9.46062
▁सर्वान्	-9.4608
क्षर	-9.46184
▁स्फुट	-9.46213
नित्य	-9.4637
▁प्रज्ञापारमिताय	-9.46428
ानीति	-9.46443
▁विपस्स	-9.4645
▁भ्रम	-9.46467
▁प्रीति	-9.46546
▁युग	-9.46552
▁समये	-9.46641
भृत	-9.46654
▁वीर्य	-9.46701
ैतद्	-9.46833
▁लद्ध	-9.46857
ञ्ञ	-9.46871
मन्त	-9.46896
ज्झ	-9.47008
हृदय	-9.47025
▁समुद्र	-9.47103
पुण्य	-9.47185
▁सन्त	-9.47278
▁पुरे	-9.47411
▁सक	-9.47415
▁ऽत्र	-9.47481
संज्ञा	-9.47487
▁पूर	-9.47536
रव	-9.47563
▁ख्	-9.4757
मित्र	-9.47588
द्रव	-9.47602
विश	-9.47634
▁दीसु	-9.47723
दार	-9.47794
▁पवत्ति	-9.47839
दल	-9.47867
▁नगर	-9.47882
▁कमल	-9.47954
ज्ञा	-9.47977
▁कन्या	-9.48086
▁सामी	-9.48094
तरं	-9.48129
ावरण	-9.48157
▁भिक्षु	-9.48197
▁त्रय	-9.48245
व्यवहार	-9.48291
यत	-9.48405
▁संशय	-9.48414
तुल्य	-9.4849
▁परमेश्वर	-9.48502
▁यद्य	-9.4855
▁विरोध	-9.48635
▁भावं	-9.48692
▁झ	-9.48721
▁धा	-9.48727
त्थाय	-9.48728
तल	-9.48761
ेष	-9.48779
▁तण्हा	-9.4884
▁आदाय	-9.4892
ादिना	-9.48935
▁खन्धा	-9.49003
▁घोर	-9.4901
▁यक्ष	-9.49084
▁मनु	-9.49094
मानं	-9.49117
▁विद्य	-9.49128
पूर्ण	-9.49198
▁समन्	-9.49288
ाण्य	-9.49294
तद	-9.49301
▁विविध	-9.49307
▁भारत	-9.49322
▁कल्याण	-9.49435
पश्य	-9.49448
ोदर	-9.49567
▁नदी	-9.49664
भ्यः	-9.49747
संस्कार	-9.49852
▁सत्ता	-9.49857
गति	-9.49923
▁इच्छ	-9.49936
▁चेत	-9.49988
ीयते	-9.50048
▁मद्	-9.50089
ार्थम्	-9.50208
▁कुतो	-9.5029
धे	-9.50295
▁कुलपुत्र	-9.50343
▁वृत्ति	-9.50415
णम्	-9.50536
▁सित	-9.50539
▁पच	-9.50642
ाभ्य	-9.50659
▁आकार	-9.50759
▁कर्मणा	-9.50761
▁आद्य	-9.50784
ास्त्र	-9.50793
▁अग्र	-9.50817
▁ततिय	-9.50901
विधान	-9.50922
गमन	-9.50963
▁निब्बान	-9.50991
शी	-9.5103
क्षिप्त	-9.5105
ार्थः	-9.5106
▁मानस	-9.51063
यज्ञ	-9.51105
ादेव	-9.51133
▁घन	-9.51136
▁कुतः	-9.51158
▁केश	-9.51254
शब्देन	-9.51387
स्ता	-9.51433
▁सर्प	-9.5146
▁शङ्ख	-9.51505
द्द	-9.51507
गम्य	-9.51524
ोपम	-9.51581
▁थेरो	-9.51593
▁यस्	-9.51595
▁शोक	-9.51663
▁संयोग	-9.51677
भुज	-9.51677
युत	-9.51802
▁विशेषण	-9.51847
▁श्रोत्र	-9.51878
▁रुक्ख	-9.51881
वन्	-9.51976
ांस्	-9.52008
▁विवेक	-9.52099
▁पश्चात्	-9.5211
कट	-9.52115
▁पाल	-9.52155
नयन	-9.52159
▁विशिष्ट	-9.52206
ज्ञानं	-9.52257
▁नारद	-9.52286
▁नास	-9.52432
रात्र	-9.52437
▁पाश	-9.52484
▁सत्यं	-9.52487
पञ्च	-9.52507
ान्तं	-9.52515
▁तेनाह	-9.52536
▁समनुपश्यति	-9.52562
▁पञ्चम	-9.5261
▁तनु	-9.52737
वक्त्र	-9.52795
ोक्तं	-9.52839
रक्ष	-9.52841
▁ऽभि	-9.52864
▁विहित	-9.53006
▁ग्	-9.53015
रोग	-9.53069
▁आगम	-9.53107
▁पदा	-9.53114
द्वि	-9.53206
▁शूद्र	-9.53236
▁यति	-9.53321
▁रु	-9.53359
▁नच	-9.53463
यम	-9.53464
दिन	-9.53492
ारम्भ	-9.53528
▁पल	-9.5353
▁पूर्वोक्त	-9.53577
यामि	-9.53613
▁भुज	-9.53617
▁दिस	-9.53631
▁यच्	-9.53688
▁दी	-9.53722
देवता	-9.53786
▁खन्	-9.53798
▁पंच	-9.53828
▁पातु	-9.53841
ोद्भव	-9.53888
▁व्यक्त	-9.53893
योगेन	-9.53909
ीश्वर	-9.53959
▁अकुसल	-9.53996
▁त्	-9.53998
▁श्लोक	-9.54008
▁परमं	-9.54021
सः	-9.54035
पात्र	-9.54082
▁मांस	-9.54125
स्तद	-9.54135
▁तिल	-9.5423
▁इइइ	-9.54248
▁दिवस	-9.54329
▁भार	-9.54329
ाण	-9.54354
▁अन्व	-9.54362
▁कालं	-9.54366
▁ऽसौ	-9.54399
ास्तु	-9.54427
मर्थ	-9.54611
▁भुवन	-9.54625
▁जित	-9.5465
ाहार	-9.54686
▁वने	-9.54806
नेत्र	-9.54893
▁कृता	-9.5495
▁माम्	-9.5497
सद्	-9.55095
भूता	-9.55117
▁याम	-9.5512
कुशल	-9.55122
▁दद	-9.55127
वृ	-9.55315
▁छिन्न	-9.55491
स्कन्ध	-9.55498
जाल	-9.55563
▁इइ	-9.55622
▁त्वां	-9.55664
शि	-9.55683
मांस	-9.55704
▁अधिक	-9.55747
▁उक्त्वा	-9.55754
▁इतो	-9.55838
▁शा	-9.55842
कत्व	-9.55858
रित	-9.55893
नाग	-9.55936
ध्वज	-9.55957
▁पुच्छ	-9.56216
▁दर्शयति	-9.56229
ोपाय	-9.56242
▁भावे	-9.56259
ादिक	-9.56444
▁भगवता	-9.56468
▁उक्तम्	-9.56495
▁तेसु	-9.566
▁अग्ने	-9.56626
ावृत	-9.56679
▁अनित्य	-9.56761
▁विनाश	-9.56773
त्वादि	-9.56861
ार्ह	-9.56969
▁पाण्डव	-9.57009
सप्त	-9.57036
▁शीत	-9.57143
स्ते	-9.572
▁सामि	-9.57239
दक्षिण	-9.57266
▁अरूप	-9.57415
▁काव्य	-9.57441
तम्	-9.57458
▁दृष्टान्त	-9.5752
धो	-9.57528
▁मत्	-9.57551
▁पुरिस	-9.57613
▁पञ्ञत्	-9.57652
निष्ठ	-9.57717
भ्र	-9.57772
▁पित	-9.57782
▁कतं	-9.57784
▁अन्तो	-9.57809
▁पार्थिव	-9.57823
ान्वय	-9.57836
ानुमान	-9.5784
▁जाता	-9.57865
▁स्थिर	-9.5792
गृहीत	-9.57953
▁पयुत्त	-9.57971
▁स्याद	-9.58005
▁दुष्ट	-9.58017
होम	-9.58029
▁प्राह	-9.5809
मणि	-9.58152
▁पूर्ववत्	-9.58179
भो	-9.58183
▁स्नेह	-9.58244
दीप	-9.58423
ेक	-9.58459
ल्प	-9.58546
वध	-9.58566
▁धारय	-9.58612
▁नयो	-9.58679
▁भार्या	-9.58707
हास	-9.58804
▁यजमान	-9.58813
▁खणे	-9.58857
युग	-9.58967
▁कुर्याद्	-9.58983
▁ज्ञात्वा	-9.58997
ायुध	-9.59106
▁क्षत्रिय	-9.59194
▁समय	-9.59308
वेग	-9.59312
शिव	-9.59338
▁तस्मै	-9.59368
▁पदे	-9.59372
▁तन्त्र	-9.59441
▁नाभि	-9.59449
▁विरुद्ध	-9.59538
▁नाश	-9.59588
▁अन्	-9.5966
▁सम्बन्	-9.59662
▁अस्मा	-9.59689
जय	-9.59707
▁स्मृतः	-9.59733
प्रसाद	-9.59752
▁पदार्थ	-9.59777
▁उपाय	-9.59834
ाप्य्	-9.59874
परा	-9.59881
भावो	-9.5989
ण्ण	-9.599
▁द्वय	-9.60008
▁विचित्र	-9.60011
▁अब्या	-9.60014
▁ऽस्ति	-9.60027
▁चेतना	-9.60045
यि	-9.6009
▁महाराज	-9.60104
▁गृहीत्वा	-9.60106
▁नीति	-9.60212
▁आचार्य	-9.6034
विरुद्ध	-9.60363
गु	-9.60428
▁आद	-9.60499
त्वस्य	-9.60505
पूजा	-9.60534
विनाश	-9.60547
▁चक्क	-9.6056
▁याय	-9.60563
▁धम्मे	-9.60759
▁प्राग्	-9.60811
▁दानि	-9.60872
स्येति	-9.61067
दो	-9.61127
▁ह्रीं	-9.61141
▁जा	-9.61175
▁पारा	-9.61215
ालम्बन	-9.61221
स्तत्	-9.61247
सामान्य	-9.61259
जान	-9.61266
▁कता	-9.61288
▁अथवा	-9.6129
▁द्वौ	-9.61366
ाऽ	-9.61433
स्पर्श	-9.61486
▁शून्यता	-9.61577
▁पञ्ञ	-9.61587
▁काक	-9.61601
▁एवम	-9.61613
स्त्रि	-9.61653
▁चरण	-9.61654
सङ्	-9.6178
▁अन्तर्	-9.61803
▁स्वर	-9.61833
▁मानुष	-9.61845
लाप	-9.61957
▁दैत्य	-9.61997
िण	-9.62011
सर्ग	-9.62129
▁किञ्च	-9.62149
▁नम	-9.62235
ोपरि	-9.62243
▁तस्सा	-9.62245
▁मनुस्स	-9.62267
ैत	-9.62397
▁यन्ति	-9.62472
▁नरक	-9.62477
द्व	-9.62486
▁गृहीत	-9.62578
▁तिष्ठति	-9.62604
▁समं	-9.62627
ताप	-9.62632
▁कालेन	-9.62645
▁वारे	-9.62659
▁लभते	-9.62697
▁उपादान	-9.62733
िन्द्	-9.6283
सुर	-9.62831
▁राज्य	-9.62857
प्रद	-9.63032
▁पारि	-9.63117
द्वयं	-9.63128
▁शान्ति	-9.63166
पी	-9.6324
▁दोस	-9.6326
्यः	-9.63299
▁समयेन	-9.63324
ोत्पाद	-9.63347
▁नाव	-9.63407
▁शक्त	-9.63417
▁पकार	-9.6346
वस्त्र	-9.63464
▁सदिस	-9.63532
णीय	-9.6357
▁जना	-9.63613
▁सङ्ख	-9.63635
▁ग्रहण	-9.63644
ीत	-9.63644
▁यद्य्	-9.63714
▁विकार	-9.63757
मयी	-9.63788
▁पाय	-9.63794
▁वट्टति	-9.63832
▁वत्तब्	-9.63878
करो	-9.64059
▁माह	-9.64098
र्द	-9.64109
▁अन्यत्र	-9.64135
▁बलि	-9.64147
▁केचि	-9.64319
ज्य	-9.64336
▁मयि	-9.64363
▁परमार्थ	-9.64412
▁वृ	-9.64483
िन	-9.645
शक्त	-9.64506
यितुं	-9.64555
च्युत	-9.64564
▁वुत्तो	-9.64573
▁न्	-9.64582
िणः	-9.64622
▁सरीर	-9.64627
सित	-9.64641
▁पस	-9.64651
प्त	-9.6469
माय	-9.64707
तार	-9.64711
पर्य	-9.64715
च्य	-9.64731
▁ताम्	-9.64731
▁ऽव	-9.64848
ष्टा	-9.64869
लु	-9.64934
▁सयो	-9.64968
▁षष्ठ	-9.64981
▁लोभ	-9.65017
▁तोति	-9.65019
मुख्य	-9.65029
▁विर	-9.65174
▁अन्ये	-9.65199
▁दुर	-9.65201
ाश्रम	-9.65205
ालय	-9.65224
▁स्थ	-9.65399
▁लक्ष्मी	-9.65412
▁धर	-9.65443
▁बुद्धा	-9.65458
मेत	-9.65469
▁पुच्छि	-9.65502
शुद्ध	-9.65594
▁असौ	-9.65635
▁पच्छा	-9.65679
▁पज्ज	-9.65704
▁स्थूल	-9.65745
न्त्य्	-9.6575
चरित	-9.658
▁कं	-9.65801
केश	-9.6581
सदृश	-9.6582
ोभय	-9.65845
▁बाहु	-9.6589
▁षड	-9.6595
▁गीत	-9.65962
▁तेषाम्	-9.65975
ावयव	-9.65987
ेषां	-9.66016
्म	-9.66035
▁नाथ	-9.66061
▁मङ्गल	-9.66069
वर्त	-9.66077
▁विभाग	-9.66078
▁तब्बं	-9.66119
माला	-9.66157
▁विश	-9.66157
▁वर्तमान	-9.66216
▁विन	-9.66273
य्य	-9.66277
▁पठ	-9.66286
▁वृष	-9.66314
ाज्य	-9.66329
▁दिवसे	-9.66331
तस्य	-9.66335
ोदित	-9.66337
तृ	-9.6635
▁दह	-9.6642
चित्	-9.66446
▁दिवा	-9.6646
▁समण	-9.66488
▁एका	-9.66494
▁कश्चिद्	-9.66506
विद	-9.66554
▁जगद्	-9.66568
पुट	-9.66608
▁खण्ड	-9.66642
ड्	-9.66666
▁पुप्फ	-9.66682
▁ऽध्यायः	-9.6676
▁हन	-9.668
▁संभव	-9.6681
▁प्रकरण	-9.66818
▁ऽअ	-9.66831
र्द्ध	-9.66838
निश्चय	-9.66855
▁भस्म	-9.66859
भ्रम	-9.66915
ुष	-9.67
▁सन्धाय	-9.67002
▁अथा	-9.67007
िषु	-9.67013
ैषा	-9.67014
▁पतिट्	-9.67016
▁स्या	-9.67044
▁अविज्जा	-9.67097
▁लौकिक	-9.67107
▁सर्वसत्त्व	-9.67138
▁याच	-9.67159
▁चास्य	-9.67192
ादय	-9.67222
▁बाण	-9.6724
खा	-9.67243
▁हृदि	-9.67298
▁सम्पयुत्त	-9.67302
▁श्श्	-9.67356
▁सब्बं	-9.67417
▁प्रोक्तं	-9.67485
ेष्ट	-9.67507
तौ	-9.67541
िम	-9.67632
इ	-9.67719
हृत	-9.67722
धिक	-9.67777
▁शस्त्र	-9.6778
▁भवान्	-9.67869
▁नात्र	-9.67894
कृत्	-9.67899
▁अब्रवीत्	-9.67929
▁सम्यग्	-9.67974
▁विद	-9.68025
ुद	-9.68037
▁लि	-9.68044
▁प्रवृत्त	-9.6806
मोक्ष	-9.68076
▁खाद	-9.68097
ित्व	-9.68097
▁असं	-9.6811
▁वसु	-9.68131
ेयम्	-9.68143
▁कुसला	-9.68143
▁निर्वाण	-9.68269
ैतत्	-9.68274
▁सभाव	-9.6831
▁पूजयेत्	-9.68373
ीभूत	-9.68385
योग्य	-9.68393
▁ग्राह्य	-9.6841
हे	-9.68441
मप्य	-9.68475
▁प्रथमं	-9.68542
▁गच्छन्	-9.68628
ास्त	-9.68631
▁शारिपुत्र	-9.68642
▁वासुदेव	-9.68679
▁क्र	-9.68761
▁साति	-9.6878
▁सम्भव	-9.68797
▁वर्तते	-9.68801
▁मनसि	-9.68812
▁भण्ड	-9.68829
ात्मनः	-9.68829
कीर्ण	-9.68871
▁चतुर	-9.69163
क्लेश	-9.69212
तुर्	-9.69264
▁णा	-9.69275
▁अतीत	-9.69305
▁सर्वम्	-9.69339
▁किन्तु	-9.69381
कला	-9.69394
▁विचि	-9.69436
▁छेद	-9.69463
▁ञाणं	-9.69484
▁पच्छि	-9.69486
▁पवित्र	-9.69507
दुर्	-9.69534
▁कुसुम	-9.69608
▁भूता	-9.69639
▁सीस	-9.69654
▁पक्ख	-9.69672
भक्त	-9.69704
▁नस्स	-9.69742
कण्ठ	-9.69765
▁धर्मं	-9.69859
पाप	-9.69911
▁अर्ध	-9.69968
ितुम्	-9.69971
व्यापार	-9.69996
क्रिय	-9.70085
▁पृष्ट	-9.70124
▁मेघ	-9.70152
वर्जित	-9.70264
▁भवतीति	-9.70319
▁कुश	-9.70332
▁यस्मिन्	-9.70363
चेतन	-9.70437
तश्च	-9.70449
▁इत्युक्त	-9.70497
▁पहा	-9.70538
▁वग्ग	-9.70563
▁स्कन्ध	-9.7062
पर्यन्त	-9.70674
माना	-9.70701
▁स्वा	-9.7077
▁नयेन	-9.70781
▁स्मृत	-9.70786
वेश	-9.70871
पिण्ड	-9.70891
▁रह	-9.709
▁पतित	-9.70942
भावना	-9.70976
▁क्रियते	-9.70984
▁तेहि	-9.70989
▁श्रवण	-9.71
▁वट्ट	-9.71012
न्नं	-9.71062
▁मानं	-9.71062
▁सुरा	-9.71094
यान	-9.71122
निरोध	-9.71233
▁प्राय	-9.7127
र्न	-9.71283
ीर्	-9.7132
▁प्रिये	-9.71372
▁तस्यैव	-9.71389
▁सर्वज्ञ	-9.71435
ेनापि	-9.7145
क्षु	-9.71451
▁मति	-9.71535
स्थं	-9.71574
स्मि	-9.71665
▁पार्थ	-9.71681
भेदेन	-9.71684
▁तेनैव	-9.71692
▁माय	-9.71818
न्तम्	-9.71877
▁भूतं	-9.71884
पदार्थ	-9.71912
▁दद्यात्	-9.71927
▁युज्यते	-9.71957
यमान	-9.72014
▁तेजो	-9.72054
हो	-9.72069
ेन्तो	-9.72071
ांसि	-9.72072
पत	-9.72074
▁स्थिता	-9.7209
▁धी	-9.72102
ल्य	-9.72105
▁क्रिय	-9.72111
▁जि	-9.72119
श्र	-9.72147
▁पुत्तो	-9.72152
▁वाग्	-9.72161
▁दस्सेतुं	-9.72161
▁प्रेत	-9.72167
स्मै	-9.72236
▁मयं	-9.72247
लक्ष	-9.72289
मना	-9.72306
त्रा	-9.72378
▁जातो	-9.72403
▁कुरुते	-9.72416
तुं	-9.72563
▁राज्ञा	-9.72599
करं	-9.72683
▁यस्मात्	-9.72695
▁सद्दो	-9.72743
▁फट्	-9.72792
नाम्	-9.72817
मते	-9.72819
▁हिरण्य	-9.72866
पीठ	-9.72871
▁आपज्ज	-9.72915
वित्	-9.72936
▁उप्पन्न	-9.72951
▁सुगत	-9.72972
▁शुक्र	-9.73055
दिष्ट	-9.73114
▁भक्त्या	-9.73117
▁अल्प	-9.73125
पक्षे	-9.73267
▁पटिक्	-9.73275
ारि	-9.73298
मिच्छ	-9.73332
▁रतन	-9.73402
▁महादेव	-9.73501
▁गन्धर्व	-9.73521
▁ध्यात्वा	-9.7354
भी	-9.73544
रित्य	-9.73547
▁दर्शय	-9.73619
▁ततश्च	-9.73635
ष्ण	-9.73645
▁स्नान	-9.73697
▁गण्ह	-9.73799
दृष्टि	-9.73814
भावात्	-9.73835
ीश	-9.73858
▁गुह्य	-9.73862
स्तद्	-9.7387
▁पुग्गलो	-9.73913
▁मत	-9.73939
▁रागा	-9.73955
▁कारयेत्	-9.73971
▁दस्स	-9.74018
तद्	-9.74064
▁गतं	-9.74075
ंश	-9.74095
शान	-9.74173
मू	-9.74254
मर	-9.74262
र्ण	-9.74289
▁भत्त	-9.74321
वान	-9.74352
▁सार्धं	-9.74399
▁दीहि	-9.74444
▁मातु	-9.74508
सङ्ग	-9.74524
▁विगत	-9.74573
▁देवाः	-9.74637
ाधार	-9.74676
▁मन्त	-9.74723
▁भूय	-9.74725
▁दृष्टि	-9.74759
मत्	-9.74765
ोत्पत्ति	-9.74822
▁परे	-9.74842
न्तीति	-9.7488
▁नरः	-9.74907
▁सयं	-9.74915
▁चल	-9.74939
भे	-9.75005
चा	-9.75055
▁सम्भ	-9.75068
▁विजय	-9.75114
की	-9.75134
▁पत्थ	-9.75212
▁मात्र	-9.75292
▁गते	-9.75394
▁बिन्दु	-9.75404
▁लोम	-9.75407
▁ताल	-9.75409
▁वितक्क	-9.7541
▁भुञ्ज	-9.75416
धारण	-9.75456
▁कथयति	-9.75488
ाधिकार	-9.75495
▁चण्ड	-9.75576
ार्क	-9.75593
▁दूत	-9.75596
ायाम्	-9.7564
▁कारक	-9.75649
▁इट्ठ	-9.75673
▁युद्ध	-9.75683
पतिः	-9.75698
ुत्तर	-9.7573
▁भैरव	-9.75771
सहित	-9.75827
▁होती	-9.75921
क्षत	-9.75933
भङ्ग	-9.76012
सुत	-9.76107
▁अनि	-9.76118
▁शूर	-9.76138
▁गहण	-9.76156
मार	-9.7633
▁ब्राह्मणो	-9.76338
▁पुच्छा	-9.76365
▁सप्तम	-9.76409
रत	-9.7648
ाम्य्	-9.76581
माया	-9.7663
▁कश्चित्	-9.76662
▁उपा	-9.7675
प्रामाण्य	-9.76758
रति	-9.76797
▁पुण्ण	-9.76805
▁करो	-9.7688
▁दीनि	-9.76886
▁आवुसो	-9.76942
▁तिक	-9.76954
▁कूट	-9.76972
▁समर्थ	-9.77072
▁उप्पाद	-9.77084
▁कण्ठ	-9.77134
▁ठपेत्वा	-9.77137
▁कृ	-9.77153
िल	-9.7721
भूषित	-9.77211
परम	-9.77253
कूट	-9.77263
रज	-9.77268
▁विमल	-9.77282
▁बोधिसत्व	-9.77318
▁तन्ति	-9.77372
▁शूल	-9.77432
ष्टु	-9.77443
ाण्य्	-9.77475
▁ज्येष्ठ	-9.77506
ःऽ	-9.77509
विशेषण	-9.77542
टक	-9.7756
▁हन्त	-9.77564
▁वर्त	-9.77571
पद्यते	-9.77589
▁शत्रु	-9.77621
प्रभा	-9.7763
▁ऽसि	-9.77632
▁प्रवृत्ति	-9.77637
▁न्याय	-9.77656
त्रयं	-9.77673
▁रणे	-9.77678
▁पिब	-9.77703
ुक	-9.77711
चरण	-9.77741
▁तैर्	-9.77817
िनां	-9.77826
▁दध	-9.77857
▁फलम्	-9.77859
▁लोह	-9.77862
वयव	-9.77866
▁सहसा	-9.77884
तश्	-9.77922
्याः	-9.77923
ांशु	-9.77937
ात्मनो	-9.77949
▁ययौ	-9.78022
▁देवो	-9.78031
▁निः	-9.78041
▁प्रणव	-9.78099
▁अत्ता	-9.78148
वाहन	-9.78172
▁पुग्गल	-9.78173
ग्राम	-9.78189
▁इत्याह	-9.78211
▁गोचर	-9.7827
▁सेय्य	-9.783
▁पार्श्व	-9.78349
प्रवेश	-9.78358
▁प्रामाण्य	-9.78364
▁वाक्यं	-9.784
स्मा	-9.78417
शोक	-9.78419
▁यान	-9.78424
▁पाणि	-9.78594
▁वत्थ	-9.78655
ाहि	-9.78656
ताय	-9.78702
▁सौम्य	-9.78712
▁सप्प	-9.78719
▁अर्ह	-9.78728
कृष्ट	-9.78786
▁शैल	-9.78788
▁दिव	-9.78808
ामीति	-9.78835
व्यक्त	-9.78906
ोपदेश	-9.78942
▁छन्न	-9.78959
▁एवा	-9.78997
▁विमान	-9.78998
▁ह्री	-9.7914
ही	-9.79176
▁परिच्	-9.79206
▁संवत्सर	-9.79232
▁कप	-9.79258
▁पायो	-9.79318
▁केचित्	-9.79434
भिस्	-9.7952
▁वैष्णव	-9.79559
ीनं	-9.79566
▁यस	-9.79604
▁इत्थं	-9.79619
▁प्रयोजन	-9.79623
▁खन्ध	-9.79643
कि	-9.79702
▁आचरिय	-9.79717
▁कव	-9.79726
▁देवानां	-9.79758
▁अद	-9.79786
▁वेध	-9.79795
मव	-9.79863
▁प्रवर्तते	-9.79897
▁यश्	-9.79906
▁स्थितः	-9.79913
र्वा	-9.79953
▁चरित	-9.80037
ाभिधान	-9.80068
भिश्	-9.80088
▁मुत्त	-9.80128
▁प्रोक्ता	-9.80128
जातीय	-9.80187
▁सागर	-9.80222
▁प्रसन्न	-9.80224
▁पहान	-9.80263
राम	-9.80281
▁दक्षिणे	-9.80312
कारक	-9.80347
रुप	-9.80351
▁साध	-9.80375
प्रसङ्ग	-9.80424
▁सर्वाणि	-9.80545
विचार	-9.80545
▁गव	-9.80547
▁विशुद्ध	-9.80555
क्रमेण	-9.80558
पार	-9.8057
▁कवि	-9.80596
▁कुत	-9.80626
▁दास	-9.80683
▁मिच्छा	-9.80692
बाहु	-9.80709
▁सम्यक्संबुद्ध	-9.80757
▁तिट्ठ	-9.80768
मिह	-9.80789
पाश	-9.8081
▁रूपम्	-9.80815
ार्थे	-9.80837
लभ	-9.80858
▁संबन्ध	-9.80869
रूढ	-9.80941
कौ	-9.80997
ीकृत्य	-9.81018
ेतर	-9.81028
ानन	-9.81029
▁किच्च	-9.81061
▁पञ्ञाय	-9.81071
ङ्गुल	-9.81086
नुमान	-9.81096
▁नोपलभ्यते	-9.8113
▁हीति	-9.8114
▁चन्दन	-9.81159
▁पब्बजि	-9.81189
प्रत्यक्ष	-9.81197
कृता	-9.81201
▁एकैक	-9.8122
▁पत्र	-9.81302
▁चान्य	-9.81325
मुत्	-9.81338
▁जड	-9.81339
▁मुञ्च	-9.81341
▁परिक्	-9.81456
▁ठेन	-9.8152
▁पच्चु	-9.81704
▁लब्भ	-9.81719
क्षेप	-9.81726
▁कर्तव्य	-9.81748
भूतं	-9.81786
▁ददाति	-9.81818
भार	-9.81854
▁महता	-9.81906
ुत	-9.81989
▁श्रिय	-9.82015
रिव	-9.8204
▁उपसङ्	-9.8208
▁चत्तारो	-9.82116
ष्म	-9.82196
▁श्रावक	-9.82221
▁तत्रापि	-9.8223
▁त्रैलोक्य	-9.82249
शान्त	-9.8233
िन्द्रिय	-9.82355
▁यद्यपि	-9.82423
▁उच्च	-9.82432
▁एवमेव	-9.82471
ाभरण	-9.82472
ध्र	-9.82477
▁वज्ज	-9.82481
▁घात	-9.82538
▁भूयो	-9.82551
▁भविष्य	-9.82551
ाधिप	-9.82563
▁द्विविध	-9.82572
▁दानव	-9.82608
क्षेत्र	-9.82662
▁भुवि	-9.82743
▁दार	-9.82747
यात्	-9.82773
▁पण्डित	-9.82788
पट	-9.8279
▁लोहित	-9.82848
च्छ्र	-9.82854
विहार	-9.82891
▁पित्त	-9.82896
▁चिन्तय	-9.82939
▁पठमं	-9.82945
दी	-9.82979
त्वादिति	-9.83028
िष्ठ	-9.83028
▁प्रीत	-9.83032
▁उपलभ्यते	-9.83034
मेतत्	-9.83068
▁पन्नो	-9.83068
न्वय	-9.83116
▁प्रकार	-9.83181
▁गिर	-9.83181
वर्त्त	-9.83181
▁मी	-9.83195
▁मण	-9.83242
वृद्ध	-9.83254
▁माला	-9.83275
ीहि	-9.83283
ौघ	-9.83283
▁पान	-9.83294
▁कामो	-9.83317
▁दिश	-9.83332
ान्तरे	-9.83407
▁चेद्	-9.8343
कान्	-9.83437
▁गगन	-9.83469
▁अपा	-9.83473
लब्ध	-9.83519
▁निश्चय	-9.83576
▁भयं	-9.8372
श्रेष्ठ	-9.83756
▁अल	-9.83762
तू	-9.8377
▁दीघ	-9.83789
ालङ्कार	-9.83832
▁स्तन	-9.83921
▁गतः	-9.83924
▁जाय	-9.83929
माल	-9.84012
▁हु	-9.84014
दध	-9.84065
▁वक्त्र	-9.84131
▁व्योम	-9.84178
▁पितर	-9.84191
स्तेन	-9.84208
ूष	-9.84209
▁श्राद्ध	-9.84223
▁कुण्ड	-9.84227
▁यावन्	-9.84278
▁रवि	-9.84284
ची	-9.84361
▁दिवि	-9.84377
िरे	-9.84406
गच्छ	-9.8442
▁मुक्ति	-9.84448
▁देसना	-9.84453
ादेः	-9.84466
विकार	-9.84485
▁मोक्ख	-9.84517
▁सर्वथा	-9.84629
▁तब्ब	-9.84648
▁तस्याः	-9.84654
▁अस्मिन्	-9.84674
▁कति	-9.84761
▁वानर	-9.84799
▁वड्ड	-9.84861
यन्त्र	-9.84867
▁येषां	-9.84919
▁रञ्ञो	-9.8494
दूर	-9.84953
▁जपेत्	-9.84968
लक्षणम्	-9.84974
▁चात्र	-9.84977
▁खड्ग	-9.85021
▁अवोच	-9.8503
वृत	-9.85093
▁कस्यचिद्	-9.85102
चय	-9.85118
्यर्थ	-9.8517
▁संस्कृत	-9.85185
दाह	-9.85211
▁महान्	-9.85243
▁र्	-9.8525
▁ऽस्मि	-9.85374
▁एवेति	-9.85392
▁ब्राह्मणा	-9.85446
क्राम	-9.85453
▁कृतम्	-9.85465
▁राघव	-9.85471
त्याग	-9.85517
▁याग	-9.85546
▁अनागत	-9.85581
▁जाल	-9.85608
ाना	-9.85612
क्रम्य	-9.85681
लक्षणं	-9.85705
▁ध्रुव	-9.85741
निर्देश	-9.85781
कारो	-9.85801
▁रज	-9.85811
ाख्यं	-9.85815
▁कोप	-9.85826
▁भूम	-9.85943
▁सव	-9.86003
▁क्षम	-9.86034
शुभ	-9.86055
▁मुने	-9.86078
▁पजा	-9.86144
ाम्बु	-9.86148
ाम्बर	-9.86162
▁महासत्त्वस्य	-9.86205
▁शेषः	-9.86235
▁पश्चिम	-9.86239
▁वदति	-9.86328
▁कथितं	-9.86458
▁सहित	-9.86513
रपि	-9.86548
ापर	-9.86566
कृतं	-9.86606
▁पाठ	-9.86618
जो	-9.86658
▁मुद्रा	-9.86659
▁हिम	-9.86671
▁दस्सेन्तो	-9.86688
▁सुद्ध	-9.86694
▁गाह	-9.86711
वाच्य	-9.86715
▁सर्वधर्म	-9.8672
▁वन्तं	-9.86725
द्वीप	-9.86751
▁सर्वभूत	-9.86776
ैश्वर्य	-9.86827
▁बुद्धो	-9.8687
जे	-9.8688
▁कान्त	-9.86895
▁प्रवेश	-9.86904
▁इम	-9.86963
▁आयतन	-9.87003
▁कथम	-9.87034
▁भण	-9.87075
▁स्थिति	-9.87086
▁कदा	-9.87097
ोर्ध्व	-9.87106
ादीनाम	-9.87125
▁वत	-9.87141
▁संवर	-9.87172
▁निपात	-9.87229
▁स्निग्ध	-9.87277
षे	-9.87301
▁कुर्व	-9.87303
ाकुल	-9.87322
▁मिथ्या	-9.8733
▁चित्तस्स	-9.87352
मिश्र	-9.87379
नील	-9.87401
▁निवास	-9.87416
घन	-9.87507
ानुभव	-9.87608
भद्र	-9.87779
▁प्राप्नोति	-9.87852
सन	-9.87859
▁कतो	-9.8786
पाय	-9.8791
▁सृष्टि	-9.87943
णाम्	-9.87963
▁खे	-9.88124
्र	-9.88195
▁घर	-9.88212
▁स्था	-9.88225
वाच	-9.88234
यै	-9.88276
▁रात्रि	-9.88327
▁कानं	-9.88351
▁विशेषतः	-9.8837
▁हर्ष	-9.88398
▁ददर्श	-9.88468
▁भवता	-9.88595
▁पयो	-9.88691
▁यतनं	-9.88705
ैस्त	-9.8876
▁कृते	-9.88782
ाश्रित	-9.88795
भावः	-9.88807
▁तोय	-9.88818
▁वरं	-9.88832
योनि	-9.88896
▁पूजय	-9.88899
▁व्याप्ति	-9.88918
▁स्मृतम्	-9.88931
▁सत्त्वा	-9.88948
▁पट्ठाय	-9.88983
न्यत्र	-9.89035
लक	-9.89047
▁वित्था	-9.89093
डि	-9.89117
▁रस्स	-9.89147
जन्य	-9.89153
▁बुद्धक्षेत्र	-9.89159
राज्य	-9.89163
नादि	-9.89184
▁समाप्त	-9.89202
▁बहिर्	-9.89206
▁एस	-9.89227
▁भगवतो	-9.89257
▁क्वचिद्	-9.89257
कृ	-9.89262
▁अक्ष	-9.8927
▁नञ्च	-9.89282
ाङ्गुल	-9.89329
▁पश्चाद्	-9.89353
▁मय्हं	-9.89373
▁तेषाम	-9.89426
रोह	-9.89431
▁तयोर्	-9.8944
▁ततश्	-9.89443
▁रावण	-9.89463
योजन	-9.89515
▁शि	-9.89556
ग्राह्य	-9.89613
▁सुपि	-9.89632
धर्मा	-9.89645
परिग्रह	-9.89654
प्रसिद्ध	-9.89657
▁गृहे	-9.89735
पल	-9.89762
▁शम	-9.89838
रुद्र	-9.89844
▁यत्त	-9.89877
▁सम्म	-9.89908
▁सततं	-9.89911
▁चरिय	-9.89998
▁दधि	-9.90012
ाभ्याम्	-9.90022
प्रधान	-9.90057
त्वाच्च	-9.90089
तुः	-9.90089
▁आसव	-9.90155
▁जगाम	-9.90213
▁कार्या	-9.90231
▁प्रभो	-9.90234
▁स्थित्वा	-9.90315
▁श्र	-9.90326
रेण	-9.90341
▁बलं	-9.90382
▁विधाय	-9.90458
▁लघु	-9.90499
▁सद्धा	-9.90517
▁सवन	-9.90527
▁तृण	-9.90551
▁गृह्ण	-9.90559
▁केशव	-9.90582
▁अन्तरा	-9.90631
मानो	-9.90645
ध्व	-9.90666
▁गम्भीर	-9.90678
धूम	-9.90747
▁इय	-9.9075
▁मुखं	-9.90804
स्तदा	-9.90805
▁चतुत्	-9.9083
▁चतुर्दश	-9.90832
▁दय	-9.90861
▁श्रद्धा	-9.90867
▁लभ	-9.90943
▁तैल	-9.90948
▁पादा	-9.90967
लिप्त	-9.9098
येव	-9.90992
ए	-9.91033
ैनं	-9.91039
मती	-9.91146
▁आदिमा	-9.91166
मुद्	-9.91178
पूर	-9.91199
▁द्विधा	-9.91214
्यत	-9.91218
▁सर्वलोक	-9.91237
ीव	-9.91264
कुम्भ	-9.91311
स्त्री	-9.91327
▁धर्मो	-9.91413
▁कास	-9.91425
▁व्यभिचार	-9.91428
▁ष	-9.91436
युक्तं	-9.91516
▁दो	-9.91549
▁कर्माणि	-9.91573
काश	-9.91581
▁चकार	-9.91588
कर्ष	-9.91763
▁सिद्धान्त	-9.91777
▁धृत	-9.91806
गीत	-9.91816
खिल	-9.91817
यैव	-9.91819
▁ताम्र	-9.91856
▁धूप	-9.91872
▁त्यज	-9.91874
तीत्य	-9.91874
र्क	-9.91874
▁यान्ति	-9.91879
▁नवम	-9.91902
च्छा	-9.9192
▁आगच्छ	-9.91968
▁निच्च	-9.91996
▁अम्ब	-9.92047
▁विपुल	-9.92062
▁बन्धु	-9.9208
▁स्फुर	-9.92099
▁कृत्स्न	-9.92103
▁पुरुषो	-9.92105
ड्ड	-9.92121
▁जाते	-9.92133
सृष्ट	-9.92145
जाति	-9.922
▁पयोग	-9.92218
ादीन्	-9.92295
रुह	-9.92306
भावे	-9.92391
▁रूपेण	-9.924
ंग	-9.92403
ात्मानं	-9.92406
▁पञ्ह	-9.92409
▁ज्ञेय	-9.92421
▁प्रविष्ट	-9.92518
त्थे	-9.92524
ुस्	-9.92534
▁इत्यत्र	-9.9255
ेन्दु	-9.9262
यम्	-9.92641
▁भाष	-9.9266
दधाति	-9.92662
दिस	-9.92663
▁तत्रा	-9.92681
▁असुर	-9.92769
▁विधिना	-9.92778
संख्या	-9.92792
ात्मकं	-9.92836
▁मन्त्रेण	-9.92891
तरा	-9.92891
▁आश्रय	-9.92918
वचनं	-9.9292
ायाम	-9.92927
त्थो	-9.92939
मर्द	-9.92978
जि	-9.92992
▁निस्सय	-9.93103
▁पादे	-9.93121
▁दिब्ब	-9.93155
▁आय	-9.93179
▁धीर	-9.93269
क्षित	-9.93273
रुण	-9.93365
▁धर्मा	-9.93366
▁आत्मानं	-9.93376
▁अत्यन्त	-9.93393
ोक्तम्	-9.93428
▁रजत	-9.93513
▁पुरुषः	-9.93517
▁पव	-9.93543
▁लोको	-9.93603
▁शिला	-9.93624
▁पत्तो	-9.93726
▁बहि	-9.93733
कुसुम	-9.93778
सर्प	-9.93883
र्च	-9.93901
▁गहेतब्	-9.94042
र्त	-9.94063
िनाम्	-9.94107
मूर्त	-9.94131
▁तावद	-9.94158
▁मातृ	-9.9417
▁आन	-9.9419
▁गुणा	-9.94208
▁नमस्	-9.94213
िह	-9.9424
▁मता	-9.94245
▁विसय	-9.94261
▁द्रोण	-9.94261
▁हेट्ठा	-9.94269
▁बोधिसत्त्वेन	-9.94327
वंश	-9.94351
▁राजानं	-9.94376
▁प्रायश्चित्त	-9.94384
प्रत्य	-9.9446
▁ताति	-9.94593
गतो	-9.94601
▁पूज्य	-9.94652
▁साक्षात्	-9.94683
सामर्थ्य	-9.94735
▁ततस्त	-9.94756
न्योन्य	-9.94802
▁सरण	-9.94817
▁विदित	-9.9484
▁त्यक्त्वा	-9.94867
▁सुवण्ण	-9.94899
▁वीरि	-9.94911
श्रवण	-9.9493
प्लुत	-9.94932
शब्दो	-9.94996
▁चोर	-9.95083
वदन	-9.95102
कुट	-9.95146
ाभावे	-9.95155
ेणैव	-9.95166
▁कमित्वा	-9.95194
ार्णव	-9.95264
▁अस्या	-9.95272
प्रतिषेध	-9.95285
ोपादान	-9.95299
प्रसङ्गात्	-9.95305
▁उपसम्	-9.95316
▁कृत्य	-9.95345
▁प्रपञ्च	-9.95362
▁परिणाम	-9.95371
▁मूढ	-9.9538
दर्शनात्	-9.9544
ेक्षण	-9.95444
▁सोता	-9.95448
▁यच्च	-9.95455
▁वुत्ते	-9.95469
▁दर्शित	-9.95471
▁कवच	-9.95489
▁वचः	-9.95496
▁प्रतिष्ठित	-9.95519
नन्तर	-9.95531
▁विघ्न	-9.95544
्युप	-9.95548
ात्मनि	-9.95554
ट्ठो	-9.9559
ैस्तु	-9.9561
▁तत्त	-9.95653
▁दीक्षा	-9.95668
▁करुणा	-9.95739
▁प्रश्न	-9.95784
ारुण	-9.95883
▁प्रिया	-9.9593
▁नये	-9.95936
ासुर	-9.95947
सीति	-9.95975
▁सत्थु	-9.95991
त्वमेव	-9.96072
▁पो	-9.96092
▁वाज	-9.96168
▁तानं	-9.96236
▁मर्त्य	-9.96239
▁प्रतिष्ठा	-9.96252
▁हस	-9.96264
स्थाने	-9.96308
▁स्वात्म	-9.96385
▁प्रतिज्ञा	-9.96405
▁अन्योन्य	-9.96474
▁ठाना	-9.96479
▁त्वत्	-9.96488
▁शिरो	-9.96497
ापेक्ष	-9.96513
भूय	-9.96543
▁नक्षत्र	-9.96543
तप	-9.96548
▁जह	-9.96615
▁नाद	-9.96697
ादेर्	-9.96745
▁व्याप्त	-9.9677
▁मित्त	-9.96805
▁समाचरेत्	-9.96826
▁प्रतिषेध	-9.96833
▁अस्त्र	-9.96914
▁प्रमाणं	-9.96959
▁साधारण	-9.96971
▁भगवतः	-9.97078
▁दिशि	-9.97082
युक्ता	-9.97166
▁उपनिस्	-9.97167
▁सर्ग	-9.97174
▁सापि	-9.97184
धाव	-9.97203
▁प्रभाव	-9.97234
▁चीवरं	-9.97235
रक	-9.97241
समाधि	-9.97252
▁दुक्खं	-9.97285
▁भु	-9.9732
▁मन्यते	-9.97344
▁कस्मात्	-9.97344
▁एकादश	-9.97377
ुम्	-9.97394
िच्छ	-9.97407
ज्वाल	-9.97438
▁द्वेष	-9.97438
ाप्त	-9.97462
▁युव	-9.97487
रः	-9.97574
पे	-9.97683
▁निवर्त	-9.97694
पूज	-9.9773
मादाय	-9.97733
▁नहि	-9.97749
सिद्धिः	-9.97781
▁उत्पन्न	-9.97787
ोपेत	-9.9781
▁भावित	-9.97816
मनो	-9.97879
भोजन	-9.97894
श्चा	-9.97903
पन	-9.97905
▁परमा	-9.97948
धान	-9.97969
▁कट	-9.9797
▁नान	-9.97987
▁कारा	-9.97998
श्चेति	-9.98039
क्षा	-9.98043
ादिभिर्	-9.98049
▁युधिष्ठिर	-9.98069
प्रा	-9.98069
चर्या	-9.98091
निपात	-9.98232
चिद्	-9.98232
▁अपरं	-9.98251
▁अग्गि	-9.98294
विषयत्व	-9.98314
▁तपो	-9.98317
▁सर्वस्य	-9.98331
▁मत्स्य	-9.98333
▁प्राक्	-9.9836
▁पट्ठान	-9.98367
▁जुहुयात्	-9.98373
▁मंस	-9.9838
▁क्रीड	-9.98398
ाहुः	-9.98459
▁नय	-9.98461
▁कनक	-9.9853
▁सम्प	-9.98554
हन	-9.98648
▁वः	-9.98718
▁प्रोक्त	-9.98729
▁महासत्त्वः	-9.98738
▁तृष्णा	-9.98741
▁पुण्यं	-9.98794
ेच्छ	-9.98794
▁दग्ध	-9.98832
यन्ती	-9.98855
▁इत्यत	-9.98857
्न	-9.98889
मानः	-9.98902
▁भीत	-9.98903
▁पब्बत	-9.98932
▁मस्स	-9.9902
▁सक्का	-9.99037
▁व्यव	-9.991
पदे	-9.99114
▁तस्मान्	-9.99163
▁ग्रन्थ	-9.99165
निश	-9.99167
▁सत्तो	-9.99173
कारः	-9.9918
तेति	-9.992
दह	-9.99202
▁भावा	-9.99204
▁सहजा	-9.99211
रोध	-9.9922
▁हय	-9.99231
▁कपिल	-9.9925
ुत्पत्ति	-9.99299
▁हेतुः	-9.9936
पूर्वं	-9.99367
▁जिह्वा	-9.99372
▁कम्प	-9.99391
▁पुद्गल	-9.99422
चूर्ण	-9.99424
वच	-9.99425
▁पदम्	-9.99473
▁पिय	-9.99482
ाग्रे	-9.995
ष्व्	-9.99507
▁त्र	-9.9954
ीयं	-9.99645
सत्ता	-9.99665
▁चक्रे	-9.99678
▁सभा	-9.99688
ाधिकरण	-9.99691
िणो	-9.99772
देशे	-9.9978
कल्पन	-9.99781
▁वंश	-9.99795
▁विह	-9.9984
ञ्छ	-9.9985
▁अस्तु	-9.9987
▁विहरति	-9.99906
▁तीक्ष्ण	-9.99921
▁दीप्त	-9.99979
▁ख्यात	-10
▁पूजित	-10.0001
▁इच्छा	-10.0005
▁जनक	-10.0006
▁मृदु	-10.0006
▁वैश्य	-10.001
ावभास	-10.0011
स्तव	-10.0011
नेक	-10.0016
ीकरण	-10.0016
जः	-10.0016
बोधि	-10.0017
ाशु	-10.002
▁कः	-10.0021
न्व	-10.0022
▁मग्गो	-10.0022
धरा	-10.0023
▁विविक्त	-10.0025
ाक्षी	-10.0026
▁पुरो	-10.0028
▁सब्बा	-10.0029
घ्र	-10.0037
ान्वित	-10.0037
▁तैः	-10.0038
ानेक	-10.0042
प्राप्ति	-10.0042
स्मृति	-10.0053
ाध्याय	-10.0055
▁सत्व	-10.0057
त्सु	-10.0071
▁अनव	-10.0072
रूपो	-10.0074
▁काष्ठ	-10.0076
मूर्ति	-10.0079
▁अध्य	-10.008
▁प्राग	-10.008
▁वसन्त	-10.0087
▁विजान	-10.009
जनन	-10.0091
▁आव	-10.0093
▁सलिल	-10.0094
▁ऽस्तु	-10.0095
भैरव	-10.0097
▁क्रुद्ध	-10.01
▁आज्य	-10.0104
धु	-10.0107
▁स्नात्वा	-10.0109
▁ध्वज	-10.0118
▁हो	-10.012
पार्श्व	-10.0126
वात	-10.0129
▁उपलम्भयोगेन	-10.013
▁अञ्ञं	-10.0138
▁भवा	-10.0139
▁तू	-10.0141
▁चैक	-10.0145
▁इद्धि	-10.0145
निबन्धन	-10.0145
कान्त	-10.0146
कम्प	-10.0148
संशय	-10.0155
▁मो	-10.0157
▁पुट	-10.0162
प्रवृत्त	-10.0166
विग्रह	-10.0169
▁दीन	-10.017
▁उप्पज्जिस्	-10.017
▁यन्त	-10.0172
▁न्यास	-10.0172
▁स्वर्ण	-10.0173
▁मृ	-10.0174
तैव	-10.0181
हाय	-10.0187
▁गाथ	-10.0187
म्बु	-10.0197
▁बहुल	-10.02
▁मूर्ति	-10.0201
कारेण	-10.0201
▁पापं	-10.0204
▁पितामह	-10.0205
▁रम्य	-10.021
लक्षणा	-10.0213
▁लीला	-10.0217
▁सच्चं	-10.022
ादेर	-10.0222
▁आरब्भ	-10.0223
ष्टौ	-10.0233
▁सदृश	-10.0233
▁विषम	-10.0238
▁विस्सज्	-10.0238
▁दुःखं	-10.0241
▁भूमौ	-10.0246
शाल	-10.0248
▁संयुक्त	-10.0251
ाष्ट	-10.0251
भूत्	-10.0251
शिर	-10.0254
▁गोविन्द	-10.0255
▁न्यसेत्	-10.0256
▁अन्ध	-10.0258
ार्त	-10.0259
िन्	-10.0261
भर	-10.0261
▁वारि	-10.0262
नियत	-10.0262
▁इत्थि	-10.0265
▁चरन्	-10.0267
▁सम्प्र	-10.0269
▁कन्त	-10.0282
त्वमिति	-10.0283
शिख	-10.0285
▁दम	-10.0294
▁आर	-10.0294
▁स्पृश	-10.0294
▁पुथु	-10.0296
▁स्पष्ट	-10.0296
▁यथोक्त	-10.0296
▁निशा	-10.0297
ाभ्यास	-10.0301
जित	-10.0303
▁कस	-10.0305
▁पुरिसो	-10.0306
साधारण	-10.0308
▁उग्र	-10.0315
▁वन्त	-10.0315
तनु	-10.0322
▁व्याधि	-10.0323
▁भाजन	-10.0327
▁अन्या	-10.0331
समय	-10.034
संघ	-10.0342
▁इमां	-10.0343
▁इदानीं	-10.035
▁नष्ट	-10.0351
▁भुव	-10.0353
▁चारु	-10.0357
▁चूर्ण	-10.0361
श्वास	-10.0362
ागत	-10.0362
▁चत्वारि	-10.0367
पद्य	-10.0367
वाल	-10.0374
▁पृष्ठ	-10.0381
घोष	-10.0383
▁अक	-10.0384
भुव	-10.0385
▁उदय	-10.0386
कथ	-10.0393
ोत्सव	-10.0394
▁साल	-10.0397
▁विपरीत	-10.0397
▁भवन्	-10.0398
▁लोकुत्	-10.0399
प्लव	-10.04
▁यि	-10.04
▁देव्या	-10.0401
▁विवाद	-10.0405
ट्ठा	-10.0407
्यन्त	-10.0407
▁ठितो	-10.0412
▁वसिष्ठ	-10.0416
▁इमस्मिं	-10.0418
▁महद्	-10.0421
▁निस्साय	-10.0422
लीन	-10.0424
प्रभाव	-10.0424
▁नयन	-10.0427
▁व्यास	-10.043
ौषध	-10.0438
▁विल	-10.0444
ॠआ	-10.0448
षी	-10.0448
धम्म	-10.0448
कथा	-10.0453
जप	-10.0453
▁भूतानि	-10.0457
▁विज्ञानं	-10.0458
▁वाह	-10.046
▁वेदितव्या	-10.0465
▁अय	-10.0466
द्धा	-10.0466
ोऽयं	-10.0471
निर	-10.0472
▁निमित्तं	-10.0473
▁नन्व	-10.0474
सागर	-10.0477
वति	-10.0477
नर	-10.048
▁कालो	-10.0483
▁पधान	-10.0484
▁शक्यते	-10.0485
▁लक्ष्मण	-10.0486
▁यन्त्र	-10.0487
▁ऽयम्	-10.049
ट्ट	-10.0491
न्यथा	-10.0495
▁पञ्चदश	-10.0499
▁भोज	-10.0499
▁इद	-10.0506
▁अधिप	-10.0507
▁तन्न	-10.0509
दः	-10.0509
▁दुर्लभ	-10.0515
▁भागे	-10.0519
भिप्राय	-10.0519
▁वयम्	-10.0521
ान्तिक	-10.0523
यथ	-10.0525
स्व्	-10.0529
णु	-10.0531
▁महाभाग	-10.0532
▁खि	-10.0534
▁उपपज्	-10.0534
साधक	-10.0534
निभ	-10.0538
▁जर	-10.054
▁कर्तव्यं	-10.0541
चित्र	-10.0544
निरूपण	-10.0545
▁व्यापार	-10.0545
ब्राह्मण	-10.0546
▁त्रिविध	-10.0549
▁खन्धे	-10.0551
व्याप्ति	-10.0552
शे	-10.0554
िव	-10.0554
परं	-10.0559
▁तिपि	-10.0565
▁ला	-10.0567
ून्	-10.0568
▁आयस्मा	-10.0568
पते	-10.0569
▁भरत	-10.0571
शङ्क	-10.0575
▁ताप	-10.0575
▁उत्पाद	-10.0576
संस्कृत	-10.0577
नन्त	-10.058
▁प्रभुः	-10.0581
▁गौतम	-10.0588
तन	-10.0589
ताल	-10.0592
▁योगी	-10.0592
ितव्यं	-10.0593
परिमाण	-10.0595
पृष्ठ	-10.0596
ान्तरं	-10.0596
▁प्रवक्ष्यामि	-10.0604
▁प्रासाद	-10.0608
▁नाम्ना	-10.0608
▁शरणं	-10.0618
ाभा	-10.0621
▁सीह	-10.0623
▁कर्ता	-10.0623
▁भविष्यन्ति	-10.0624
लेप	-10.0625
▁कथय	-10.0626
▁कल्पित	-10.0633
▁अर्च	-10.0643
▁मूलं	-10.0646
रण्य	-10.0646
वेष	-10.0646
्येत	-10.0647
▁तस्यां	-10.065
▁अनुमान	-10.0657
▁महासत्त्वो	-10.0659
सृ	-10.0664
▁तुष्ट	-10.0666
▁महेश्वर	-10.0669
विवेक	-10.0673
भाष	-10.0679
ध्या	-10.0688
▁लोकं	-10.0693
ग्राह	-10.0694
▁कीदृश	-10.0695
▁नृ	-10.0698
द्रुम	-10.0701
मुद	-10.0702
लोप	-10.0704
तायां	-10.0705
यथा	-10.071
ैरपि	-10.0711
वन्त	-10.0712
ितु	-10.0713
जायते	-10.072
ार्चन	-10.0722
▁अर	-10.0722
▁वाक्	-10.0738
ोत्थ	-10.0738
▁नायक	-10.074
सति	-10.0742
▁रात्रौ	-10.0745
▁पृच्छ	-10.0746
ापन	-10.0747
यितव्य	-10.0747
▁नन्ति	-10.0752
▁सोत	-10.0757
▁पृथग्	-10.0758
कानि	-10.0761
▁आम	-10.0762
न्या	-10.0764
▁दाह	-10.0764
ावस्था	-10.0773
दानं	-10.0773
▁कथित	-10.0774
▁सत्तम	-10.0776
टि	-10.0778
▁पुत्रो	-10.0781
▁चिन्ता	-10.0788
ैक्य	-10.0788
▁जातक	-10.079
▁जुहोति	-10.0797
▁मस	-10.0798
▁सहाय	-10.0799
▁अग्निर्	-10.0799
▁दाय	-10.08
▁विवक्षित	-10.08
लोके	-10.0804
मुत्तमम्	-10.0809
▁सैव	-10.081
सेव	-10.0815
नम	-10.0816
ाढ्य	-10.0819
▁अविद्या	-10.082
धिकरण	-10.082
▁कपाल	-10.0822
क्खि	-10.0822
▁प्रदक्षिण	-10.0825
क्य	-10.0827
▁प्रमेय	-10.0833
▁पटिच्	-10.0837
▁तब्ब्	-10.084
▁स्थितम्	-10.084
▁निरय	-10.0842
▁वाच्यम्	-10.0846
▁अस्म	-10.0848
दम्	-10.0849
▁चेतन	-10.0851
▁रत्त	-10.0852
▁पथ्या	-10.0852
▁ऽति	-10.086
▁तिया	-10.0865
▁धम्मानं	-10.0867
र्त्त	-10.0868
▁पाण	-10.0869
▁मुहूर्त	-10.0873
भिश्च	-10.0879
▁दिन्न	-10.0881
ोक्ति	-10.0883
ानल	-10.0884
▁देवस्य	-10.0884
▁अन्ते	-10.0893
ाङ्क	-10.0895
▁तञ्च	-10.0898
▁प्रवर्त	-10.0901
बोधिसत्त्व	-10.0906
पन्न	-10.0909
भास	-10.091
वर्धन	-10.0912
ियो	-10.0913
मुखी	-10.0915
▁अट्ठकथा	-10.0916
क्षीर	-10.0917
▁खल्व	-10.0931
▁काञ्चन	-10.0933
कृति	-10.0935
▁गु	-10.0938
▁चिन्त	-10.0939
▁सुप्त	-10.0941
यव	-10.0943
ानुप	-10.0944
▁अधिट्	-10.0945
ुक्	-10.0945
▁शिर	-10.0945
▁पसाद	-10.0949
▁लोका	-10.0958
हृत्य	-10.0959
▁प्रभा	-10.0964
▁दे	-10.0967
ूह	-10.097
विष्ट	-10.0979
▁व्याख्यात	-10.098
▁वित्त	-10.0982
▁आदौ	-10.0982
▁करिस्	-10.0986
त्यादि	-10.0988
▁विधान	-10.0989
▁यात	-10.0995
बीजं	-10.0997
मन्	-10.0997
मत्र	-10.0998
▁वेति	-10.1003
▁छारद्वतीपुत्र	-10.1016
▁तासां	-10.1034
▁यस्या	-10.1039
▁प्रमा	-10.1044
▁एतानि	-10.1045
भिधीयते	-10.1049
▁चित्ते	-10.1056
▁तिआदीसु	-10.1056
ाट	-10.1056
देवी	-10.1058
साद	-10.1059
याग	-10.1063
▁पी	-10.1065
▁अज्ज	-10.1065
▁इस्स	-10.1066
▁एतद	-10.1069
▁रहित	-10.107
▁मुखे	-10.1072
▁मिग	-10.1082
ाभिर्	-10.1083
▁अयम	-10.1091
▁व्यतिरेक	-10.1093
प्रतिपत्ति	-10.1096
िष्यामि	-10.1097
लिका	-10.1097
गुप्त	-10.1098
▁राज्ञ	-10.1101
▁स्तोत्र	-10.1104
▁बहू	-10.1112
शुद्धि	-10.1113
रम्भ	-10.1119
मस्ति	-10.112
▁अरहत्	-10.112
▁विज्ज	-10.1122
ागार	-10.1127
▁तक्क	-10.1131
श्रम	-10.1131
ज्वर	-10.1145
▁सारि	-10.1149
मृग	-10.115
▁सङ्	-10.116
रङ्ग	-10.1161
ब्भ	-10.1162
चल	-10.1164
िदं	-10.1167
स्थिति	-10.1168
▁धनं	-10.117
बाल	-10.1171
▁दिग्	-10.1172
▁कुर्वन्ति	-10.1173
भावित	-10.1176
▁करणं	-10.1176
भ्	-10.1177
▁पाति	-10.1182
ीनाम्	-10.1187
समर्थ	-10.119
वल	-10.1192
▁कुर्वन्	-10.1193
▁गि	-10.1194
मेघ	-10.1196
व्यूह	-10.1197
हर्ष	-10.12
त्यन्त	-10.12
ात्मन	-10.1201
▁तल	-10.1204
नन्दन	-10.1204
द्भिर्	-10.1204
शर	-10.1214
▁व्यवस्थित	-10.1219
ेतु	-10.1219
पाणि	-10.122
▁पुरुषस्य	-10.1223
हु	-10.1225
िद	-10.1226
हरण	-10.1227
▁ऽस्मिन्	-10.1228
▁ज्वर	-10.1235
ावर्त	-10.1237
धौ	-10.1241
निष्	-10.1245
बन्धन	-10.1249
स्मात्	-10.1253
▁द्रुत	-10.1253
▁भर	-10.1255
▁वेदनाय	-10.1256
▁प्राप	-10.1256
रौ	-10.1263
▁खर	-10.1264
कथन	-10.1267
▁विधीयते	-10.1269
▁तदर्थ	-10.127
▁धातुया	-10.127
▁लोप	-10.1272
ात्मिका	-10.1272
▁न्य	-10.1273
▁अतिक्	-10.1273
▁वची	-10.1273
शब्दः	-10.1278
▁वक्ष्यमाण	-10.1279
वर्णा	-10.128
▁व्यापक	-10.1281
▁चत्ता	-10.1286
▁प्रणम्य	-10.1289
▁प्रविश्य	-10.1289
▁अच्छ	-10.1292
शृङ्ग	-10.1292
पीति	-10.1295
ब्रवी	-10.1296
प्रयोजन	-10.1298
▁सर्वतः	-10.13
▁निश्चित	-10.13
▁रौद्र	-10.1301
▁विस्तरेण	-10.1307
▁युक्तम्	-10.1309
▁पाचित्ति	-10.1313
▁यावद	-10.1318
द्योत	-10.1319
ेश्वरी	-10.132
विपाक	-10.132
▁किञ्चित्	-10.1323
▁ब्रह्मणो	-10.1327
पीत	-10.1331
चिर	-10.1333
▁सुता	-10.1336
▁त्रीणि	-10.1344
ब्ध	-10.1345
दित्य	-10.1349
▁एतन्	-10.1349
▁स्युः	-10.135
▁सङ्गह	-10.135
▁त्रिधा	-10.1352
▁सद्धर्म	-10.1353
चिन्त्य	-10.1354
▁ब्राह्म	-10.1354
सहस्राणि	-10.1354
▁संकल्प	-10.1356
र्प	-10.1359
▁सन्तान	-10.1361
्यात्	-10.1364
▁संख्या	-10.1364
▁शु	-10.1366
वेद्य	-10.1366
संख्य	-10.1369
▁ध्याय	-10.137
पद्यत	-10.1372
चन	-10.1377
मस	-10.1382
▁भवन	-10.1383
▁दक्खि	-10.1383
▁वृद्धि	-10.1393
▁स्यान्	-10.1402
▁तय	-10.1403
विशुद्ध	-10.1404
संपन्न	-10.1404
▁लु	-10.1406
ञ्जन	-10.1407
द्वयम्	-10.1409
करी	-10.1411
▁केनचि	-10.1422
▁अस्मिं	-10.1424
्येन	-10.1425
▁नार	-10.1426
हेतुक	-10.1435
▁तमो	-10.144
▁युष्म	-10.1443
▁हन्ति	-10.1445
▁रक्ख	-10.1445
▁भवतु	-10.1449
▁उत्तान	-10.1451
वु	-10.1452
ातिशय	-10.1452
ग्घ	-10.1452
▁युक्तं	-10.1453
▁सत्त्वानां	-10.1454
सद	-10.1462
▁कोचि	-10.1463
▁निदान	-10.1464
स्तं	-10.1466
▁पत्नी	-10.1467
▁जग	-10.1468
मात्म	-10.1469
रिय	-10.1472
पीडित	-10.1474
नैव	-10.1475
▁पुष्कर	-10.1478
ेते	-10.1479
▁सर्वपाप	-10.1482
▁उपचार	-10.1483
▁नारी	-10.1487
▁सूति	-10.1492
▁रत्ति	-10.1494
सां	-10.1495
▁एकेन	-10.1498
▁नाहं	-10.1503
▁अनुत्तर	-10.1503
▁वेग	-10.1504
सत्तम	-10.1507
▁ऽस	-10.1509
▁मुक्ता	-10.1511
▁दर्श	-10.1512
ैवं	-10.1512
ितब्	-10.1512
▁द्विगुण	-10.1512
ाञ्जलि	-10.1514
▁चक्षुर्	-10.1515
▁विज्ञेय	-10.1515
मित्यादि	-10.1515
▁भीष्म	-10.1517
करोति	-10.1525
▁तुम्हे	-10.1531
▁ङ	-10.1533
▁शाश्वत	-10.1534
▁विद्ध	-10.1535
▁गन्थ	-10.1535
वाय	-10.1537
▁कारणम्	-10.1537
▁यया	-10.1544
बहु	-10.1545
ेनेति	-10.1548
▁अञ्ञे	-10.1548
▁असम	-10.1553
भागे	-10.1555
▁जु	-10.1556
▁कुर्या	-10.1568
ृत	-10.1571
▁तमेव	-10.1571
द्भिः	-10.1572
स्येव	-10.1572
श्रुति	-10.1573
ण्य	-10.1574
ोत्पन्न	-10.1576
▁बन्धन	-10.1576
सूर्य	-10.1579
▁माने	-10.1583
▁अत्तना	-10.1583
ूर	-10.1584
ूनां	-10.1586
▁बुध	-10.1592
लङ्कार	-10.1595
ेच्छा	-10.1598
▁ऽय	-10.16
▁सर्वेषु	-10.1602
पित	-10.1602
▁लिख	-10.1605
प्रयुक्त	-10.1609
पर्वत	-10.161
▁प्रभु	-10.1613
▁भगव	-10.1616
▁दोषः	-10.1617
▁तयोः	-10.1621
च्छन्द	-10.1625
▁कूल	-10.1626
ितानि	-10.1631
▁पुंस	-10.1635
▁गदा	-10.1636
▁आरोच	-10.1636
परिहार	-10.1637
प्रकरण	-10.164
▁भेदो	-10.1643
▁प्रभव	-10.1645
▁श्रूयते	-10.1646
टा	-10.1651
▁किंचित्	-10.1658
▁समवाय	-10.1659
▁कौ	-10.1664
▁हृदये	-10.1664
▁द्र	-10.1677
वाद्य	-10.1677
जम्	-10.1679
▁अधो	-10.1681
ेयुः	-10.1682
▁स्त	-10.1682
▁वनं	-10.1685
घोर	-10.1686
▁महायान	-10.1688
▁परो	-10.1689
वादी	-10.1692
▁इवा	-10.1692
▁कुले	-10.1696
▁अत्ति	-10.1696
▁दारक	-10.1697
▁नख	-10.1699
नगर	-10.1701
▁कारो	-10.1702
लता	-10.1702
▁पाकट	-10.1703
▁शिक्षते	-10.1705
करा	-10.1706
▁दुष्	-10.171
▁राष्ट्र	-10.1714
तय	-10.1714
▁स्मृताः	-10.1714
▁मंत्र	-10.1714
▁शङ्कर	-10.1715
▁आलोक	-10.1716
▁प्रेम	-10.1719
व्यतिरिक्त	-10.1724
्व्	-10.1724
जु	-10.1725
हीति	-10.173
▁अज्झ्	-10.173
ाञ्	-10.1732
▁अग	-10.1735
▁इव्	-10.1735
▁रव	-10.1738
वत	-10.174
▁स्मरण	-10.1741
▁शुभा	-10.1748
श्लेष	-10.175
कपाल	-10.1755
▁वेक्ख	-10.1755
ुत्पाद	-10.1757
▁तीव्र	-10.176
▁चित्तेन	-10.176
▁राज्ञो	-10.1761
▁परिग्	-10.1762
▁झानं	-10.1767
ेतीति	-10.177
र्पित	-10.1772
▁महासत्त्वेन	-10.1772
▁लक्षणं	-10.1773
▁स्तम्भ	-10.1774
▁लय	-10.1778
ग्राहक	-10.1779
वाम	-10.1782
लय	-10.1785
▁यतन	-10.1785
▁मदन	-10.1786
प्रदाय	-10.1796
▁ताः	-10.1801
▁वीसति	-10.1805
▁कृच्छ्र	-10.1805
वादिन	-10.1805
▁किंचिद्	-10.1809
कल्पना	-10.1811
▁गल	-10.1813
▁निवृत्त	-10.1814
▁हुं	-10.1815
▁क्रूर	-10.1824
▁कतमा	-10.1824
▁मच्छ	-10.1827
▁ञत्वा	-10.1827
▁मन्यसे	-10.1827
ाभिमुख	-10.1834
▁तप्त	-10.1841
तथा	-10.1843
▁मूर्ध	-10.1844
▁भिक्खूनं	-10.1847
मत्त	-10.1849
▁बोधिसत्त्वानां	-10.1851
▁पमाण	-10.1851
परिणाम	-10.1854
▁पादौ	-10.1856
▁बाधक	-10.186
▁सिक्ख	-10.186
▁संपूज्य	-10.1866
▁भदन्त	-10.1867
र्ध्वं	-10.1868
त्त्र	-10.1873
▁एषां	-10.1876
▁शश	-10.1876
▁बीजं	-10.1878
▁किरिया	-10.1881
▁विद्वान्	-10.1882
▁त्याग	-10.1883
धः	-10.1884
▁द्रव	-10.1888
▁पक्खि	-10.189
▁कर्	-10.1892
▁त्यक्त	-10.1893
ग्रन्थ	-10.1894
▁प्रविश	-10.1896
स्थानं	-10.1897
▁छिन्द	-10.1897
▁ज्ञ	-10.19
▁तरं	-10.1902
▁राज्यं	-10.1904
▁हुत	-10.191
िष्यन्ति	-10.191
धिकार	-10.1911
▁अक्ख	-10.1912
समन्वितम्	-10.1917
▁स्थितो	-10.1918
▁दशम	-10.1918
ाध्व	-10.192
▁वरद	-10.1921
▁सुखम्	-10.1924
▁आग्नेय	-10.1939
तिष्ठत	-10.194
▁सू	-10.1944
साम	-10.1945
ाधीन	-10.1946
▁अक्षर	-10.1947
भ्युपगम	-10.1948
शाख	-10.1949
सद्भाव	-10.1949
तत्व	-10.1949
▁माल	-10.1959
▁कमि	-10.1959
मङ्गल	-10.1961
▁णपच्च	-10.1963
▁कत्थ	-10.1969
▁मातर	-10.1972
करः	-10.1973
▁गृह्य	-10.1974
▁स्थातव्यम्	-10.1975
▁गब्भ	-10.1976
रेक	-10.1977
▁बिम्ब	-10.1978
स्माद्	-10.1979
▁व्याचष्टे	-10.1981
▁वुट्ठा	-10.1982
ान्तः	-10.1982
दाय	-10.1985
शिष्य	-10.1985
क्षिप्य	-10.1988
द्वा	-10.1989
▁स्थानं	-10.1993
ाकाङ्क्ष	-10.1995
व्यय	-10.1996
तैल	-10.2004
ातुर	-10.2006
भावं	-10.2006
▁शाल	-10.201
मित्याह	-10.2014
पाक	-10.2016
जिन	-10.2016
लोभ	-10.2017
▁क्षीण	-10.202
▁स्र	-10.2023
▁कलि	-10.2024
▁सिध्य	-10.2025
▁सामर्थ्य	-10.2026
क्रोध	-10.2027
▁ज्ञेया	-10.2031
दीर्घ	-10.204
बाह्य	-10.204
▁विपर्यय	-10.2042
▁स्वतन्त्र	-10.2047
भिहित	-10.2047
▁छाया	-10.205
▁नित्यम्	-10.2051
▁वेदन	-10.2053
▁तदु	-10.2055
▁कायो	-10.2055
▁क्षत्र	-10.2056
कालं	-10.2057
त्यर्थ	-10.2057
▁हरिः	-10.2057
▁भिक्षुणी	-10.206
▁ऽप	-10.2061
ज्ञात	-10.2062
▁योग्य	-10.2063
▁केस	-10.2064
▁इत्यादिना	-10.2064
दय	-10.2068
कारं	-10.2068
ाशन	-10.2068
▁भङ्ग	-10.207
ोपचार	-10.207
टी	-10.2073
▁प्राप्ते	-10.2075
ापत्ति	-10.2078
निन्द	-10.2078
▁वीत	-10.2083
▁अरह	-10.2084
ात्मने	-10.2087
▁उच्छ	-10.209
ोचित	-10.2094
लित	-10.2095
ैते	-10.2096
पय	-10.2098
राशि	-10.21
ेरन्	-10.2104
▁सूत्रे	-10.2105
दृश्य	-10.2107
भूषण	-10.2108
▁आगता	-10.2112
▁महि	-10.2114
▁लक्ष्य	-10.2115
नौ	-10.2116
▁विधा	-10.2118
ायुष	-10.212
र्ग	-10.2123
▁अध	-10.2123
विरह	-10.2125
व्यभिचार	-10.2125
येत	-10.2126
▁माधव	-10.2136
गच्छति	-10.214
ात्त	-10.2141
कोप	-10.2144
▁शुचि	-10.2145
▁प्रत्येकं	-10.2148
▁थाति	-10.2149
▁वृत	-10.2149
गर	-10.215
परित्याग	-10.2155
▁करोन्त	-10.2156
लक्ष्य	-10.2158
िन्य	-10.2159
द्विज	-10.216
▁विमुत्ति	-10.2164
वत्त	-10.2164
वश्य	-10.2165
िकः	-10.2171
▁थो	-10.2173
▁कथ्यते	-10.2174
▁यदुत	-10.2174
▁पत्तिया	-10.2175
▁तब्बो	-10.2176
▁हृष्ट	-10.218
▁किच्छा	-10.2182
▁यत्न	-10.2183
▁शुक	-10.2184
पेक्ष	-10.2187
ध्याय	-10.2187
▁निद्रा	-10.2188
नायक	-10.219
लोचन	-10.219
▁शतं	-10.2192
▁सर्वतो	-10.2194
▁एत्तक	-10.2199
▁ब्रूहि	-10.22
मधु	-10.22
▁देहि	-10.22
▁सुकृत	-10.22
▁भाष्य	-10.2201
▁सन्न	-10.2203
▁कथिता	-10.2206
▁सीता	-10.2209
▁तरुण	-10.2211
बिन्दु	-10.2211
▁सङ्खात	-10.2213
▁विवर	-10.2216
▁नोपैति	-10.2217
▁पण्ण	-10.2218
▁बत	-10.2222
यद्	-10.2225
▁समाधिः	-10.2227
मन्त्रेण	-10.223
▁उपासक	-10.2233
▁नगरं	-10.2233
धातुर्	-10.2235
▁भवत्य्	-10.2238
कर्मण	-10.2238
शासन	-10.2238
▁हत्थि	-10.2239
▁अम्हाकं	-10.2241
▁मज्झे	-10.2242
ान्तर्	-10.2246
▁त्रयोदश	-10.2252
▁शिक्ष	-10.2253
▁मारुत	-10.2257
▁धर्मः	-10.2257
▁जातं	-10.2257
▁मन्ये	-10.226
▁प्रदेश	-10.2261
▁विदुः	-10.2263
▁गरु	-10.2264
नुत्तर	-10.2267
फला	-10.2271
▁सक्को	-10.2273
▁संस्थित	-10.2274
स्ततः	-10.2276
गल	-10.2276
▁कारणेन	-10.2278
▁मरणं	-10.2281
विभूषित	-10.2283
पतित	-10.2284
भक्ति	-10.2287
शन	-10.2289
▁तत्ता	-10.2291
▁सञ्	-10.2293
ओ	-10.2301
ध्वंस	-10.2304
▁साधय	-10.2305
▁अनिच्च	-10.2305
ातीत	-10.2309
▁इमस्स	-10.231
▁हृदयं	-10.231
निषेध	-10.231
शब्दस्य	-10.2312
▁दिव्यं	-10.2313
शोभ	-10.2319
▁नहेतु	-10.2323
▁शोभ	-10.2326
नुप	-10.2329
प्रदान	-10.2332
▁निरुज्झ	-10.2335
▁मत्तं	-10.2336
▁अलं	-10.2339
▁शासन	-10.2342
▁सृष्ट	-10.2343
▁समन्त	-10.2343
▁प्रत्येक	-10.2343
ादाव	-10.2345
▁महासत्त्व	-10.2347
म्ऽ	-10.2347
कृष्य	-10.2347
▁गाय	-10.2348
▁धारण	-10.235
वर्तिन	-10.2356
▁कतम	-10.2366
कृते	-10.2369
परिवार	-10.2369
▁निर्मित	-10.2372
िष्यते	-10.2373
्यताम्	-10.2382
▁स्थापय	-10.2382
▁अस्मि	-10.2383
▁तादिस	-10.2383
▁मूले	-10.2384
▁भाति	-10.2386
▁सुधा	-10.2389
पो	-10.239
▁आसन	-10.2391
▁पहीन	-10.2392
संयुक्तं	-10.2395
षण	-10.2396
ञ	-10.24
▁विराग	-10.2404
▁बि	-10.2405
▁शयन	-10.2409
य्ह	-10.2409
ुक्त	-10.241
सृज	-10.2414
▁कलश	-10.2414
भिज्ञ	-10.2418
नाह	-10.2426
▁नास्तीति	-10.243
▁चेद	-10.2431
न्तरे	-10.2435
▁इष	-10.2435
▁नानु	-10.2436
▁दिसा	-10.2437
▁तपसा	-10.2438
समान	-10.2441
▁मूर्त	-10.2448
▁छाद	-10.2454
संयुक्त	-10.2455
▁त्र्य	-10.2457
रूपिण	-10.2458
द्वितीय	-10.2458
लेख	-10.2458
▁चेतो	-10.2458
▁दद्याद्	-10.2462
रिष्ट	-10.2463
▁स्यादिति	-10.2463
▁लता	-10.2464
▁चेन्न	-10.2466
▁सीमा	-10.2469
▁सखी	-10.2474
▁भुक्त	-10.248
▁सङ्घा	-10.2482
न्याय	-10.2485
▁सी	-10.2485
▁सृज	-10.2486
▁कपि	-10.2486
वस्था	-10.2489
▁सर्वतथागत	-10.2491
▁मनुस्सा	-10.2491
▁दक	-10.2494
त्तो	-10.2495
▁गायत्री	-10.2496
योगात्	-10.2496
ावतार	-10.2499
▁चिरं	-10.25
▁सल्ल	-10.2501
यस्	-10.2502
▁छन्दो	-10.2503
▁पुरतो	-10.2503
नख	-10.2504
कोण	-10.2506
मग्न	-10.2506
मानस	-10.2508
▁ध्रुवम्	-10.2509
▁देय	-10.2513
वर्ति	-10.2514
शीत	-10.2514
वैचित्र्य	-10.2515
युतं	-10.2515
▁दिने	-10.2519
▁पावक	-10.252
▁सूक्त	-10.2524
▁वासना	-10.2524
▁भावतो	-10.2525
▁विग्रह	-10.2533
▁गण्ड	-10.2534
ानेन	-10.2537
ुग्	-10.2541
▁घ्राण	-10.2543
कृष्ण	-10.2544
घा	-10.2546
▁विकल्पयिष्यन्ति	-10.2548
स्यां	-10.2549
▁मनस्	-10.2554
▁महन्त	-10.2558
▁भवन्त	-10.2558
प्रतीति	-10.2558
▁लवण	-10.256
▁देवेश	-10.256
▁देवदेव	-10.2561
▁कदाचि	-10.2563
▁दृष्टा	-10.2563
हेतुः	-10.2564
ादी	-10.2567
वस्थित	-10.2567
साहस्र	-10.2568
▁पर्व	-10.2568
▁निहत	-10.2568
▁सुन्दर	-10.2569
▁मेरु	-10.2572
लील	-10.2575
शूल	-10.2578
▁शृङ्ग	-10.258
प्रतिपादन	-10.2581
▁जाना	-10.2587
▁देसे	-10.259
▁आत्मन	-10.2593
मेकं	-10.2595
स्तम्भ	-10.2597
पत्त	-10.2597
ित्थ	-10.2598
िकाः	-10.2599
▁विन्द	-10.2602
▁सज्ज	-10.2602
▁महाबल	-10.2603
▁उपेक्खा	-10.2606
▁पश्यन्ति	-10.2608
गात्र	-10.2609
▁अत्य	-10.2611
▁सामञ्ञ	-10.2611
ाध्य	-10.2612
तव्य	-10.2616
▁वी	-10.262
▁यस्माद्	-10.262
स्थितः	-10.262
▁तात्पर्य	-10.2626
▁बोधिसत्त्वा	-10.2628
ादिकम्	-10.2631
स्तथागत	-10.2635
ात्मज	-10.2638
तेज	-10.2638
▁त्वद्	-10.2639
ीया	-10.264
▁पच्चेक	-10.264
▁देशे	-10.264
यितुम्	-10.2646
चन्दन	-10.2654
▁विगमेन	-10.2655
नुपपत्ति	-10.2656
तत्र	-10.2659
▁सरस्वती	-10.2659
▁त्वयि	-10.2662
▁तपः	-10.2663
▁रागो	-10.2664
▁तक	-10.2665
▁चाप	-10.2665
गते	-10.2666
गुर	-10.2666
सीद	-10.2668
▁द्वितीये	-10.2671
शंस	-10.2672
षय	-10.2672
▁पूजन	-10.2672
▁वल	-10.2674
▁ऽभवत्	-10.2676
▁दल	-10.2676
▁चैतन्य	-10.2678
▁नतो	-10.2679
▁दर्भ	-10.2679
ुत्त	-10.2679
▁कदाचित्	-10.2679
ङ्गं	-10.268
▁भिक्खुनो	-10.268
विस्तर	-10.2689
▁भूयः	-10.2691
▁हित्वा	-10.2692
▁अपरा	-10.2696
▁स्वस्ति	-10.2697
तेन	-10.2702
वर्तते	-10.2703
▁पसङ्	-10.2704
▁ददौ	-10.2706
▁सख्य	-10.2707
्यमाण	-10.2708
▁मज्ज	-10.2711
▁जगद	-10.2714
िणि	-10.2716
िभिर्	-10.2717
▁आधार	-10.2718
ेभ्य	-10.2719
▁शिरः	-10.2723
स्मरण	-10.2724
▁सार्ध	-10.2724
▁संविद	-10.273
▁पाॠइ	-10.2735
▁इत्येवं	-10.2736
▁व्रजेत्	-10.2742
▁शोच	-10.2744
▁कट्ठ	-10.2745
निर्मित	-10.2746
▁स्थितं	-10.2747
निवेश	-10.275
ज्ञाय	-10.2753
दास	-10.2753
▁धाव	-10.2755
मुखं	-10.2756
कन्या	-10.2758
▁धाम	-10.276
▁वाचक	-10.276
▁दुः	-10.2761
ण्ह	-10.2762
ाभ	-10.2762
ालोक	-10.2766
▁नै	-10.277
न्य्	-10.2773
नुभव	-10.2778
ख्य	-10.2779
ताम	-10.278
▁निन्द	-10.2784
▁मात्रा	-10.2786
▁भूरि	-10.279
पीड	-10.2792
मेष	-10.2795
▁स्वार्थ	-10.2798
ोष्ण	-10.2799
ह्व	-10.2801
वत्त्व	-10.2802
▁ऽभ्य	-10.2808
▁सत्तानं	-10.2811
▁समूह	-10.2811
▁चत्तारि	-10.2812
प्य्	-10.2817
▁समुप	-10.2818
▁भाषित	-10.2818
▁निषेध	-10.2819
पाठ	-10.2828
्यौ	-10.2829
विहित	-10.283
प्रमेय	-10.2836
▁शाप	-10.2837
▁चक्षुष	-10.2837
▁गोत्र	-10.2841
▁तज्ज	-10.2843
▁बाह	-10.2844
▁दुर्ग	-10.2844
▁आत्मनः	-10.2845
ज्झा	-10.2848
▁मञ्च	-10.2848
▁पूर्वपक्ष	-10.2849
स्त्य	-10.2852
▁पन्ना	-10.2852
विश्व	-10.2854
लम्	-10.2857
▁प्रमाद	-10.2857
▁मृद	-10.2861
▁सत्यम्	-10.2861
िन्या	-10.2869
▁गरुड	-10.2871
▁स्मृता	-10.2873
▁काश्यप	-10.2877
▁देवीं	-10.2881
स्मृत	-10.289
मया	-10.289
▁परीक्ष	-10.2892
▁खन्धानं	-10.2899
▁व्यङ्ग्य	-10.2899
▁इत्थ	-10.2902
▁एसेव	-10.2902
चतुष्टय	-10.2903
▁आयु	-10.2904
▁इत्येत	-10.2906
▁अरञ्ञ	-10.2909
▁निसीदि	-10.2912
यता	-10.2913
▁वक्ष्ये	-10.2914
दर्थ	-10.2917
संस्थित	-10.2919
▁लेप	-10.2919
संयुतम्	-10.2921
बि	-10.2922
स्थो	-10.2922
श्रित	-10.2925
सिद्धये	-10.2926
▁लिङ्गं	-10.2927
▁पृथु	-10.293
▁शब्दो	-10.2933
पञ्चाश	-10.2934
▁चोर्रेच्त्	-10.2934
▁उक्तः	-10.2934
▁करिष्य	-10.2935
नामा	-10.2937
प्रवृत्ति	-10.2938
सूक्ष्म	-10.2939
▁अञ्ञत	-10.294
ाधिष्ठान	-10.2945
▁सेसं	-10.2945
कल्पित	-10.2945
▁कातुं	-10.2948
▁हूं	-10.2951
▁भगवन्तं	-10.2952
▁हू	-10.2953
▁पेसि	-10.2956
ोच्च	-10.2961
▁नहे	-10.2963
भवेत्	-10.2965
माल्य	-10.2968
कोश	-10.2968
▁रेन	-10.2969
▁रात्र	-10.2971
भवन	-10.2977
▁सन्धा	-10.2983
तुष्ट	-10.2987
ाख्यान	-10.2989
▁खन्धो	-10.2992
▁दीपन	-10.2995
▁माण	-10.2997
▁हत्वा	-10.3
बु	-10.3003
▁फस्स	-10.3005
निर्णय	-10.3005
ित्यर्थः	-10.3005
▁पाटि	-10.3005
ानन्तरं	-10.3007
▁पासाद	-10.3012
▁यद्वा	-10.3014
रूपस्य	-10.3016
▁ऽग्नि	-10.3016
त्रयम्	-10.3021
युग्म	-10.3023
द्धो	-10.3023
▁मग्गं	-10.3024
स्नान	-10.3028
शतसहस्र	-10.3028
▁अन्तः	-10.3029
श्रव	-10.303
▁नान्यत्र	-10.3032
▁जनो	-10.3033
▁मू	-10.3034
चक्ष	-10.3035
▁निवत्त	-10.3035
यिष्यति	-10.3037
▁आकास	-10.3037
▁जेत	-10.3042
ङ्कार	-10.3043
▁प्राकृत	-10.3043
▁हेतू	-10.3048
▁विलास	-10.3049
विद्ध	-10.3059
तन्त्रे	-10.3061
▁पकास	-10.3061
ध्वं	-10.3064
▁कर्तृ	-10.3067
▁उन्	-10.3077
कोष्ठ	-10.3082
च्छब्द	-10.3087
▁सर्वधर्मा	-10.3088
पूजित	-10.3092
लक्ष्मी	-10.3093
▁तब्बा	-10.3095
▁गोतम	-10.3106
माने	-10.3108
▁विहाय	-10.3121
िष्य	-10.3121
भेदः	-10.3122
▁कुत्र	-10.3126
▁पश्यन्	-10.3127
▁रज्ज	-10.3138
▁अज्ञान	-10.3139
▁मरुत	-10.314
▁ध्वनि	-10.3141
▁एति	-10.3142
▁ञात	-10.3143
▁लेख	-10.3145
▁वन्द	-10.3145
वता	-10.3146
▁अनन्तर	-10.3146
ऽइति	-10.3146
▁किञ्चिद्	-10.3147
पुराण	-10.3154
ग्ने	-10.3154
दुष्ट	-10.3155
▁पथवी	-10.3157
ोत्पल	-10.3159
▁अंश	-10.316
श्रिय	-10.3164
▁मग्गे	-10.3165
▁पौर	-10.3167
थवा	-10.3171
▁वाक्यम्	-10.3173
▁स्तुत	-10.3176
▁जीर्ण	-10.3176
वेध	-10.3177
▁गात्र	-10.3178
▁अनुभव	-10.3179
्तव्य	-10.3181
मारभ्य	-10.3187
▁दिवसेन	-10.3187
▁शैव	-10.3194
शतं	-10.3199
पञ्चक	-10.3199
▁ब्रह्मचर्य	-10.32
▁पदानि	-10.3201
▁विशेषेण	-10.3201
श्चापि	-10.3202
धरः	-10.3204
धृत	-10.3204
▁पृ	-10.3204
ुत्पन्न	-10.3211
▁लोचन	-10.3211
ीष	-10.3212
▁हां	-10.3212
▁देवान्	-10.3212
▁हृत	-10.3214
ज्ञेय	-10.3216
मुद्र	-10.3218
▁प्रण	-10.3219
ार्थो	-10.3223
भयं	-10.3223
ाकारं	-10.3226
▁कर्तृत्व	-10.3228
सन्त	-10.3229
कुमार	-10.3229
▁प्रलय	-10.323
तीव	-10.3234
▁ओकास	-10.3235
▁निगम	-10.3237
वृद्धि	-10.3239
▁मुदा	-10.3243
▁अधिग	-10.3243
▁बृह	-10.3248
ाकृति	-10.3255
▁बाला	-10.3255
▁ऽहम्	-10.3256
▁अव्	-10.3257
ानन्त	-10.3262
न्ये	-10.3262
▁अञ्ञो	-10.3265
▁भिक्षवः	-10.3266
▁सदाशिव	-10.3267
▁अनापत्ति	-10.3268
ध्वनि	-10.3275
▁पाण्डु	-10.3276
▁पक्व	-10.3281
विष्णु	-10.3282
▁अधम्म	-10.3283
न्यस्त	-10.3283
▁इन्द	-10.3284
▁वारुण	-10.3289
मरण	-10.3292
ल्लोक	-10.3295
▁लोकिय	-10.3297
▁वक्तव्य	-10.3298
ुण	-10.3298
▁पितु	-10.33
ावह	-10.3302
▁अप्र	-10.3304
▁वृत्र	-10.3308
हूत	-10.3311
कृद्	-10.3317
▁शरण	-10.3329
दृक्	-10.3329
▁तापस	-10.3333
ाचल	-10.3333
▁निसिन्न	-10.3333
▁पूत	-10.3336
▁वरण	-10.3336
▁योजयति	-10.334
ेश्वरः	-10.3341
▁भेदा	-10.3344
वीत	-10.3351
▁त्रिपुर	-10.3352
▁सव्य	-10.3352
▁क्षिति	-10.3356
त्रापि	-10.3357
▁शिखा	-10.3358
कर्मणि	-10.3362
▁रट्ठ	-10.3362
▁वचर	-10.3364
▁इमानि	-10.3364
▁तेनेव	-10.3364
▁शङ्क	-10.3366
माचरेत्	-10.3368
ॠ	-10.3372
▁यथाह	-10.3373
▁विभज	-10.3381
दृशा	-10.3381
ामहे	-10.3383
ष्टि	-10.3392
▁आत्मनो	-10.3393
ीयमान	-10.3393
विद्	-10.3399
बला	-10.3399
▁नीत	-10.3399
ित्यादि	-10.3401
▁कल्पना	-10.3403
▁रुचि	-10.3404
ृण	-10.3405
▁विदित्वा	-10.3405
▁कीर्ति	-10.3407
▁सम्ब	-10.3408
तले	-10.341
लम्ब	-10.341
▁आल	-10.3413
▁दया	-10.3413
▁प्रद	-10.3414
बिम्ब	-10.3414
▁इत्युच्यते	-10.3418
ोक्ता	-10.3423
युक्तम्	-10.3424
्यैव	-10.3425
▁भुक्त्वा	-10.3428
त्वान्न	-10.344
तीत्य्	-10.3448
ैतद	-10.3449
▁नृत्य	-10.3453
▁देति	-10.3453
▁विभव	-10.3453
▁ब्य	-10.3455
ज्ञानम्	-10.3456
▁पजह	-10.3456
▁प्रकट	-10.3458
महं	-10.346
ाह्वय	-10.3463
▁क्षेम	-10.3464
मात्रम्	-10.3468
क्ति	-10.347
विधिः	-10.347
मृ	-10.3475
▁स्वातन्त्र्य	-10.3476
▁सन्तिके	-10.3477
▁मेन	-10.3477
▁शीघ्र	-10.3479
▁विद्धि	-10.348
जनक	-10.3484
▁अत्थं	-10.3491
▁यस्तु	-10.3498
र्वि	-10.3503
▁द्वादस	-10.3504
ुपादान	-10.3507
▁पापक	-10.3508
दर्भ	-10.3509
▁द्वयं	-10.351
▁तरा	-10.3512
▁कतमे	-10.3516
वारि	-10.3519
▁प्राधान्य	-10.352
मोद	-10.352
कर्तु	-10.352
पदा	-10.3521
▁पश्यत	-10.3522
पूर्वक	-10.3523
▁कंस	-10.3524
▁कुशलमूल	-10.3526
िनं	-10.3526
स्तन	-10.3526
धूप	-10.3526
ाभ्याम	-10.3527
▁सम्बन्धः	-10.3529
रूपिणी	-10.353
विघ्न	-10.3531
▁क्रतु	-10.3532
▁निब्बानं	-10.3533
▁ब्रह्मणा	-10.3536
▁समथ	-10.3536
▁पवन	-10.3536
▁अवयव	-10.3536
▁चरेत्	-10.3537
▁आपो	-10.3537
▁विराज	-10.3541
▁प्रसङ्ग	-10.3542
▁अव्यक्त	-10.3544
शिला	-10.3547
▁धं	-10.3548
ग्रहणं	-10.355
परामर्श	-10.3552
▁चेत्थ	-10.3554
द्भुत	-10.3554
▁कुसलं	-10.3555
▁थेरस्स	-10.3556
▁विरह	-10.3559
ाभिमान	-10.3564
▁निसीद	-10.3566
न्वित	-10.3574
▁महात्मनः	-10.3576
▁आयुष्मन्	-10.3577
मभ्य	-10.3581
▁उदकं	-10.3582
भवत्	-10.3583
▁पकति	-10.3587
द्वेष	-10.359
संग्रह	-10.3591
गतः	-10.3593
▁तदनु	-10.3594
▁सिध्यति	-10.3599
▁ब्रह्मण	-10.3599
ान्तक	-10.3599
▁दूषण	-10.3601
व्याधि	-10.3605
▁त्वाम्	-10.3607
▁पुनस्	-10.3607
▁रूपे	-10.3609
त्वान्	-10.361
▁परित्त	-10.3612
पतिर्	-10.3613
▁उद्ध	-10.3613
ारूढ	-10.3615
न्यस्य	-10.3618
▁द्व्य	-10.3623
▁श्मशान	-10.3625
▁सासन	-10.3627
▁शोभन	-10.363
कारिण	-10.364
▁घोष	-10.3646
▁गौर	-10.3647
▁संक्षेप	-10.3647
सिंह	-10.3649
धीः	-10.365
▁स्वेद	-10.3651
▁द्वितीयं	-10.3656
कुर	-10.3657
▁नीच	-10.3657
ाम्य	-10.3658
▁बृहस्पति	-10.3659
ीन्द्र	-10.3661
पत्	-10.3661
ान्तरम्	-10.3662
▁विश्वा	-10.3663
ाष्टक	-10.3666
▁गद	-10.367
रूपे	-10.3671
▁केचिद्	-10.3673
▁मतम्	-10.3673
▁प्रजाः	-10.3675
▁सक्क	-10.3676
▁विमोक्ष	-10.3676
▁समुत्	-10.3678
▁तच्छ	-10.3679
▁उपोसथ	-10.3679
▁इत	-10.368
र्षि	-10.368
ामः	-10.3681
▁अभिञ्ञा	-10.3682
▁कर्तु	-10.3688
तिथि	-10.3688
तये	-10.3689
▁नगरे	-10.3691
▁भिक्षवो	-10.3691
सञ्	-10.3692
▁दुक्कटं	-10.3696
प्रसङ्गः	-10.3696
ार्ण	-10.3698
▁समाख्यात	-10.3698
दर्शनम्	-10.3699
▁शुद्धि	-10.3703
▁श्रेय	-10.3705
▁चिद	-10.3706
विप्र	-10.3706
▁मना	-10.3707
▁शिक्षा	-10.3708
भूद्	-10.3709
ार्द्ध	-10.3712
रभ	-10.3714
भाज	-10.3715
कारणं	-10.3716
स्याप्य	-10.3718
▁बुद्धधर्म	-10.3719
भ्रान्त	-10.3724
वाप	-10.3725
वर्तन	-10.373
ैन	-10.373
ग्रे	-10.3731
वाचक	-10.3731
▁विसुं	-10.3732
च्छिन्न	-10.3733
▁धान्य	-10.3733
ात्यन्त	-10.3735
▁क्षान्ति	-10.3736
▁प्रतीति	-10.3739
▁एकान्त	-10.374
▁तप्प	-10.3743
▁ललित	-10.3743
▁विमुत्त	-10.3744
▁पृथिव्या	-10.3744
िमा	-10.3748
▁मर	-10.3749
▁ठिता	-10.3751
▁निर्मल	-10.3752
मेध	-10.3752
▁लङ्का	-10.3753
▁उपसं	-10.3754
▁शंस	-10.3754
गोत्र	-10.3754
गतम्	-10.3758
▁करुण	-10.376
▁न्यायसुधा	-10.3762
▁कोश	-10.3764
जग्मु	-10.3765
▁चेतसा	-10.3768
▁वारण	-10.3769
ऽपि	-10.3769
मिद	-10.3772
▁भवि	-10.3773
ाविति	-10.3774
हम्	-10.3776
▁पूर्वम्	-10.3776
▁पस्सति	-10.3777
कर्मणा	-10.3779
▁अमु	-10.378
▁कर्तुं	-10.378
विवर्जित	-10.3786
▁प्रत्येकबुद्ध	-10.3786
▁तद्वत्	-10.3788
▁समन्ततः	-10.3792
▁पू	-10.3792
▁विज्झ	-10.3794
▁देवं	-10.3794
विक्रम	-10.3796
क्षिप	-10.3796
तप्त	-10.3796
▁राध	-10.3797
ुल	-10.3798
पद्यन्ते	-10.3799
▁पूजां	-10.38
▁निवेस	-10.38
▁भगवद्	-10.3802
▁सञ्ञ	-10.3804
मधि	-10.3805
▁उस्स	-10.3806
▁सच्छि	-10.3807
▁विधिः	-10.3809
▁कुण्डल	-10.3813
▁ब्रह्मणः	-10.3814
ेष्य	-10.3814
क्षि	-10.3815
▁प्रणय	-10.3815
लव	-10.3817
ासने	-10.3819
ारं	-10.3821
गद	-10.3821
▁भद्द	-10.3822
▁द्विष	-10.3825
▁नम्पि	-10.3826
▁भक्षय	-10.3827
जायत	-10.3831
▁विस्मय	-10.3843
▁शाखा	-10.3843
▁श्याम	-10.3846
▁धनुर्	-10.3851
ाज्	-10.3854
▁अपरे	-10.3856
▁विंशति	-10.3857
▁कारय	-10.3858
▁सुखा	-10.3859
▁कप्पिय	-10.3862
परीक्ष	-10.3863
▁विशेषः	-10.3863
▁जीवितं	-10.3864
वभास	-10.3867
▁स्थाने	-10.3867
▁शुभम्	-10.3867
गृह्य	-10.3869
मृत्यु	-10.3874
ष्टव्य	-10.3877
▁प्रदीप	-10.3881
▁पिशाच	-10.3883
ूप	-10.3884
ीन्द्रिय	-10.3887
▁थि	-10.3888
▁नप्प	-10.3891
ादीनाम्	-10.3892
मध्यम	-10.3894
▁सादृश्य	-10.3897
गार	-10.3899
▁छ्रुत्वा	-10.3901
संहित	-10.3902
▁सङ्क	-10.3903
▁जने	-10.3904
▁वृषभ	-10.3911
▁दारु	-10.3915
▁तेज	-10.3925
▁वीति	-10.3925
▁गृह्यते	-10.3926
▁चतुर्विध	-10.3929
▁एतस्स	-10.3933
भेदे	-10.3934
ट्ठि	-10.3938
▁त्य	-10.394
समये	-10.3942
निवृत्ति	-10.3943
▁कृतः	-10.3944
▁दातव्य	-10.3944
▁कौश्स्	-10.3944
▁स्नात	-10.3945
▁वदन	-10.3946
▁समुद्द	-10.3947
▁साक्षाद्	-10.395
दिव्य	-10.395
िणा	-10.3951
ङ्गु	-10.3951
▁धर्म्म	-10.3953
मंत्र	-10.3954
▁विसुद्	-10.3954
▁गुरुः	-10.3956
▁लक्षणम्	-10.3958
▁त्रै	-10.3959
▁भास्कर	-10.3959
▁मज्झि	-10.396
▁निवार	-10.396
भेदो	-10.3961
▁जानन्ति	-10.3962
▁तत्व	-10.3964
नृप	-10.3964
ोपमा	-10.3968
येति	-10.3969
▁वदन्त	-10.3972
▁मोच	-10.3973
▁गेह	-10.3974
विंशति	-10.3975
स्रव	-10.3976
▁युक्ति	-10.3976
मुनि	-10.3976
▁सिद्धा	-10.3977
धान्य	-10.3979
ाख्यात	-10.3981
▁समाहित	-10.3984
▁परिवार	-10.3985
ावधि	-10.3985
▁पट्ट	-10.3988
ययौ	-10.3988
नया	-10.3989
▁हव्य	-10.399
कमल	-10.3992
▁पविस	-10.3993
▁स्युर्	-10.3995
भृ	-10.3997
कारणम्	-10.3998
▁आचार	-10.3999
▁इयम्	-10.4003
र्घ	-10.4005
▁अनुत्पाद	-10.4006
संपद	-10.401
▁गामि	-10.4011
प्रमुख	-10.4011
▁ज्वल	-10.4011
त्ते	-10.4012
▁सुप	-10.4019
▁तथाच	-10.4022
मधुर	-10.4025
▁तदपि	-10.4027
▁कदाचन	-10.4029
जर	-10.403
▁दिक्षु	-10.4035
▁वत्ति	-10.4036
उ	-10.4038
▁बाहिर	-10.4041
▁आगन्त्वा	-10.4041
▁वाचं	-10.4045
▁शब्दः	-10.4048
▁देवेशि	-10.4049
▁दिक्	-10.4049
वृत्य	-10.405
▁गायत्र	-10.4054
येद	-10.4055
▁निरा	-10.4057
▁पना	-10.4057
मित्युक्त	-10.4057
▁यश	-10.4058
▁उत्पत्ति	-10.406
तथ	-10.406
▁धुर	-10.4063
▁पक्क	-10.4066
▁वक्ष्यामि	-10.4068
▁विञ्ञाणं	-10.407
▁छट्ठ	-10.4071
▁निर्दिष्ट	-10.4071
▁व्याघ्र	-10.4072
निधि	-10.4075
▁तपस्	-10.4075
▁आहुः	-10.4077
▁ठा	-10.4078
▁कुर्वीत	-10.4078
वह्नि	-10.408
▁तीसु	-10.408
▁अय्य	-10.4082
▁द्वात्रिंश	-10.4082
▁पुरी	-10.4082
▁जातु	-10.4083
कानां	-10.4083
▁ठप	-10.4083
दद	-10.4084
िच्	-10.4086
▁पारमिता	-10.4089
▁अभय	-10.4097
▁नियो	-10.4097
किर	-10.4101
ानुग्रह	-10.4104
▁शून्या	-10.4107
▁वर्ग	-10.4108
▁एहि	-10.4111
कानं	-10.4112
▁इती	-10.4118
साव	-10.4118
▁तण्डुल	-10.4118
साम्	-10.4119
ावपि	-10.412
बलेन	-10.4121
▁एनं	-10.4121
व्याप्त	-10.4122
्यन्तर	-10.4126
▁धर्मेण	-10.4127
▁क्षुद्र	-10.4128
▁पणीत	-10.4128
▁जन्त	-10.4134
▁अनभि	-10.4134
▁प्रज्ञ	-10.4135
▁ज्ञेयं	-10.4136
ासीन	-10.4137
▁जवन	-10.4137
वादि	-10.4139
▁शाक	-10.4141
समापत्ति	-10.4143
▁सब्बत्थ	-10.4144
द्राव	-10.4145
▁गतिः	-10.4145
यज	-10.4146
ुभय	-10.415
यन्ते	-10.4154
ज्ञानस्य	-10.4155
निरास	-10.4156
▁सीत	-10.4158
▁ब्रह्मन्	-10.4158
▁कश्	-10.4158
▁वोहार	-10.416
ासीत्	-10.4161
▁तनय	-10.4161
▁महामते	-10.4162
▁कम्मट्	-10.4164
विधा	-10.4165
▁कायेन	-10.4169
▁चैत	-10.4173
तावच्छेदक	-10.4177
घृत	-10.4179
ेनेव	-10.4181
▁आपन्न	-10.4182
▁धन्य	-10.4187
▁जनं	-10.4187
रश्मि	-10.4188
पटल	-10.419
प्रपञ्च	-10.4191
प्स	-10.4192
शोभित	-10.4193
▁यमा	-10.4193
म्बर	-10.4198
कीर्तन	-10.4198
▁कृश	-10.4199
वदिति	-10.4201
▁गच्छन्ति	-10.4203
क्षम	-10.4204
▁वर्ध	-10.4208
तोय	-10.4209
▁श्रुत्य	-10.4211
वश्यं	-10.4212
वशात्	-10.4215
▁एतस्य	-10.4216
गं	-10.4217
▁गर	-10.4217
त्तु	-10.4218
्यमाना	-10.4219
त्व्	-10.4223
▁आगतो	-10.4224
ितव्या	-10.4226
पदेन	-10.4226
▁विभत्	-10.4227
द्वैत	-10.4228
▁अड्ड	-10.4229
▁अशेष	-10.4229
सूय	-10.4232
▁आसीत्	-10.4235
मित्यत	-10.4235
▁शुच	-10.4243
▁वति	-10.4244
▁सत्थ	-10.4245
दाम	-10.4245
▁सूर	-10.4247
▁रसो	-10.4249
▁उद्धर	-10.425
धृ	-10.4251
स्थिता	-10.4251
ार्था	-10.4252
▁छि	-10.4252
▁लो	-10.4253
ाब्ज	-10.4254
व्रज	-10.4256
रोपित	-10.4257
▁मिश्र	-10.4258
▁जागर	-10.4258
ज्ञो	-10.4261
▁स्मित	-10.4262
पदम्	-10.4262
▁कृपा	-10.4268
▁भगवत	-10.427
▁युक्ता	-10.4271
▁सन्तो	-10.4272
▁आवास	-10.4274
▁यश्च	-10.4279
▁योज्य	-10.4283
▁राज्ञः	-10.4287
▁वन्दित्वा	-10.4288
▁चन्द	-10.4289
ताया	-10.4291
▁द्वितीया	-10.4293
▁मुच्च	-10.4293
▁सुत्तं	-10.4293
▁तर्क	-10.4297
▁अमर	-10.4297
▁प्रसीद	-10.4302
▁दत्तं	-10.4307
ेष्वपि	-10.4308
▁सुवि	-10.4311
▁भवत्य	-10.4313
ादपि	-10.4315
▁विद्याधर	-10.4315
▁पानीय	-10.4319
ापेक्षया	-10.4321
द्वारेण	-10.4321
्यति	-10.4323
मानस्य	-10.4324
रय	-10.4331
▁अष्टम	-10.4332
▁व्यसन	-10.4332
मयः	-10.4332
ानुग	-10.4333
काष्ठ	-10.4334
▁विवाह	-10.4336
▁काये	-10.4339
▁स्वप्ने	-10.4341
▁भूतो	-10.4347
शार्दूल	-10.435
▁अभा	-10.4356
▁क्षिप्रं	-10.4356
▁एताव	-10.4357
▁ठि	-10.4357
निरुद्ध	-10.436
▁पास	-10.436
प्रिया	-10.4363
संवर	-10.4363
▁रं	-10.4364
▁पलाय	-10.4364
▁पर्याय	-10.4364
▁देवदत्त	-10.4367
▁विचर	-10.4367
▁ज्ञायते	-10.4367
▁पत्वा	-10.4373
▁भृ	-10.4374
ञ्ञं	-10.4377
▁पुमान्	-10.4378
वेदन	-10.4378
दन	-10.4384
▁दुर्योधन	-10.4385
मुक्तम्	-10.4385
▁पुरु	-10.4385
▁तट	-10.4388
िने	-10.4389
▁उर	-10.439
▁स्तोम	-10.4391
▁पनेत्थ	-10.4395
▁ठत्वा	-10.4396
ार्द्र	-10.4397
▁सप	-10.4402
▁तीर	-10.4403
वर्ध	-10.4403
▁इत्यनेन	-10.4404
▁तावन्	-10.4407
श्लोक	-10.4409
▁उष्ण	-10.441
▁वेद्य	-10.4414
प्रतिसंयुक्त	-10.4416
▁सेट्ठ	-10.4417
चुः	-10.4419
स्तथैव	-10.442
▁महात्मना	-10.4421
▁गम्यते	-10.4422
▁णं	-10.4423
▁नोप	-10.4423
▁युवा	-10.4424
▁शृण्व	-10.4424
▁शिरसा	-10.4426
रता	-10.4429
▁विस्तार	-10.4432
▁अनादि	-10.4433
▁भत्तं	-10.4435
▁करोन्ति	-10.4437
▁वदेत्	-10.4437
▁दस्सेत्वा	-10.4438
गुणा	-10.4438
तरो	-10.4438
▁भ्रान्त	-10.4439
र्थं	-10.4439
▁मुण्ड	-10.444
ॠइ	-10.4442
▁धातू	-10.4443
▁सभाग	-10.4443
▁कस्यचित्	-10.4447
▁शशि	-10.445
▁अवसेस	-10.4451
राध	-10.4454
▁प्राज्ञ	-10.4454
▁स्थविर	-10.4459
▁पय	-10.446
विन्द	-10.446
शीर्ष	-10.4463
▁ज्ञानम्	-10.4466
▁मूर्ध्नि	-10.4467
▁सामा	-10.4471
भूतो	-10.4473
▁वादि	-10.4477
ाभ्या	-10.4478
▁सावक	-10.4481
स्नेह	-10.4481
भाष्य	-10.4484
▁तस	-10.4489
▁जानि	-10.449
रन्ध्र	-10.4491
ाकारा	-10.4491
▁उक्ता	-10.4495
मयो	-10.4499
▁दृष्टं	-10.4502
ेत्याह	-10.4503
▁प्रमाणम्	-10.4507
▁नृपः	-10.4507
्यर्थं	-10.4508
हानि	-10.4508
▁रिपु	-10.4511
▁अप्रमाण	-10.4511
▁प्रयच्छ	-10.4511
तव	-10.4516
ान्विता	-10.4516
▁प्राप्ति	-10.4516
दग्ध	-10.4517
▁कफ	-10.4519
हन्	-10.452
▁रुधिर	-10.4521
▁तदुप	-10.4524
श्रय	-10.4525
प्रकृति	-10.4526
कारी	-10.4526
प्रती	-10.4526
▁शुभे	-10.4526
▁विसेसो	-10.4529
▁सम्पूज्य	-10.453
विशुद्धि	-10.453
▁भे	-10.4532
स्यास्य	-10.4539
▁असति	-10.4545
▁आश्रम	-10.4549
▁राजपुत्र	-10.455
ेत्थ	-10.4552
▁प्रसव	-10.4552
▁पाताल	-10.4557
▁होता	-10.4557
मूढ	-10.4557
▁लोकस्य	-10.4558
कारि	-10.4559
▁रत	-10.4559
▁चतुः	-10.4559
▁तेजसा	-10.4562
धुना	-10.4564
दंष्ट्र	-10.4567
व्यापक	-10.4571
दम	-10.4575
मुत्तर	-10.4576
परिच्छेद	-10.4577
स्तेषां	-10.4578
▁संभवति	-10.4581
▁मण्डप	-10.4583
▁हृद	-10.4583
ोषित	-10.4584
विषये	-10.4585
दर्शनं	-10.4586
तीत	-10.459
सम्पन्न	-10.4591
▁तज्	-10.4591
चिन्त	-10.4592
पराजित	-10.4592
▁यथाविधि	-10.4592
▁अरुण	-10.4593
▁युत	-10.4597
र्भवति	-10.46
▁मैत्र	-10.4602
▁आहर	-10.4605
▁करणीय	-10.4606
शैल	-10.4607
▁पथि	-10.4608
▁विस्तरः	-10.4609
तट	-10.4609
▁दुक	-10.461
र्थे	-10.4611
जुष	-10.4612
माणा	-10.4612
▁संस्कारा	-10.4616
ह्न	-10.4617
▁कोण	-10.4621
▁बहिः	-10.4621
▁भवेन्	-10.4622
पारमिता	-10.4623
▁सुखदुःख	-10.4624
सत्व	-10.4626
वासिन	-10.4628
ष्यते	-10.4629
▁बहुधा	-10.4629
चक्रं	-10.463
चु	-10.4631
▁शक्तिः	-10.4635
▁धर्मस्य	-10.4636
▁हिंस	-10.4636
▁विष्णुर्	-10.4639
▁कश्चिद	-10.464
▁आप्त	-10.4641
▁भवेय्	-10.4644
भेदात्	-10.4649
▁साम्य	-10.4651
▁दानपारमिता	-10.4651
▁त्वय	-10.4652
ाङ्गी	-10.4656
▁हेतुर्	-10.4657
मुक्तं	-10.4658
▁पेक्ख	-10.4658
▁पसन्न	-10.4661
ण्व	-10.4661
▁कुसलो	-10.4662
पेक्ष्य	-10.4663
▁राहु	-10.4664
▁त्रिषु	-10.4664
स्त्वं	-10.4667
▁पश्यामि	-10.4668
ङ	-10.4668
▁उक्क	-10.4669
ाहम्	-10.467
ाख्ये	-10.4671
किं	-10.4672
▁अनुलोम	-10.4672
▁सद्यः	-10.4672
▁निधाय	-10.4678
कोट्य	-10.4679
▁पेति	-10.4683
▁अर्क	-10.4684
▁निरस्त	-10.469
▁अर्जुन	-10.469
▁ठं	-10.4691
▁मन्	-10.4692
पर्व	-10.4692
▁मूत्र	-10.4694
▁कीर्तित	-10.4694
▁सिद्धम्	-10.4695
वायु	-10.4698
▁ध्यानं	-10.4698
▁हान	-10.4699
विमुक्त	-10.47
ात्मकम्	-10.4715
▁सुमन	-10.4716
धेय	-10.4716
गुह्य	-10.4717
स्थापन	-10.4718
▁प्रतीयते	-10.4721
तथता	-10.4721
गन्धर्व	-10.4722
▁धेनु	-10.4722
▁अहेतुक	-10.4724
▁परित्यज्य	-10.4725
▁माणव	-10.4725
ात्मान	-10.4726
▁संयो	-10.4727
▁सुभूतिर्	-10.4727
▁माहात्म्य	-10.473
▁जटा	-10.473
▁सीति	-10.473
▁सिर	-10.4733
▁प्रार्थय	-10.4733
दर	-10.4733
▁लभति	-10.4735
त्रिंश	-10.474
न्दो	-10.474
ोपाधि	-10.4742
▁गाव	-10.4746
▁तन्व	-10.4747
मप	-10.4749
दुक्त	-10.4751
यक्ष	-10.4753
ायत	-10.4755
▁भृगु	-10.4755
ादाय	-10.4756
स्मिन्न	-10.4756
टिका	-10.4757
ाज्ञा	-10.4758
▁हितं	-10.4761
ारभ्य	-10.4761
▁शुष्क	-10.4762
पत्त्र	-10.4763
▁भगवत्	-10.4765
▁विहारे	-10.4766
संसर्ग	-10.4767
ाङ्कुर	-10.4767
गिर	-10.4768
▁करोन्तो	-10.4769
▁अपाय	-10.477
ल्व	-10.477
▁परिपूर्ण	-10.4772
▁अकार	-10.4773
ध्यात्म	-10.4773
▁कम्मे	-10.4774
▁पुरुषं	-10.4774
यतीति	-10.4776
▁पाठो	-10.478
र्भव	-10.4786
लंकृत	-10.4788
▁दुक्खा	-10.4789
▁ऽभूत्	-10.4792
▁उत्पद्यते	-10.4795
▁जानु	-10.4796
▁समुच्	-10.48
▁कतमो	-10.4801
ङ्ख	-10.4801
▁बुद्धिर्	-10.4802
▁द्रष्टव्यम्	-10.4802
▁विमुक्त	-10.4802
मात्रे	-10.4806
▁विभो	-10.4806
▁तथागतस्य	-10.4807
▁सीलं	-10.4807
▁प्रयत्न	-10.4809
▁वैदिक	-10.4809
ध्यवसाय	-10.481
द्रुत	-10.4815
▁यौवन	-10.4818
▁स्वयम	-10.482
▁आदीनव	-10.4821
▁बुद्ध्या	-10.4821
▁गाथाय	-10.4823
▁भवत	-10.4823
▁अघ	-10.4824
▁तस्सेव	-10.4824
ान्तरेण	-10.4825
कुण्डल	-10.4826
▁रामो	-10.4826
मङ्ग	-10.4828
▁देवपुत्र	-10.4828
▁व्याप्य	-10.4828
▁वेन	-10.483
▁तदभाव	-10.483
येन्	-10.4833
▁रियञ्च	-10.4834
वादिना	-10.4837
ारोप	-10.484
नित्यत्व	-10.484
▁नरो	-10.4844
ाद्याः	-10.4845
▁तथाहि	-10.4849
▁आशु	-10.4849
▁ज्योतिर्	-10.485
यितु	-10.485
▁कन्द	-10.4852
हेतुत्व	-10.4852
गृहे	-10.4853
मन्द	-10.4854
▁अत्तानं	-10.4854
▁गमनं	-10.4859
दिवस	-10.486
▁सैन्य	-10.4861
▁चित्ता	-10.4862
▁भोजनं	-10.4863
तयः	-10.4868
कर्षण	-10.4872
▁कद	-10.4872
▁यदिदं	-10.4874
लग्न	-10.4875
▁सग्ग	-10.4877
ैति	-10.488
सैन्य	-10.488
▁द्विन्नं	-10.4882
करणं	-10.4883
▁दृ	-10.4883
▁कदाचिद्	-10.4883
▁प्रकृते	-10.4884
मनुष्य	-10.4884
▁नूनं	-10.4884
जी	-10.4886
प्रत्ययवेदना	-10.4888
▁कर्मणि	-10.4889
▁कुर्याद	-10.489
▁उत्तमम्	-10.4892
▁आज्ञा	-10.4892
▁पेत	-10.4893
▁श्रीमान्	-10.4893
योगिन	-10.4898
क्रीड	-10.4901
▁गुप्त	-10.4902
▁गम्य	-10.4904
▁कूप	-10.4906
रुत	-10.4908
▁मत्वा	-10.4909
समुद्र	-10.4912
▁आदिना	-10.4912
सक्त	-10.4913
▁भृत्य	-10.4917
ेषा	-10.492
तिरिक्त	-10.4922
▁आभास	-10.4923
संस्थ	-10.4923
▁लिखित	-10.4928
▁सोॠअस	-10.4932
▁अर्हसि	-10.4932
पर्यन्तं	-10.4934
▁अङ्क	-10.4936
▁गृह्णाति	-10.4937
▁अष्टौ	-10.4939
वृत्तिः	-10.4941
▁यापन्न	-10.4941
सिद्धेः	-10.4941
▁रूपक	-10.4944
मुक्ता	-10.4947
तस्त	-10.4953
षध	-10.4953
लोह	-10.496
ष्ट्र	-10.4963
▁शब्दस्य	-10.4964
वक्ष	-10.4966
कैर्	-10.4967
भीत	-10.4969
▁पुं	-10.4974
▁पाॠइयं	-10.4974
▁पुरः	-10.4976
त्रितय	-10.4977
▁वु	-10.4978
▁नअ	-10.4979
व्यतिरेक	-10.4984
▁सर्वार्थ	-10.4985
पृच्छ	-10.4985
▁सर्वज्ञता	-10.4985
▁कलह	-10.4987
रियं	-10.4987
▁मत्थ	-10.4988
ीत्य्	-10.4988
▁ज्ञानस्य	-10.4989
धारा	-10.4992
▁नन्तर	-10.4992
▁चक्षुः	-10.4992
▁चूॠअ	-10.4993
विदुष	-10.4995
▁तारा	-10.4997
ामर	-10.4998
▁कृत्व	-10.5001
पर्ण	-10.5002
विहीन	-10.5004
संहार	-10.5006
▁राजेन्द्र	-10.5008
▁तथेव	-10.5017
▁च्युत	-10.5018
▁चेतिय	-10.5019
पूर्य	-10.502
▁शिष्ट	-10.5025
ीये	-10.5026
भ्याम्	-10.5027
▁युक्तः	-10.5027
मानुष	-10.5029
▁दिव्या	-10.5029
▁देवानाम्	-10.503
▁मण्डलं	-10.5031
संभार	-10.5033
ोज्ज्वल	-10.5033
दुप	-10.5034
▁एनम्	-10.5037
लङ्कृत	-10.5039
▁अर्थं	-10.5039
भिमत	-10.504
ान्वितम्	-10.5042
▁आराम	-10.5043
साम्य	-10.5046
▁वक्र	-10.505
▁सिद्धं	-10.5053
▁ठपित	-10.5054
▁बिभ्र	-10.5054
▁पुरुषोत्तम	-10.5055
▁तथाविध	-10.5055
लभ्य	-10.5055
▁जित्वा	-10.5058
वसान	-10.506
▁वाक्यार्थ	-10.506
शक्त्य	-10.5061
▁भग्न	-10.5062
▁अन्वय	-10.5063
▁कण्टक	-10.5064
वर्ज	-10.5067
राक्षस	-10.5067
▁सुध	-10.5068
ङ्कर	-10.507
वकाश	-10.5071
द्वादश	-10.5071
▁विप	-10.5076
धत्ते	-10.5076
राट्	-10.5083
▁जात्य	-10.5084
▁श्रमण	-10.5086
ांग	-10.5086
▁स्त्रिय	-10.5092
▁व्यक्ति	-10.5092
संकाश	-10.5093
▁परस्य	-10.5096
तीत्यर्थः	-10.5097
ेच्च	-10.5098
जृम्भ	-10.5099
▁आवि	-10.51
श्लिष्ट	-10.5105
▁प्रातः	-10.5106
▁चौर	-10.5106
युद्ध	-10.5106
▁चेतसि	-10.5109
▁समरे	-10.5109
▁चक्खा	-10.511
ेषाम्	-10.511
काण्ड	-10.5111
प्रतिभास	-10.5111
▁संज्ञ	-10.5111
▁सर्वाकारज्ञता	-10.5114
▁शिवा	-10.5114
▁सरस	-10.5117
स्ततो	-10.5119
ीत्यादि	-10.5119
ानामपि	-10.5121
▁छत्त	-10.5122
जनित	-10.5128
▁रहस्य	-10.5129
भूष	-10.513
▁उपकार	-10.513
▁संग्राम	-10.5134
विपरीत	-10.5134
ाद्यैर्	-10.5134
मतः	-10.5135
ञ्जय	-10.5137
भवद्	-10.5139
▁सङ्घस्स	-10.5139
ानिल	-10.514
▁संविद्यते	-10.5142
▁पक्षे	-10.5143
▁वक्ष	-10.5143
▁नन्दि	-10.5147
मण्डित	-10.5149
▁उत्स	-10.5152
ाञ्जन	-10.5154
▁परः	-10.5155
▁अष्टादश	-10.5157
ेदम्	-10.5157
णाय	-10.5158
ाहुति	-10.5158
▁अज्झत्त	-10.516
▁आवज्ज	-10.5162
शतानि	-10.5163
▁महिष	-10.517
▁मोद	-10.5172
▁सखि	-10.5172
धूत	-10.5173
पत्ति	-10.5173
किरण	-10.5174
▁चोप	-10.5176
वाह्य	-10.5177
श्वर्य	-10.5178
▁खण	-10.5178
्येव	-10.5182
▁रश्मि	-10.5183
▁मैत्रेय	-10.5185
▁उप्पज्जित्	-10.5187
ार्थाय	-10.5187
वसर	-10.5192
▁वैराग्य	-10.5195
▁मन्त्रं	-10.5195
▁भूतानां	-10.5195
▁ओज	-10.5199
▁दीक्ष	-10.5199
युज्य	-10.5202
▁शोष	-10.5202
▁अविगत	-10.5204
दर्शित	-10.5208
▁विन्यसेत्	-10.5209
▁बलिं	-10.5214
स्तर	-10.5217
मात्रा	-10.5218
▁सर्वकाम	-10.5219
▁कषाय	-10.5219
▁भान	-10.522
▁स्थिते	-10.5223
ग्रहणम्	-10.5229
▁एन	-10.5237
▁गणना	-10.5238
▁देवः	-10.5238
नुस्मर	-10.524
▁गहणं	-10.5248
च्छाया	-10.5248
▁इदम	-10.5249
ाम्बुज	-10.525
▁तत्क्षण	-10.5251
सम्भवात्	-10.5254
▁सुट्ठु	-10.5258
ास्मि	-10.526
▁स्मृत्युपस्थान	-10.5262
समवाय	-10.5264
ीत्य	-10.5265
▁एकस्मिं	-10.5267
निमित्तं	-10.5268
त्रास	-10.5269
▁हल	-10.5269
र्या	-10.527
विध्य	-10.5272
▁वेर	-10.5272
▁त्रयो	-10.5278
व्यञ्जक	-10.5278
▁शाक्य	-10.5282
कर्तव्य	-10.5283
▁रुक्म	-10.5285
▁अदासि	-10.5286
ोपपत्ति	-10.5287
▁छा	-10.5288
भवति	-10.5288
स्फुट	-10.5292
्याद्	-10.5293
▁प्रजानाति	-10.5297
▁दास्य	-10.5297
▁रतो	-10.53
▁उभौ	-10.5303
भिधान	-10.5304
▁षष्टि	-10.5306
तोष	-10.5306
▁स्नानं	-10.5309
▁मद्य	-10.5311
▁उभो	-10.5311
पच्च	-10.5313
▁दारुण	-10.5316
वने	-10.532
▁पप्रच्छ	-10.5322
▁शृङ्गार	-10.5322
▁द्व	-10.5324
▁प्रयुक्त	-10.5326
रोच	-10.5327
नदी	-10.5327
िकया	-10.5329
▁अन्तरिक्ष	-10.5334
▁प्रतिभास	-10.5334
भस्म	-10.5336
▁तत्प्र	-10.534
▁वक्तुं	-10.5341
▁मुनिः	-10.5345
▁किरिय	-10.5349
जित्	-10.5349
▁यक्ख	-10.5349
▁वरा	-10.5352
▁स्थल	-10.5356
▁सन्थ	-10.5356
त्री	-10.5357
▁सङ्कल्प	-10.5361
▁एकम्	-10.5362
श्राव	-10.5363
हङ्कार	-10.5363
वर्तत	-10.5363
रूपम्	-10.5364
टु	-10.5366
पत्तेः	-10.5367
▁सोभ	-10.537
प्रदा	-10.5372
▁पूर्ववद्	-10.5375
▁छ्र	-10.5378
▁प्रभ	-10.5381
▁निर्देश	-10.5384
▁आभ	-10.5391
ैरेव	-10.5392
▁दातब्ब	-10.5392
प्रज्ञ	-10.5393
ज्ञः	-10.54
▁द्विजाः	-10.54
मानेन	-10.54
स्थे	-10.5404
▁विमर्श	-10.5405
▁कारे	-10.5405
शौच	-10.5411
▁पञ्चक	-10.5411
कृत्वा	-10.5413
महे	-10.5418
▁पितरो	-10.5418
विपर्यय	-10.5419
समुद्भव	-10.542
▁लभ्यते	-10.5421
▁कुच्छि	-10.5423
भीर	-10.5424
▁द्वीप	-10.5424
▁निवेश	-10.5427
ुच्च	-10.543
▁यञ्च	-10.543
▁दस्सनं	-10.543
▁प्रत्या	-10.5433
▁त्रिगुण	-10.5441
▁सांख्य	-10.5443
▁निर्गुण	-10.5447
▁शिरसि	-10.5448
धातौ	-10.545
वचनम्	-10.5451
शय	-10.5457
श्चन्द्र	-10.5458
दिग्ध	-10.5458
▁सुद्धि	-10.5458
▁मातृका	-10.5459
रूपः	-10.5462
▁सम्बुद्	-10.5464
दित	-10.5465
▁हेत्व	-10.5465
प्फ	-10.5466
ज्जन	-10.5466
▁वासो	-10.5467
प्रहाण	-10.5468
ोद्देश	-10.547
धात्व	-10.547
▁बिभ	-10.5471
ांशं	-10.5477
▁कर्मण	-10.5481
▁द्व्	-10.5483
▁एतच्	-10.5485
▁प्रहाण	-10.5486
वच्च	-10.5486
ूक	-10.5488
गृह्ण	-10.5488
▁बुद्धं	-10.549
ावली	-10.5495
▁अत्थे	-10.5497
▁फुस	-10.5497
▁पितरं	-10.5499
▁विभङ्ग	-10.5499
तूसु	-10.5499
▁समिध	-10.5501
ादिरूप	-10.5504
▁गेहे	-10.5505
▁नृपति	-10.5508
कत्वात्	-10.5509
▁सर्वबुद्ध	-10.551
परो	-10.5513
नाशन	-10.5514
▁वुत्तन्ति	-10.5517
▁ञा	-10.5518
ुन्	-10.5519
पण	-10.552
रूप्य	-10.552
▁विपक्ष	-10.552
ाक्षेप	-10.5521
वृत्त्या	-10.5524
▁प्रतीत	-10.5527
मनस	-10.5528
▁शक्यं	-10.5528
▁शरीरं	-10.5529
▁इन्द्रो	-10.5529
▁आरभ	-10.5531
च्छु	-10.5532
▁ब्रह्माण	-10.5534
▁प्रजापति	-10.5535
लक्षित	-10.5535
▁सम्यग	-10.5538
▁स्वलक्षण	-10.5538
▁तरे	-10.5539
िकम्	-10.554
भविष्य	-10.554
▁ऽपर	-10.5541
ङ्गीकार	-10.5542
▁पटिघा	-10.5542
▁अनन्य	-10.5542
▁खीणा	-10.5545
▁भ्रान्ति	-10.5545
▁वैर	-10.5546
▁वलि	-10.5548
▁उप्पत्ति	-10.5549
▁विनिच्छ	-10.555
दृष्टान्त	-10.5555
▁द्वाभ्यां	-10.5558
श्चतुर्	-10.5559
▁सूक्तेन	-10.556
▁समाहितः	-10.5563
▁एकस्य	-10.5564
▁तथागतो	-10.5566
▁हिता	-10.5567
▁सन्तिकं	-10.5568
ामास	-10.557
▁सम्बुद्ध	-10.557
ानपि	-10.5571
स्पृश	-10.5571
▁गताः	-10.5572
▁सिद्धे	-10.5574
▁यदुक्तं	-10.5584
निद्र	-10.5587
▁वसन	-10.5591
▁कथि	-10.5592
युक्तो	-10.5593
वन्तो	-10.5596
नुपूर्व	-10.5598
▁सम्भवति	-10.5598
▁शव	-10.56
▁धरा	-10.5602
▁तद्यथापि	-10.5602
▁वञ्च	-10.5604
▁भवतः	-10.5604
िकी	-10.5606
कर्तृत्व	-10.5606
स्य्	-10.5607
▁सुभग	-10.5607
▁तिविध	-10.5608
न्तेन	-10.5608
गोप	-10.5608
▁मूलेन	-10.5609
वर्णन	-10.5609
▁अन्यद्	-10.5609
▁योजयेत्	-10.561
▁एकतो	-10.5611
▁दुविध	-10.5611
▁यानं	-10.5612
▁संहार	-10.5613
पाद्य	-10.5613
▁वैश्वानर	-10.5614
धीन	-10.5614
▁दृश्यन्ते	-10.5615
रुचि	-10.5616
▁वत्थू	-10.5616
प्रदेश	-10.5617
▁आराध	-10.5617
केतु	-10.5618
▁आत्मना	-10.562
▁बद्ध्वा	-10.5622
मीश्वर	-10.5622
▁सब्बञ्	-10.5622
▁विस्तर	-10.5624
्वैव	-10.5626
▁शीघ्रं	-10.5628
▁गिलान	-10.5629
▁कार्यम्	-10.5629
▁तत्तत्	-10.5632
▁बृहत्	-10.5632
प्रभृति	-10.5637
▁मन्त्री	-10.5638
▁विनोद	-10.564
मृश	-10.5641
▁जार	-10.5641
त्वाच्	-10.5641
▁रोद	-10.5643
बुध	-10.5644
ानन्तर	-10.5645
▁महारथ	-10.5647
ोरु	-10.5648
▁यथैव	-10.5649
बहुल	-10.5654
तायै	-10.5654
▁अम्भ	-10.5655
▁सुभ	-10.5656
विकल	-10.5658
भ्यर्च्य	-10.5659
स्तार	-10.566
धस्त	-10.5661
लोल	-10.5662
सर्ज	-10.5667
▁प्रथमा	-10.5667
▁अकुसला	-10.5667
▁अञ्जन	-10.5669
▁द्रुम	-10.5671
दंश	-10.5671
कर्त	-10.5672
▁यशो	-10.5673
▁हेतोर्	-10.5674
▁कुष्ठ	-10.5677
ोत्तरे	-10.5677
▁ब्व्	-10.5684
न्मन्त्र	-10.5686
प्राय	-10.5687
▁परमात्म	-10.5687
▁स्वरूपं	-10.5688
▁लोकान्	-10.5689
चीन	-10.5691
ष्क	-10.5691
▁जव	-10.5692
ासनं	-10.5694
प्रतीत्यसमुत्पाद	-10.5701
ूर्	-10.5702
▁सर्वदेव	-10.5706
▁मनस	-10.5708
▁आसाद्य	-10.5709
ोदाहरण	-10.5709
▁सुखुम	-10.5712
निवृत्त	-10.5713
▁अनुस्स	-10.5714
पत्नी	-10.5717
कामः	-10.5718
▁उत्तरि	-10.5719
हृद	-10.5719
मोच	-10.5723
्यतां	-10.5724
भूमिक	-10.5727
▁स्वयमेव	-10.5727
▁भूषण	-10.5728
विचित्र	-10.5728
चिन्	-10.5729
ास्वाद	-10.573
मूलं	-10.5735
ोपकार	-10.5736
वित्त	-10.5737
प्रत्यभिज्ञा	-10.5737
वत्या	-10.5738
वट	-10.5738
माश्रित्य	-10.5738
माहात्म्य	-10.5748
▁कथेसि	-10.5748
▁रोम	-10.575
▁नित्या	-10.5751
सद्दो	-10.5752
न्तःकरण	-10.5754
▁पूर्वान्त	-10.5755
▁लम्ब	-10.5756
▁कुटि	-10.5758
राजा	-10.5761
▁भ्रू	-10.5761
चीवर	-10.5762
▁समीप	-10.5764
वेष्टित	-10.5766
न्त्या	-10.5768
▁द्रष्टव्य	-10.577
स्फुर	-10.5772
▁धृति	-10.5774
वाक्	-10.5779
पल्लव	-10.5781
▁कथाय	-10.5783
▁मनुज	-10.5785
▁मीति	-10.5786
▁परमात्मन	-10.5787
वासना	-10.5788
▁अनर्थ	-10.5789
▁उप्	-10.579
पूजन	-10.579
▁सतत	-10.5793
▁कनिष्ठ	-10.5795
▁समुद्	-10.5796
▁पहाय	-10.5797
▁विभक्त	-10.58
निष्ट	-10.58
▁कुमुद	-10.5801
▁उदार	-10.5802
▁शब्दार्थ	-10.5803
▁मुद्र	-10.5807
▁मग्गा	-10.5811
ज्जा	-10.5813
▁निरुज्झि	-10.5813
▁युत्तो	-10.5815
▁प्राप्ता	-10.5815
▁भिक्ख	-10.5816
▁अप्रमेय	-10.5817
▁नायं	-10.5828
ावती	-10.5829
विनय	-10.5831
▁वचनेन	-10.5833
▁परार्थ	-10.5833
▁तत्थेव	-10.5833
▁कूर्म	-10.5834
सूत	-10.5834
दीप्त	-10.5836
▁वचनम्	-10.5836
▁विद्यमान	-10.5837
▁अधर्म	-10.5837
▁चत्वार	-10.5838
▁वक्तव्यम्	-10.584
परायण	-10.5841
नाभ	-10.5844
वर्त्म	-10.5845
कत्वं	-10.5849
वृत्तिर्	-10.585
ैर्वा	-10.5851
▁एकेक	-10.5852
▁धर्माः	-10.5853
नू	-10.5854
बाण	-10.5855
ञ्चैव	-10.5856
▁संसर	-10.5857
र्षण	-10.5858
▁रजो	-10.5859
▁निया	-10.5862
▁सङ्गहि	-10.5862
▁अरहत्तं	-10.5864
नक्षत्र	-10.5869
प्रतिपक्ष	-10.5869
▁सूरिय	-10.587
प्रमा	-10.587
▁ह्	-10.587
▁काम्य	-10.5871
▁शय्या	-10.5871
स्त्रेण	-10.5872
र्षभ	-10.5872
योस्	-10.5874
ाद्यैः	-10.5874
▁जिज्ञास	-10.5875
क्रमण	-10.5878
यन	-10.5882
▁दुक्कट	-10.5885
सरण	-10.5888
यद	-10.5889
त्र्य	-10.589
▁नराधिप	-10.589
▁शनैः	-10.5894
▁इत्	-10.5895
▁अनत्त	-10.5896
▁निषण्ण	-10.5897
▁प्रातर्	-10.5897
▁दशा	-10.5897
▁प्रियं	-10.5897
कोट	-10.5901
वत्स	-10.5902
▁पौ	-10.5902
नाना	-10.5903
▁थु	-10.5905
▁अब्भ	-10.5908
सेवित	-10.5908
▁ह्येत	-10.5911
▁हदय	-10.5911
▁यज्ञस्य	-10.5912
रूपत्व	-10.5912
ोवाच	-10.5913
▁सम्भि	-10.5915
▁स्थिताः	-10.5916
क्रमः	-10.5917
ाभिप्राय	-10.5917
ोत्साह	-10.5918
माणो	-10.5921
▁पेस	-10.5922
बलं	-10.5923
श्य	-10.5927
समं	-10.5928
ादन्य	-10.5931
वस्थ	-10.5932
ैकदेश	-10.5935
मण	-10.5936
ाशा	-10.5936
▁रम्मण	-10.5939
▁ऽब्रवीत्	-10.5944
▁अचिन्त्य	-10.5945
▁निवृत्ति	-10.5945
तत्पर	-10.5947
▁यादृश	-10.5947
▁कायिक	-10.5948
▁दायक	-10.5948
नाभि	-10.595
▁धर्माणां	-10.5951
▁स्थापित	-10.5955
कम	-10.5955
ड्य	-10.5958
यत्न	-10.5959
▁पुरुषार्थ	-10.596
▁इष्यते	-10.5961
विविक्त	-10.5961
▁अन्यत्	-10.5962
▁विजित	-10.5962
▁आसि	-10.5963
ानुत्पाद	-10.5964
▁अकासि	-10.5968
भावन	-10.5969
▁जिक	-10.597
ाभ्युपगम	-10.5971
▁कसिण	-10.5974
ैता	-10.5974
▁निरुद्ध	-10.5974
▁पृथिव्य	-10.5974
▁मूलक	-10.5975
▁यस्मिं	-10.5975
▁चित्तम्	-10.5977
द्वये	-10.5978
▁तस्यापि	-10.598
दिव	-10.5981
▁खल	-10.5981
हंस	-10.5983
गज	-10.5984
▁बह्व	-10.5984
▁सुग्रीव	-10.5985
▁नत्थी	-10.5987
▁प्रतिबिम्ब	-10.5991
▁यजेत्	-10.5992
▁उत्तरा	-10.5993
▁खल्व्	-10.5994
ान्यथा	-10.5995
ास्पद	-10.5996
▁धेन	-10.5997
▁कष्ट	-10.5999
▁दैवत	-10.5999
▁परिशुद्ध	-10.5999
क्रमात्	-10.5999
▁सर्वकर्म	-10.6
ाल्प	-10.6001
▁अदृष्ट	-10.6002
▁सर्वशः	-10.6003
▁सनातन	-10.601
▁खत्ति	-10.601
फलम्	-10.601
ुक्तम्	-10.6012
▁अस्त	-10.6013
▁मुखेन	-10.6013
▁गतिं	-10.6015
▁शिशु	-10.6015
गौरव	-10.6017
ार्थस्य	-10.6018
िष्ट	-10.6018
पत्तौ	-10.602
िकाया	-10.6023
▁प्रतिपादित	-10.6023
हरि	-10.6025
▁उरु	-10.6025
ीषु	-10.6027
भिधाय	-10.6031
शस्त्र	-10.6033
▁तेनु	-10.6034
▁हृ	-10.6035
▁सन्द	-10.6036
संसार	-10.6037
▁स्वाध्याय	-10.6039
वतो	-10.6041
वसु	-10.6044
पवर्ग	-10.6044
मागत	-10.6044
▁परिब्	-10.6047
▁ठिति	-10.605
ानुसार	-10.605
वतार	-10.6055
▁करि	-10.6057
विष्	-10.6057
▁चिन्	-10.6058
▁सहस्रं	-10.606
▁पण	-10.6061
ाभिषेक	-10.6061
▁विहारं	-10.6063
▁निसिन्नो	-10.6066
▁पदुम	-10.6066
प्रकर्ष	-10.6068
मुपादाय	-10.6069
ोढ	-10.6069
▁आख्यात	-10.6069
चेतसः	-10.6071
▁तम्पि	-10.6071
▁दूरे	-10.6072
किण्ण	-10.6074
पर्याय	-10.6075
ग्रीव	-10.6075
विज्ञप्ति	-10.6076
▁जाग्र	-10.6077
▁चक्षुषा	-10.6077
नन्य	-10.6077
स्फोट	-10.6078
ूल	-10.6081
तोऽ	-10.6082
▁अवोचत्	-10.6085
▁क्षिप	-10.6085
▁जायन्ते	-10.6085
▁विख्यात	-10.6087
▁प्रशस्त	-10.6089
▁यूयं	-10.6089
▁अमी	-10.609
▁वश्य	-10.6094
▁लज्ज	-10.6094
▁प्राणायाम	-10.6097
निरपेक्ष	-10.6099
▁पत्तं	-10.6101
▁किन्	-10.6101
▁क्षमा	-10.6103
भ्यास	-10.6106
▁उदान	-10.6109
▁जीवति	-10.611
ान्ध	-10.611
▁जम्बु	-10.6111
लौकिक	-10.6111
भिद्य	-10.6112
▁सानु	-10.6112
▁पदेस	-10.6112
▁वीक्ष्य	-10.6112
▁लेस	-10.6113
व्याप्य	-10.6114
▁साद	-10.6114
ानेव	-10.6115
▁घान	-10.6115
पादुक	-10.6116
▁कालिक	-10.6122
संग	-10.6123
▁कर्तुम्	-10.6126
िकायां	-10.6126
▁मनसिकार	-10.6126
▁मल्ल	-10.6126
ामो	-10.6127
▁देशकाल	-10.6129
▁स्तुति	-10.6132
नीयं	-10.6134
स्मीति	-10.6138
ऽइत्य	-10.6139
▁अर्हति	-10.6139
क्लिष्ट	-10.614
▁नुभा	-10.6141
मतिर्	-10.6146
ास्ता	-10.6149
▁पित्वा	-10.615
▁मुच्यते	-10.6151
त्युप	-10.6151
▁थापि	-10.6151
▁प्रेक्ष	-10.6152
ीयम्	-10.6156
▁न्यून	-10.6159
▁सम्मत	-10.6159
नैकान्तिक	-10.616
▁तृ	-10.6161
▁महती	-10.6163
गिरि	-10.6164
ाधम	-10.6164
▁चतूहि	-10.6165
मुखे	-10.6167
▁पत्तिं	-10.6168
▁फलानि	-10.6171
▁तत्तद्	-10.6173
▁एकन्त	-10.6177
ाद्वा	-10.6179
दृग्	-10.6181
वृष्टि	-10.6182
▁तत्त्वं	-10.6184
▁सङ्खे	-10.6185
▁बन्ति	-10.6187
▁प्रतिपाद्य	-10.6189
स्सु	-10.6191
यू	-10.6195
▁दद्या	-10.6196
▁श्रम	-10.6196
पूज्य	-10.6198
▁सूत्रं	-10.6202
▁तन्नि	-10.6202
▁मकर	-10.6202
वासन	-10.6204
▁अङ्गुल	-10.6205
▁निर्गत	-10.6206
दुः	-10.6207
प्रकृत	-10.6212
▁मेतं	-10.6214
▁दस्सनत्	-10.6215
▁तन	-10.6216
र्थः	-10.6218
न्नाह	-10.6221
▁चयेन	-10.6222
ीनि	-10.6223
▁अष्टा	-10.6224
▁जले	-10.6231
नाशनम्	-10.6233
नुरोध	-10.6238
▁एकादस	-10.6238
ज्ञाने	-10.6239
▁नैक	-10.6239
मर्दन	-10.6242
राजस्य	-10.6244
▁तोपि	-10.6247
▁असत्	-10.6247
▁विष्णोर्	-10.6249
कुले	-10.625
▁योगो	-10.625
्याम्	-10.6254
मूले	-10.6254
▁लोकम्	-10.6254
लू	-10.6258
▁तृतीया	-10.6262
▁क्षिपेत्	-10.6262
▁गुड	-10.6264
▁उपनि	-10.6267
▁चर्म	-10.6267
भीष्ट	-10.6272
▁कर्तव्या	-10.6273
गाः	-10.6276
भाषित	-10.6277
ान्वितः	-10.6287
▁तदीय	-10.6291
भुवन	-10.6293
▁स्वल्प	-10.6296
ॠह	-10.6296
▁बोध्य	-10.6297
▁निशि	-10.6297
▁मण्ड	-10.6298
▁विश्वे	-10.6299
वण्ण	-10.6299
लिक	-10.6299
नुग्रह	-10.63
▁आसन्न	-10.6303
▁दुग्ध	-10.6304
ित्य	-10.6304
ाधान	-10.6305
भवन्	-10.6305
क्ष्ण	-10.6306
▁प्रकारेण	-10.6307
▁निखिल	-10.6308
नर्थ	-10.6308
ात्मकः	-10.6309
▁ग्राह	-10.6309
त्तर	-10.6309
▁सप्तदश	-10.6311
र्हि	-10.6312
▁उपपरीक्षते	-10.6313
चक्षुष	-10.6314
▁चित्तो	-10.6319
▁तासु	-10.6321
सोम	-10.6325
तृप्त	-10.6326
▁कल्याणमित्र	-10.633
ाप्नोति	-10.6335
पेत	-10.6336
▁सदस	-10.6337
ेत्युक्त	-10.6339
▁अशुभ	-10.634
ाभिध	-10.6341
धरो	-10.6345
▁भवं	-10.6345
▁गौरव	-10.635
निष्पन्न	-10.6351
धिष्ठित	-10.6352
▁तद्वद्	-10.6355
सुन्दर	-10.6355
▁वसि	-10.6356
▁दीक्षित	-10.6357
▁चान्ये	-10.6357
▁पपात	-10.6359
▁गतस्स	-10.6359
▁करे	-10.636
व्यपदेश	-10.636
▁सासने	-10.6361
सृत	-10.6362
▁गृहं	-10.6362
शम	-10.6365
▁अग्निः	-10.6367
▁विज्जा	-10.6369
तमो	-10.6374
▁हानि	-10.6375
▁व्यय	-10.6375
▁सुषुप्त	-10.6376
▁धम	-10.6378
पक	-10.6378
र्चयेत्	-10.6382
▁यदु	-10.6382
धू	-10.6384
गे	-10.6385
▁बहवो	-10.6385
▁द्रष्टु	-10.6388
देवं	-10.6389
संयुत	-10.6393
▁अग्रे	-10.6393
धरं	-10.6393
ानुगत	-10.6394
▁ताभ्यां	-10.6396
ान्येव	-10.6397
ष्टादश	-10.6397
▁धिया	-10.6398
गतिः	-10.64
▁शब्देन	-10.64
▁ऽद्य	-10.64
परिवर्त	-10.64
▁किञ्चिद	-10.6402
▁प्रवि	-10.6404
परे	-10.6404
▁उपास	-10.6405
व्यवच्छेद	-10.6409
कालिक	-10.6409
▁अंस	-10.6409
▁भिस	-10.6411
स्तान्	-10.6411
िनीम्	-10.6411
▁भावनाय	-10.6412
▁निरोधो	-10.6412
ांशेन	-10.6414
युः	-10.6418
▁पश्चिमे	-10.6423
▁रणं	-10.6423
▁कृष्णा	-10.6425
▁गृहस्थ	-10.6426
ेयुर्	-10.6426
दैवत	-10.6426
▁सम्पाद	-10.6426
दिश्य	-10.6428
योरपि	-10.6431
र्जित	-10.6431
संभवात्	-10.6431
▁निट्ठ	-10.6434
▁रक्षा	-10.6435
▁क्वचिद	-10.6435
▁नर्मदा	-10.6438
द्युति	-10.6439
▁महेन्द्र	-10.6439
▁गण्हन्	-10.644
▁कुमारो	-10.6442
▁नान्यथा	-10.6446
▁इत्युक्त्वा	-10.6446
युज	-10.645
धिकं	-10.6451
▁क्ल	-10.6451
▁भागवत	-10.6454
न्तरिक्ष	-10.6455
प्रतिष्ठित	-10.6457
प्रतिष्ठा	-10.6459
▁कारणा	-10.6459
▁योगिना	-10.6459
मानसः	-10.6461
▁टीका	-10.6463
िंसु	-10.6463
▁विज्ञात	-10.6473
▁अट्ठा	-10.6473
सुखं	-10.6477
▁वचो	-10.6477
▁आहुर्	-10.6478
▁वप	-10.6479
▁समग्र	-10.6479
वृष	-10.6481
मतो	-10.6482
प्रतिबन्ध	-10.6483
▁चक्षुर	-10.6484
▁अवितक्क	-10.6485
वृत्तान्त	-10.6488
स्तू	-10.6489
ाभावः	-10.649
▁आत्मनि	-10.6491
▁तस्मिन्न्	-10.6491
ख्यात	-10.6491
▁निब्ब	-10.6493
▁बला	-10.6493
▁प्रोक्ष	-10.6494
▁अखिल	-10.6494
सुता	-10.6494
ालंकार	-10.6495
▁सद्यो	-10.6497
कन्द	-10.6498
दृष्ट्या	-10.6501
▁संसारे	-10.6501
▁नागतो	-10.6502
द्यु	-10.6503
रोम	-10.6503
न्यो	-10.6505
लोचना	-10.6505
भाजन	-10.6507
▁अभिसं	-10.6513
तर्क	-10.6513
मेति	-10.6514
चारिक	-10.6515
निश्चित	-10.6515
▁हास	-10.6516
ार्ति	-10.6519
धातव	-10.652
▁सम्यक्संबोधौ	-10.6521
ार्जुन	-10.6521
▁दोसो	-10.6521
▁समागत	-10.6525
▁देहे	-10.6528
हव	-10.653
▁अस्माकं	-10.6533
▁तस्मान्न	-10.6533
▁सब्बेस	-10.6538
▁निस्सित	-10.6539
▁वचनात्	-10.6539
रूपता	-10.6539
मानम्	-10.654
▁वादी	-10.6541
▁प्रभूत	-10.6541
▁सकलं	-10.6541
▁अन्नं	-10.6541
▁मथ	-10.6543
▁विकप्प	-10.6543
▁सतीति	-10.6543
▁सीद	-10.6543
▁योजय	-10.6544
त्विति	-10.6547
▁वान	-10.6548
▁पाणा	-10.655
▁नित्यत्व	-10.6551
▁ब्रू	-10.6552
गामिन	-10.6552
त्रिक	-10.6553
▁भ्रातर	-10.6554
स्वप्न	-10.6556
विषया	-10.6556
▁भीमसेन	-10.6561
▁भूते	-10.6561
प्रतिम	-10.6562
▁खग	-10.6563
▁स्वाभाविक	-10.6565
▁मनोहर	-10.6568
▁निरन्तर	-10.6569
नाद्	-10.657
▁घ्	-10.6571
▁गृहपति	-10.6572
ारूप्य	-10.6573
चेतस	-10.6575
▁प्रस्तुत	-10.6575
कौशल	-10.6575
▁नियाम	-10.6578
ोपलभ्यते	-10.6579
समन्वितः	-10.6579
ोग्र	-10.6579
भिसंस्कार	-10.658
दुर	-10.6581
▁दिशः	-10.6581
▁शौच	-10.6581
▁जन्तु	-10.6581
▁कुपित	-10.6581
विल	-10.6582
स्पन्द	-10.6582
▁चतुष्	-10.6583
▁रज्जं	-10.6583
स्पृह	-10.6584
लम्भ	-10.6587
ोपपन्न	-10.6587
तेजो	-10.6587
ञ्ञा	-10.6588
बर	-10.6593
विशेषः	-10.6597
▁वसति	-10.6597
ज्ञापय	-10.6597
▁अवस्था	-10.6599
प्रतीत	-10.66
▁वेदान्त	-10.6602
सर्जन	-10.6604
ार्घ्य	-10.6604
▁हरेः	-10.6608
▁कम्मा	-10.6609
▁बु	-10.661
▁अस्साद	-10.6611
ाशयः	-10.6614
पक्व	-10.6616
▁प्रजापतिः	-10.6616
प्राप्य	-10.6619
▁देसित	-10.662
▁जलं	-10.6623
ावेव	-10.6626
ातिरिक्त	-10.6627
दृ	-10.6628
▁नामरूप	-10.6628
▁ध्वन	-10.6633
▁नदि	-10.6634
युर्	-10.6636
ितैः	-10.6638
रुच्यते	-10.6639
मिष्ट	-10.6639
▁सुप्प	-10.664
▁आसीन	-10.6641
विनिर्मुक्त	-10.6641
ज्वल	-10.6642
▁तीहि	-10.6644
▁द्रष्ट	-10.6644
िनम्	-10.6646
शोधन	-10.6649
▁प्रतिपक्ष	-10.665
▁ब्रूमः	-10.6652
▁युद्धे	-10.6652
▁वसा	-10.6654
▁उक्ते	-10.6655
▁विधेय	-10.6655
▁वायुर्	-10.6657
ादिभिर	-10.666
▁वृथा	-10.6661
▁परिच्च	-10.6663
प्रभव	-10.6663
▁महग्	-10.6666
▁प्रकल्पयेत्	-10.6667
स्थल	-10.6667
▁सतो	-10.6668
कार्यं	-10.6669
▁पिष्ट	-10.6669
▁लीन	-10.667
▁प्रस	-10.6671
▁किच्चं	-10.6673
ान्यपि	-10.6674
वीज	-10.6675
▁प्रतिमा	-10.6677
मेतद	-10.6677
पराक्रम	-10.668
तयैव	-10.6684
पचय	-10.6687
▁योजेतब्	-10.6691
श्रुत्य	-10.6691
▁करणी	-10.6692
भट	-10.6693
शरण	-10.6695
ैषां	-10.6697
ज्योति	-10.67
▁ज्योति	-10.6703
▁परेण	-10.6706
प्रभेद	-10.6709
ानुपलम्भ	-10.6709
▁भेदेन	-10.671
वगाह	-10.6712
▁अग्निम्	-10.6713
▁प्रव्रजित	-10.6715
ोन्नत	-10.6716
▁भवतो	-10.6716
धुर	-10.6718
तायाः	-10.672
▁सत्ताह	-10.6722
▁सद्देन	-10.6723
▁नरा	-10.6724
वाग्	-10.6726
▁सेक्ख	-10.6727
▁तृतीये	-10.6727
▁शास्ता	-10.6727
▁एवमुक्त	-10.6727
साधनम्	-10.673
▁आत्मानम्	-10.673
▁परिग्रह	-10.6731
मसि	-10.6735
▁भगवान	-10.6736
न्यायेन	-10.6737
पात्रं	-10.674
ानित्य	-10.6741
▁शीलपारमिता	-10.6742
ाङ्गना	-10.6742
▁वासव	-10.6744
▁सत्त्वान्	-10.6745
गौ	-10.6748
▁दुःखम्	-10.6749
ितेन	-10.6749
▁योध	-10.675
▁मत्ता	-10.675
▁मानि	-10.6752
▁प्रतिपद्यते	-10.6752
▁हस्ति	-10.6756
ततः	-10.6757
दुम्बर	-10.676
वन्ति	-10.676
▁सयेन	-10.6763
▁गार	-10.6765
जाः	-10.6769
ितव्यम्	-10.6769
कास	-10.677
दधि	-10.6771
▁धारा	-10.6772
स्मर	-10.6772
यन्न्	-10.6776
▁मज्झ	-10.6776
चूड	-10.6777
▁आयुर्	-10.6778
पुत्रो	-10.6785
▁निब्बुत	-10.6787
चित्तोत्पाद	-10.6788
िण्या	-10.6791
▁जनन	-10.6791
▁साधार	-10.6792
▁तथेति	-10.6793
ेदिति	-10.6793
▁बुधः	-10.6794
ग्नय	-10.6795
▁योगि	-10.6795
नुपपन्न	-10.6796
▁यथोक्तं	-10.6796
मुक्त्वा	-10.6796
ुत्तम	-10.6797
▁सेत	-10.6797
▁सक्त	-10.6799
▁उदाहृत	-10.68
क्ता	-10.6802
▁उपमा	-10.6802
वगम्यते	-10.6803
ॠए	-10.6803
▁वामे	-10.6804
▁ऽधि	-10.6812
▁सेट्ठि	-10.6816
बलि	-10.682
▁देसनं	-10.6831
▁विदध	-10.6835
▁तद्वि	-10.6837
▁सम्फस्	-10.6837
यतः	-10.6839
▁रोध	-10.684
▁बलेन	-10.6843
ाक्षि	-10.6844
▁फला	-10.6844
▁सीम	-10.6847
चेत	-10.6849
▁अप्	-10.685
भिप्रेत	-10.685
▁अध्यात्म	-10.6851
▁सन्देह	-10.6851
ाखिल	-10.6852
▁दर	-10.6852
कामो	-10.6854
▁प्रतिपत्ति	-10.6857
▁णे	-10.6861
सूत्रे	-10.6863
▁संयुत्	-10.6864
त्थि	-10.6865
पेक्षा	-10.6865
स्मृत्य	-10.6866
▁स्वभावः	-10.6868
▁वत्था	-10.6868
▁तिण	-10.6871
मेय	-10.6872
▁कटु	-10.6873
▁महाबलः	-10.6873
ब्ज	-10.6874
हान	-10.6874
▁निद्देस	-10.6874
▁भवो	-10.6876
ाम्ल	-10.6877
नमः	-10.6877
श्वरः	-10.6878
पुरे	-10.688
ाशी	-10.6886
▁मद्द	-10.6886
वनं	-10.6887
युगल	-10.689
ाभ्यन्तर	-10.689
पूर्वकं	-10.6891
विधौ	-10.6891
संवेदन	-10.6893
▁ञेय्य	-10.6895
▁सायं	-10.6895
ित्वं	-10.6896
व्याकृत	-10.6896
ार्थत्व	-10.69
माप	-10.6906
स्माकं	-10.6907
चर्य	-10.6907
▁जेट्ठ	-10.6907
▁पश्चाद	-10.6908
िणाम्	-10.6909
▁उपट्ठा	-10.6909
पह	-10.691
▁आरद्ध	-10.6911
यत्य्	-10.6912
सिद्धान्त	-10.6914
▁ज्वाला	-10.6914
▁दर्शनं	-10.6919
▁वसुधा	-10.6931
णात्	-10.6934
▁बोधिसत्त्वः	-10.6934
▁करोमि	-10.6937
▁यथाक्रमम्	-10.6937
▁त्रिकोण	-10.6938
▁पादो	-10.6938
▁प्रतिपादय	-10.6939
मुञ्च	-10.6939
ध्यास	-10.6939
▁भिन्द	-10.6942
▁प्रणिधान	-10.6943
प्रतिपन्न	-10.6947
परत्व	-10.6948
परः	-10.6948
▁प्रच	-10.695
▁अत्थतो	-10.6952
▁आशा	-10.6953
ासव	-10.6955
शाम्य	-10.6955
▁ओवाद	-10.6958
दिक्	-10.6959
▁वंस	-10.6961
▁संस्थाप्य	-10.6965
▁गोपाल	-10.6966
▁नैवेद्य	-10.6968
रश्म	-10.697
▁विविधा	-10.697
▁क्षिप्त	-10.6975
▁श्लेष्म	-10.6976
▁वेत्ति	-10.6976
▁की	-10.6978
दिष्टं	-10.698
ाद्रि	-10.698
गू	-10.698
▁चरन्ति	-10.6981
▁समुपा	-10.6981
नीया	-10.6983
पच	-10.6983
▁क्री	-10.6987
▁सङ्घो	-10.6987
दक्ष	-10.6988
विशारद	-10.6988
▁आरब्ध	-10.6988
विलास	-10.6989
▁सूचित	-10.699
▁रोह	-10.6991
▁भुञ्जि	-10.6991
भक्ष	-10.6993
राष्ट्र	-10.6993
रुन्ध	-10.6994
ितव्य	-10.6995
वधू	-10.6997
वन्तं	-10.6999
भग	-10.7001
▁परमाणु	-10.7002
ाद्भुत	-10.7003
▁अधुना	-10.7004
▁अभेद	-10.7004
▁पुनप्	-10.7004
▁दिशो	-10.7005
ानुपपत्तेः	-10.7007
श्रावक	-10.7008
▁हरिण	-10.7013
▁होतु	-10.7018
स्मान्	-10.7019
वच्	-10.7023
▁महो	-10.7024
▁वत्तन	-10.7026
▁शर्व	-10.7026
▁भानु	-10.7028
▁धम्मेसु	-10.703
रक्षण	-10.703
वृत्तं	-10.7031
▁अतीता	-10.7034
खल	-10.7034
▁कारित	-10.7034
ीयान्	-10.7035
द्विष	-10.7035
▁पाठः	-10.7035
▁सस्सत	-10.7036
▁लोकधातु	-10.7036
▁रज्जु	-10.7039
▁मत्तो	-10.7039
▁धर्मे	-10.704
▁द्रव्यं	-10.7041
जग	-10.7041
च्छिव	-10.7041
▁यमक	-10.7042
हिंसा	-10.7042
वोच	-10.7043
न्तस्	-10.7045
▁दरिद्र	-10.7045
▁मुहुर्	-10.7047
▁पृच्छति	-10.7048
▁रूपानं	-10.7048
▁नाल	-10.7049
▁तादि	-10.7049
हरेत्	-10.7049
▁प्रणत	-10.7051
▁सविता	-10.7053
देस	-10.7053
▁संप्राप्त	-10.7055
युक्तः	-10.7056
क्षीण	-10.7058
▁उत्थाय	-10.7058
▁गुरू	-10.7058
वृध	-10.7063
कृतो	-10.7069
▁प्रथ	-10.7069
शून्यतया	-10.7069
▁जनार्दन	-10.7071
जट	-10.7076
▁पिण्डाय	-10.7078
▁भूप	-10.7079
तेजस	-10.7079
▁नश्य	-10.708
▁विकृत	-10.7081
वतः	-10.7084
▁कुर्यान्	-10.7085
भुक्त	-10.7086
▁अतएव	-10.7088
णव	-10.709
संतान	-10.7094
▁विन्यस्य	-10.7094
पेक्षया	-10.7097
सयञ्च	-10.7099
क्ष्म	-10.7099
वन्तः	-10.71
▁पह	-10.7101
कुण्ड	-10.7101
▁वीर्यं	-10.7101
▁तुम्हाकं	-10.7102
ाशङ्क्य	-10.7102
▁तृतीयं	-10.7102
▁छत्र	-10.7104
नघ	-10.7104
▁षडङ्ग	-10.7107
मण्डलम्	-10.7109
▁प्रजायते	-10.7111
▁व्याख्या	-10.7112
▁मतं	-10.7113
▁शेषं	-10.7115
▁पिङ्गल	-10.7118
▁अञ्ञा	-10.7118
मग्र	-10.7122
▁इत्येव	-10.7122
▁ह्र	-10.7123
संघात	-10.7123
▁क्लिष्ट	-10.7123
▁परिस	-10.7123
▁जातः	-10.7125
त्वाभाव	-10.7126
▁जनाः	-10.7129
विशेषेण	-10.7133
▁जनपद	-10.7134
▁अन्यो	-10.7139
निश्रित	-10.7139
युज्यते	-10.714
▁लोकेषु	-10.7144
▁प्रत्युत्पन्न	-10.7148
▁शङ्का	-10.7152
न्तर्	-10.7153
▁तन्मध्ये	-10.7154
ास्थि	-10.7154
▁धर्मराज	-10.7155
▁सम्पन्न	-10.7155
▁भगवन्त	-10.7157
▁गन्तु	-10.7157
श्याम	-10.7159
ुना	-10.716
▁महात्मान	-10.7162
गव	-10.7163
▁संग्रह	-10.7163
▁दुर्गा	-10.7166
▁प्रणीत	-10.7167
ेत्यादिना	-10.7169
▁स्थावर	-10.717
ब्द	-10.717
तिक्रान्त	-10.7173
▁तीर्थं	-10.7174
▁निस्सग्	-10.7174
्यसे	-10.7175
वल्लभ	-10.7177
▁निधि	-10.7177
पुरं	-10.7178
योजय	-10.718
▁चक्रं	-10.7185
▁रुद	-10.7186
▁जप्त्वा	-10.7187
▁कल्पय	-10.7189
▁धम्मि	-10.719
▁उप्पज्जन्	-10.7191
रीत्या	-10.7193
▁विज्ञाय	-10.7194
सख	-10.7195
▁वीथि	-10.7196
▁रङ्ग	-10.7197
मुच्चार्य	-10.7197
▁मतः	-10.7199
▁सात्त्विक	-10.7202
▁यजेत	-10.7203
▁कर्ष	-10.7206
▁अभव	-10.7206
▁करोतीति	-10.7208
वर्जन	-10.7209
▁तारक	-10.7209
▁गुहा	-10.7209
▁पुरं	-10.7211
▁क्वचि	-10.7212
▁कोष्ठ	-10.7212
▁त्रिदश	-10.7215
क्रोश	-10.7216
ादन	-10.7216
वद्य	-10.7216
▁वैशारद्य	-10.7217
▁चरन्त	-10.7217
समीप	-10.7218
▁पीत्वा	-10.7218
बर्ह	-10.7218
▁सन्ध्या	-10.7219
▁संसर्ग	-10.7221
▁प्रतिपद्य	-10.7223
▁पुष्टि	-10.7225
भास्वर	-10.7225
▁श्रुतिः	-10.7225
▁क्षान्तिपारमिता	-10.7226
▁पित्र	-10.7227
विस्तार	-10.7228
▁अनुमोद	-10.7228
▁नमस्ते	-10.723
▁तपस	-10.7231
▁रम्मणं	-10.7232
▁छु	-10.7232
ादीन	-10.7234
तुल	-10.7236
▁अट्ठम	-10.7241
जीवित	-10.7242
माप्नोति	-10.7242
▁शक्तिर्	-10.7244
▁मिथुन	-10.7244
▁तत्राह	-10.7246
विर	-10.7246
▁असञ्ञ	-10.7248
मुखेन	-10.7248
▁भर्ता	-10.7248
ोपकरण	-10.725
▁लक्षणा	-10.7252
▁क्षार	-10.7255
▁परतो	-10.7257
प्रयत्न	-10.7259
▁ध्यानपारमिता	-10.7259
▁एषो	-10.7259
▁वुत्तत्ता	-10.7264
करोत्	-10.7264
▁धिप्	-10.7267
षू	-10.727
ीभाव	-10.7271
▁ऽत	-10.7273
▁कन्ति	-10.7275
▁आयुष्मञ्	-10.7276
▁द्विजः	-10.7278
योगे	-10.7282
▁पृथ	-10.7285
▁पिच	-10.7289
ाख्यो	-10.7289
कम्मं	-10.729
▁वट	-10.729
चिद	-10.7291
▁गौण	-10.7292
चत्वारिंश	-10.7292
▁विष्णोः	-10.7292
रेणु	-10.7293
▁भेदः	-10.7295
दर्शिन	-10.7296
▁क्षोभ	-10.7296
▁भावयेत्	-10.7296
▁सुहृद	-10.7298
▁प्रथमे	-10.7298
▁पौरुष	-10.7298
▁दहर	-10.7299
▁सर्गः	-10.7301
▁तदन्य	-10.7302
▁विशेष्य	-10.7303
▁चाप्य्	-10.7305
मष्ट	-10.7306
ादिवत्	-10.7307
मण्डले	-10.7308
ाष्टम	-10.7309
सन्ध्य	-10.7312
कोविद	-10.7312
▁बहूनि	-10.7315
▁आयुष्म	-10.7315
तुन्नं	-10.7317
मिष	-10.7319
हृ	-10.732
मज्ज	-10.7322
प्रण	-10.7322
न्यतम	-10.7322
क्रन्द	-10.7323
▁जनय	-10.7324
स्पृष्ट	-10.7328
वधारण	-10.733
स्मित	-10.733
▁शल्य	-10.7332
मेवेति	-10.7333
ोत्कर्ष	-10.7333
स्थिर	-10.7334
▁मानव	-10.7335
वेक्ष्य	-10.7337
चर्म	-10.7342
▁सब्बसो	-10.7342
कर्ता	-10.7344
सन्धि	-10.7344
▁ततोऽ	-10.7345
▁वितत	-10.7345
▁मत्ते	-10.7349
▁सन्तु	-10.7351
ज्जल	-10.7351
▁स्वस्व	-10.7351
▁मेत्ता	-10.7352
▁न्यस्य	-10.7353
▁मासे	-10.7356
▁श्येन	-10.736
▁लोकपाल	-10.7362
हुत	-10.7363
निवास	-10.7365
▁वूपस	-10.7367
▁उदर	-10.7367
▁किय	-10.7368
▁गोमय	-10.7368
चिन्ता	-10.7373
▁सुदर्शन	-10.7375
▁अरि	-10.7375
▁देशिक	-10.7376
मुदित	-10.7377
याद्	-10.7379
मनाः	-10.738
विरचित	-10.738
▁पलि	-10.7384
▁णि	-10.7385
ानुरूप	-10.7386
▁युज्ज	-10.7386
बुध्य	-10.7388
▁नागर	-10.739
▁एकच्च	-10.739
▁एवंविध	-10.7391
▁एवञ्च	-10.7394
ाभिज्ञा	-10.7396
▁सोपि	-10.7399
▁आरोप	-10.74
▁द्वा	-10.7403
▁वक्ष्य	-10.7405
िणां	-10.7407
▁स्थाप्य	-10.741
▁द्वन्द्व	-10.741
ारोह	-10.7411
▁मासि	-10.7413
▁ध्येय	-10.7416
पुनः	-10.7416
▁जगाद	-10.7417
पट्ट	-10.7418
▁चतुक्क	-10.7419
ोऽप्य	-10.742
ावस्थित	-10.742
द्धिपाद	-10.7423
ाधिपति	-10.7424
शक्त्या	-10.7424
संस्पर्श	-10.7424
▁कुमारी	-10.7424
▁तिस्सो	-10.7426
दिग्	-10.7427
▁बृहद्	-10.7427
व्यक्ति	-10.7428
▁दस्सनेन	-10.7429
▁लोल	-10.743
▁नीवरण	-10.7431
▁खित्	-10.7431
पाण	-10.7434
▁वासिक	-10.7435
▁निमित्ते	-10.7436
▁कौरव	-10.744
▁कोस	-10.7442
▁स्वधा	-10.7446
र्श	-10.7448
कलश	-10.7449
▁तर्पण	-10.7454
▁महाकाल	-10.7454
▁व्याध	-10.7456
ोपेतं	-10.7456
ादिशब्द	-10.746
▁चैत्र	-10.746
▁प्रभृति	-10.7461
▁नन्दन	-10.7463
▁हिताय	-10.7466
▁वराह	-10.7467
▁निरुप	-10.7469
तेर्	-10.7469
ूर्ध्व	-10.747
ब्रू	-10.7471
▁ष्	-10.7472
▁स्कन्द	-10.7472
▁धर्मान्	-10.7472
▁कर्तव्यम्	-10.7474
▁गतिम्	-10.7476
कण्टक	-10.7479
धम	-10.748
▁प्रयत्नेन	-10.7482
रक्षित	-10.7482
▁वायव्य	-10.7484
▁व्यर्थ	-10.7486
नेय	-10.7486
त्राण	-10.7487
▁भक्ष	-10.7488
प्रदर्शन	-10.7488
▁श्रद्धया	-10.7489
▁पत्ता	-10.749
▁अनागामि	-10.7491
▁प्रतीत्य	-10.7492
सूक्त	-10.7496
▁शिवः	-10.7502
गात्	-10.7504
पनीत	-10.7505
▁अद्भुत	-10.7505
▁नरेन्द्र	-10.7508
प्रदीप	-10.7509
▁महेशानि	-10.7511
ाह्न	-10.7515
लोम	-10.7516
▁नेसं	-10.7518
▁वेणु	-10.7523
ातक	-10.7524
नास	-10.7526
लोहित	-10.7527
शिष्ट	-10.7531
▁प्रतिष्ठाप्य	-10.7532
मार्गेण	-10.7533
▁सहस	-10.7535
▁उपेक्ष	-10.7536
ुदित	-10.7537
▁अपगत	-10.7537
▁धिय	-10.7538
▁अकुसलं	-10.754
▁तमः	-10.754
▁ज्ञानेन	-10.7541
▁गुर्व	-10.7542
▁न्तिआदि	-10.7544
मन्व	-10.7546
ालये	-10.7547
▁पब्बज्	-10.7547
घाट	-10.7549
सहाय	-10.755
निष्ठा	-10.7552
ादित्यर्थः	-10.7554
भूमौ	-10.7554
▁बिल्व	-10.7556
ध्	-10.7558
▁कत्ता	-10.7561
▁पच्चा	-10.7561
▁तन्मात्र	-10.7561
चाल	-10.7562
करुण	-10.7564
ाभ्र	-10.7565
▁योसान	-10.7567
▁प्रबोध	-10.757
▁वैद्य	-10.7573
▁समुप्	-10.7573
शिखर	-10.7575
▁न्यस्त	-10.7577
शान्ति	-10.7579
▁द्वीसु	-10.7581
▁विक्रम	-10.7584
▁साधकः	-10.7585
▁मुद	-10.7585
ताम्र	-10.7587
▁अग्निहोत्र	-10.7588
▁भार्गव	-10.7589
ष्टक	-10.759
▁सर्वसिद्धि	-10.759
▁परामर्श	-10.7595
▁सुत्ते	-10.7596
दिने	-10.7599
▁ब्रह्मलोक	-10.7607
हू	-10.7608
संवाद	-10.7608
▁पिबेत्	-10.7611
▁पिट्ठि	-10.7613
षट्	-10.7613
विंश	-10.7614
नवस्था	-10.7615
▁महातेजा	-10.7616
▁विनियोग	-10.7617
▁दयित	-10.7617
▁तत्पर	-10.7617
▁तरो	-10.762
साध	-10.7622
▁स्पन्द	-10.7622
▁बाराण	-10.7622
ोपासन	-10.7623
ैत्य	-10.7625
▁देशय	-10.7627
▁योगिनी	-10.7628
▁वेदि	-10.7628
▁विपाको	-10.7628
▁गहिता	-10.7629
वाप्त	-10.763
ाश्चर्य	-10.7632
संक्रान्त	-10.7632
▁हव	-10.7633
ाभं	-10.7635
▁योषित	-10.7637
▁पम	-10.7638
▁पदट्	-10.7638
▁हेतुना	-10.7638
भिमान	-10.7645
ारण्य	-10.7651
▁तिण्णं	-10.7652
तत्त्वं	-10.7654
मुद्रया	-10.7654
▁ध्रुवं	-10.7655
भौतिक	-10.7655
क्रामति	-10.7656
प्रीति	-10.7658
▁भूर्	-10.7659
वाट	-10.7659
▁भक्ष्य	-10.766
▁समुदाय	-10.7661
स्थः	-10.7663
▁द्योत	-10.7663
▁तपच्	-10.7665
▁कथन	-10.7669
▁पृथ्वी	-10.767
वादः	-10.7673
कोटी	-10.7673
▁प्राणि	-10.7675
चेष्टित	-10.7679
▁सर्वसत्व	-10.7681
ग्नौ	-10.7681
कर्माणि	-10.7681
▁गण्हाति	-10.7681
▁निष्क	-10.7687
▁संध्या	-10.7687
▁तुल	-10.7687
ऽऽ	-10.7687
▁रामः	-10.7689
ाग्ने	-10.769
दशा	-10.7691
▁ञत्ति	-10.7691
▁ददा	-10.7692
▁याचित	-10.7694
प्रज्ञा	-10.7696
▁पर्यायेण	-10.7697
▁विश्वामित्र	-10.7704
सिक्त	-10.7705
िक्क्	-10.7705
▁दुष्कृत	-10.7705
▁प्रवर	-10.7705
▁मयूर	-10.7707
ानुष्ठान	-10.7708
ोष्ठ	-10.771
▁इच्च	-10.7712
▁लहु	-10.7712
वर्त्य	-10.7712
सन्निभ	-10.7714
▁विच	-10.7714
भोज	-10.7715
यितव्या	-10.7716
दुर्ग	-10.7717
यदि	-10.7719
▁वचनतो	-10.7719
▁भिक्षा	-10.772
नासिक	-10.772
▁अविचार	-10.7722
▁श्रुतं	-10.7722
दानव	-10.7725
▁देवताः	-10.7726
▁मरि	-10.7726
▁गङ्ग	-10.7728
▁तल्	-10.7728
▁उच्चार	-10.7728
ासक्त	-10.7729
▁अत्थीति	-10.7733
▁मघ	-10.7735
▁मायया	-10.7736
▁तेभ्यो	-10.7737
▁विभा	-10.7738
▁कर्पूर	-10.7738
▁परस्परम्	-10.7738
विदो	-10.7741
▁वाचाय	-10.7746
▁यच्छ	-10.7747
पू	-10.7747
पात्रे	-10.7749
तीर	-10.775
कृतम्	-10.7752
शुक्ल	-10.7756
▁आश्चर्य	-10.776
▁पभेद	-10.776
▁विज्ञानम्	-10.7761
▁ज्ञातव्य	-10.7761
▁गुणाः	-10.7761
त्रैव	-10.7763
▁ह्रस्व	-10.7763
तिल	-10.7763
▁निर्णय	-10.7764
▁धनु	-10.7768
ज्ज्ञान	-10.7768
क्षये	-10.7769
▁आख्य	-10.7769
प्रमत्त	-10.7769
ांगुल	-10.7771
▁विपुला	-10.7772
कत्वेन	-10.7772
▁आदयो	-10.7774
विभव	-10.7775
▁एतदेव	-10.7776
वेल	-10.7776
प्रतिपादक	-10.7779
बन्धु	-10.778
▁नाडी	-10.7781
▁यूप	-10.7784
▁पथवि	-10.7784
▁प्रशान्त	-10.7784
▁गन्तुं	-10.7785
प्रेक्ष	-10.7785
▁इभ	-10.7786
कुश	-10.7786
ङ्गार	-10.779
पगम	-10.779
▁पृथग	-10.779
▁धोव	-10.7791
▁भवेद	-10.7793
▁परिञ्ञा	-10.7793
वतीर्ण	-10.7795
▁भगवन्न्	-10.78
ेशान	-10.78
▁स्वाहेति	-10.7801
▁वीज	-10.7805
ौप	-10.7805
कीर्ति	-10.7806
लप	-10.7807
समास	-10.7807
▁काली	-10.7807
▁सुतः	-10.781
मुच्य	-10.7811
माता	-10.7815
▁तदुक्तं	-10.7815
यिष्य	-10.7816
▁ऽयम	-10.7817
▁लोकोत्तर	-10.7817
मुक्ति	-10.7818
वच्छिन्न	-10.7819
ावसान	-10.7821
तीय	-10.7821
ाविष्ट	-10.7821
▁चरिया	-10.7824
रुध्य	-10.7825
परिपाक	-10.7825
श्चक्र	-10.7826
दूषित	-10.7826
▁लक्ष्यते	-10.7828
▁भिक्षुर्	-10.7829
चतुर्	-10.7832
▁अपश्य	-10.7832
मूर्ध	-10.7837
▁जनित	-10.7837
मूष	-10.784
▁गौरी	-10.7841
▁मुसा	-10.7842
चेष्ट	-10.7844
ब्रह्मण	-10.7845
निवर्त	-10.7845
▁कारं	-10.7846
▁पल्लव	-10.7848
▁उप्पादे	-10.7849
▁प्रादुर्भाव	-10.7849
चरन्	-10.7851
योगतः	-10.7853
▁रपच्च	-10.786
▁मन्थ	-10.786
▁विनीत	-10.786
▁पापुणि	-10.786
विष्ण	-10.786
▁रूक्ष	-10.7862
▁मौन	-10.7862
रित्यर्थः	-10.7864
▁कायस्स	-10.7865
▁पितुर्	-10.7868
▁वितर्क	-10.7869
संनिभ	-10.7869
हत्य	-10.787
ाधर	-10.7872
ग्नी	-10.7873
▁तनू	-10.7874
▁लब्ध्वा	-10.7876
▁भ्रातृ	-10.7877
शित	-10.7877
▁पूजयेद्	-10.7879
▁शिवे	-10.7879
▁द्यु	-10.7881
▁हरित	-10.7884
▁अङ्गुष्ठ	-10.7884
ानुकूल	-10.7885
वर्म	-10.7887
ोपलम्भ	-10.7887
▁तब्बह	-10.7888
▁प्रशंस	-10.7889
ाराधन	-10.7893
लिखेत्	-10.7895
▁संवृत	-10.7896
दारिक	-10.7896
▁कर्मणो	-10.7897
नाल	-10.7899
मयम्	-10.79
द्वारा	-10.7905
▁पूजयित्वा	-10.7905
▁दृष्टः	-10.7907
▁विज	-10.7908
▁तथता	-10.791
शेखर	-10.791
▁द्विजोत्तम	-10.791
व्र	-10.7911
वेष्ट	-10.7913
▁पूर्णा	-10.7913
▁अव्यय	-10.7914
▁सुव्रत	-10.7916
▁स्त्रीणां	-10.7916
ांशे	-10.7917
▁श्वास	-10.792
▁संवाद	-10.7921
▁वट्टती	-10.7921
मृष्ट	-10.7922
ग्निहोत्र	-10.7922
▁दू	-10.7923
▁अप्य	-10.7924
र्चित	-10.7925
द्वयेन	-10.7925
▁विभु	-10.7928
▁युक्तो	-10.7929
▁अनुभ	-10.7929
▁मध्यमा	-10.793
▁पण्डितो	-10.7932
▁दुच्चरि	-10.7933
▁करिष्यति	-10.7934
शुचि	-10.7935
समु	-10.7936
▁अनिमित्त	-10.7936
धारणीमुख	-10.7937
धिष्ठान	-10.7938
यिष्यामि	-10.7938
वट्ट	-10.7938
▁चत्वारो	-10.7946
मात्रस्य	-10.7949
प्रतिपत्त	-10.7951
▁इच्छामि	-10.7952
वल्ली	-10.7953
▁अञ्ञाण	-10.7955
ामात्य	-10.7957
विमोक्ष	-10.7959
▁प्राणान्	-10.7961
▁च्द्	-10.7962
▁नाट्य	-10.7962
▁रूढ	-10.7963
▁शीर्ष	-10.7965
▁कान्ति	-10.7966
▁पवेस	-10.7966
▁चण्डाल	-10.7968
▁धर्माधर्म	-10.797
▁रुह	-10.797
▁पते	-10.7971
▁निधन	-10.7971
▁रास	-10.7975
संगृहीत	-10.7975
वृत्तित्व	-10.7978
नास्रव	-10.798
ायुर्	-10.7981
▁सुमहा	-10.7981
दूषण	-10.7983
▁पाद्य	-10.7984
कुर्वन्	-10.7986
▁झाय	-10.7988
▁पुनस्त	-10.799
▁पविसित्वा	-10.7992
त्रस्त	-10.7993
दिक्षु	-10.7994
▁भवद्	-10.7995
मही	-10.7996
▁व्रण	-10.7997
किल	-10.8
▁तामस	-10.8001
मालिनी	-10.8002
▁उष	-10.8002
▁बली	-10.8004
ीयन्ते	-10.8005
च्छाद	-10.8006
मध्यस्थ	-10.8007
▁उदित	-10.8013
व्यवस्था	-10.8014
▁सदैव	-10.8016
▁अगम	-10.8016
▁युत्तं	-10.8021
स्राव	-10.8022
▁स्फटिक	-10.8024
▁सन्ती	-10.8028
▁असङ्ग	-10.803
मुत्पादय	-10.803
ावच्छिन्न	-10.8031
▁व्रतं	-10.8032
ज्ञप्त	-10.8034
भाषत	-10.8035
▁स्मृत्य	-10.8038
विमर्श	-10.8038
▁शतम्	-10.8039
▁शत्र	-10.804
पुञ्ज	-10.8041
▁यज्	-10.8044
▁दिट्ठा	-10.8046
▁सचेद्	-10.8047
▁नैष	-10.8048
▁स्थितिः	-10.8048
युता	-10.8053
▁दत्ता	-10.8053
▁चतुरश्र	-10.8053
संज्ञक	-10.8055
वर्तमान	-10.8056
▁एकस्मिन्	-10.8056
▁शक्त्या	-10.8056
▁रिय	-10.8057
▁करेय्य	-10.8059
▁सर्वेषाम्	-10.8059
▁यथाभूतं	-10.806
▁श्रीमद्	-10.8062
▁प्रोवाच	-10.8065
▁धर्मता	-10.8065
ष्मा	-10.8068
▁सहस्राणि	-10.8069
संकल्प	-10.8069
ुभ	-10.8071
सलिल	-10.8072
र्थान्तर	-10.8074
▁वक्ष्यते	-10.8079
ार्थम	-10.808
मेतद्	-10.8081
मातृ	-10.8081
▁यत्तु	-10.8082
▁सुचि	-10.8082
▁सौभाग्य	-10.8084
ूनि	-10.8085
▁बालो	-10.8089
▁हाय	-10.8091
▁प्रयच्छति	-10.8091
▁कतमः	-10.8091
▁मुष्टि	-10.8092
▁प्रसूत	-10.8092
ुपाय	-10.8094
कूल	-10.8094
▁उपगत	-10.8096
सन्निकर्ष	-10.8097
प्रख्य	-10.8097
▁तदैव	-10.81
▁आगच्छन्	-10.8105
▁स्वामिन	-10.8106
▁हरण	-10.8107
▁गतिर्	-10.8108
▁तस्थौ	-10.811
ेषाम	-10.8111
▁मित्वा	-10.8111
▁संयम	-10.8113
नात्म	-10.8113
▁वादो	-10.8114
▁ब्र	-10.8114
र्चन	-10.8114
मिदम	-10.8116
ुष्ण	-10.8116
ादर	-10.8116
▁ञाणेन	-10.8117
▁मागध	-10.8119
प्सित	-10.8119
च्छिद्र	-10.812
▁आश्रित	-10.812
विभक्त	-10.8121
▁लज्जा	-10.8121
▁नराः	-10.8121
▁सरित	-10.8123
ानुबन्ध	-10.8124
व्यथ	-10.8125
▁परोक्ष	-10.8125
▁स्वर्	-10.8126
ाब्द	-10.8127
▁वदे	-10.8128
▁पब्बा	-10.8129
लिख्य	-10.813
▁तिष्ठन्ति	-10.8134
▁आचिक्ख	-10.8136
▁वक्ष्यति	-10.8137
ग्न्य	-10.8138
▁गुरव	-10.8141
▁तान	-10.8143
दर्शने	-10.8143
घटित	-10.8144
कारिणी	-10.8144
ानुपलब्धि	-10.8144
▁स्वस्थ	-10.8145
त्विज	-10.8145
नुज्ञा	-10.8146
▁वरः	-10.8148
रोचन	-10.8148
ात्मजः	-10.8149
▁अकृत	-10.8149
▁पुग्गला	-10.8151
▁देवत	-10.8151
▁न्तिआ	-10.8152
▁निप्फ्	-10.8153
▁नपुं	-10.8153
▁सौर	-10.8153
▁समानो	-10.8154
दीक्षा	-10.8158
▁तनि	-10.8159
स्तम	-10.8159
स्माद	-10.816
ाभिमत	-10.8161
माप्नुयात्	-10.8162
▁प्रज	-10.8162
▁प्राप्तं	-10.8167
झ	-10.8167
▁विञ्ञा	-10.8169
रुच	-10.817
▁भ्रात	-10.8172
▁हीना	-10.8173
ाप्नुया	-10.8174
▁केतु	-10.8181
तमः	-10.8181
रिक	-10.8185
▁इमेहि	-10.8185
▁निष्प	-10.8189
▁दातु	-10.8193
▁योगेन	-10.8193
▁शीतल	-10.8193
▁चरन्न्	-10.8194
▁कण्ठे	-10.8195
पितामह	-10.8198
▁कोटी	-10.8199
ध्वर्यु	-10.8199
▁सिञ्च	-10.8202
▁तुभ्यं	-10.8203
दैव	-10.8204
शङ्ख	-10.8205
▁अञ्ञथा	-10.8205
▁कलौ	-10.8205
▁मनसो	-10.8207
देक	-10.8207
विजय	-10.8208
रहस्य	-10.8213
मग्नि	-10.8214
तयो	-10.8214
▁बाष्प	-10.8214
ोद्यत	-10.8215
रक्षा	-10.8216
वलोक्य	-10.8217
तनय	-10.8217
▁समादाय	-10.8219
श्चर	-10.8219
▁त्वरित	-10.8222
▁मुहुः	-10.8222
▁धम्मेहि	-10.8224
▁द्रक्ष्य	-10.8224
ज्ञप्रिया	-10.8226
▁ञु	-10.8228
▁कण्ण	-10.8229
▁भावन	-10.823
यतो	-10.8231
▁सुक्क	-10.8233
चिन्तय	-10.8233
▁सिन्धु	-10.8234
▁गण्हि	-10.8234
▁मनाप	-10.8234
▁वीणा	-10.8236
▁उन्न	-10.8237
▁अन्तरे	-10.8239
ादिष्व	-10.8241
तीनां	-10.8242
▁सुखाय	-10.8243
▁अपेक्ष	-10.8243
ध्म	-10.8244
▁णेर	-10.8245
▁संदेह	-10.8246
मनसिकार	-10.8247
प्रसन्न	-10.8247
▁ऽष्ट	-10.8247
ावेश	-10.8249
▁उत्थ	-10.8249
▁सद्धम्	-10.8249
▁जीवितिन्द्	-10.825
▁भृङ्ग	-10.8251
▁अभूत्	-10.8251
▁तत्सर्वं	-10.8251
▁पुनरपि	-10.8252
▁पिटक	-10.8255
▁गमिस्	-10.8255
त्वादित्य	-10.8256
▁ज्ञेयम्	-10.8258
▁वल्ल	-10.8258
गामी	-10.8259
पोह	-10.8261
▁इम्	-10.8261
▁केवलम्	-10.8261
▁इच्छति	-10.8262
▁सोऽ	-10.8262
्रे	-10.8264
▁संबुद्ध	-10.8264
▁उपलभते	-10.8264
निर्वृत	-10.8265
▁सर्वाः	-10.8268
▁अपूर्व	-10.8273
त्यय	-10.8273
▁सुखी	-10.8273
▁हविर्	-10.8273
ग्रस्त	-10.8274
स्थि	-10.8274
▁शुचिः	-10.8275
ूॠह	-10.8279
▁भोः	-10.8279
▁शै	-10.828
▁अथस्स	-10.8285
ुक्तं	-10.8285
▁हस्ते	-10.8286
▁कान्ता	-10.8287
▁क्षणिक	-10.8288
भ्युप	-10.8289
कर्तृक	-10.8289
वक्र	-10.829
ष्टम	-10.8299
ाक्रान्त	-10.8299
पूत	-10.8301
ाणु	-10.8302
ोद्धार	-10.8304
▁पुग्गलस्स	-10.8306
▁लभेत्	-10.8308
▁वाहन	-10.8313
भाक्	-10.8314
▁वीमंस	-10.8316
▁गाढ	-10.832
न्तराल	-10.8321
▁जल्प	-10.8321
▁युगे	-10.8323
▁धरणी	-10.8324
पद्यमान	-10.8325
▁कर्त	-10.8325
सिद्धौ	-10.8326
▁पञ्चसु	-10.8329
▁चायं	-10.833
▁ठितं	-10.8331
पूर्वकम्	-10.8332
▁कर्णिका	-10.8333
संचय	-10.8333
▁निशम्य	-10.8333
▁व्याप	-10.8335
▁दुःखित	-10.8337
▁येसं	-10.8338
▁मञ्ञे	-10.8342
▁तिपच्	-10.8342
▁युधि	-10.8348
ुवाच	-10.8348
▁स्थापन	-10.835
िकानां	-10.8351
▁रुचिर	-10.8352
नुत्	-10.8357
सन्न	-10.8359
▁सीला	-10.8362
जप्त	-10.8363
देवि	-10.8364
▁मन्यन्ते	-10.8365
▁वुच्चन्	-10.8365
▁रसायन	-10.8366
▁णेन	-10.8367
▁जगन्	-10.8368
▁वुच्च	-10.8368
▁सर्वैर्	-10.8372
▁रोप	-10.8379
▁स्तुव	-10.8381
चैतन्य	-10.8382
▁अहर्	-10.8382
न्द्रिय	-10.8387
▁सम्पदा	-10.8387
▁कण्ड	-10.8388
यमिति	-10.8389
▁कानि	-10.839
▁पृथिव्यां	-10.839
▁सञ्ञी	-10.839
▁अगमा	-10.8392
चूर्णं	-10.8392
शिरो	-10.8393
सकल	-10.8395
ाद्युप	-10.8396
▁प्रतिपद	-10.8398
▁गुह	-10.84
▁पप	-10.8403
▁पुत्तं	-10.8403
▁जङ्घ	-10.8404
▁द्वितीयः	-10.8404
▁व्याख्यान	-10.8404
सून	-10.8404
▁है	-10.8407
तोरण	-10.8409
धिप	-10.841
▁मनुष्या	-10.8412
पारग	-10.8413
ाम्नाय	-10.8414
▁कृत्	-10.8414
▁अगार	-10.8415
रुष	-10.8416
▁दुष्कर	-10.8416
ुल्ल	-10.8418
▁पादप	-10.8421
समन्वागत	-10.8422
▁दुह	-10.8423
▁रहो	-10.8425
▁परी	-10.8425
वादिनः	-10.8427
▁उप्पज्जन्ति	-10.8427
▁शिखर	-10.8428
शङ्का	-10.843
▁सुतं	-10.843
▁चिन्तेसि	-10.8431
▁कप्पे	-10.8431
तारं	-10.8432
तात्पर्य	-10.8432
त्तम	-10.8433
स्थितम्	-10.8436
▁अभ्यास	-10.8437
गण्ड	-10.8439
▁पङ्क	-10.844
ाभय	-10.8443
▁इत्थी	-10.8444
▁समनु	-10.8445
▁जानन्त	-10.8447
▁नत्वा	-10.8448
निरूपित	-10.845
बध्न	-10.8454
ायेति	-10.8454
▁चतुत्थ	-10.8455
चाप	-10.8457
लज्ज	-10.8459
▁इत्यादौ	-10.8459
निविष्ट	-10.8461
▁भैषज्य	-10.8462
मद्	-10.8462
▁प्राणो	-10.8462
▁गिरा	-10.8463
त्यक्त	-10.8464
नृ	-10.8465
▁प्रीण	-10.8465
प्रीत	-10.8466
▁पवत्ते	-10.8466
▁निरुध्य	-10.8469
मोहित	-10.8469
समायुक्तं	-10.8469
▁पनस्स	-10.847
▁नानत्त	-10.847
राव	-10.8471
▁ब्रूयात्	-10.8471
▁लाभी	-10.8472
▁मञ्जुश्री	-10.8474
▁अवतार	-10.8477
▁चतुब्	-10.8477
साधनत्व	-10.8478
▁वृष्टि	-10.8481
▁प्रणम	-10.8481
स्थापय	-10.8483
न्नाम	-10.8486
▁विहरन्	-10.8487
त्युच्यते	-10.8487
नद्ध	-10.8487
मनः	-10.8488
शब्दार्थ	-10.849
न्वयव्यतिरेक	-10.8492
मार्जन	-10.8493
▁वुट्ठ	-10.8495
▁दर्शनात्	-10.8496
▁सकृत्	-10.8496
ार्थेन	-10.8496
▁पच्चत्	-10.8496
▁पन्नं	-10.8496
ाभावो	-10.8498
न्तर्भाव	-10.85
▁देशयति	-10.8503
▁क्षत	-10.8503
▁गवां	-10.8507
▁हृत्	-10.8508
▁आयुष	-10.8513
▁च्व्	-10.8514
▁सम्भा	-10.8514
सादृश्य	-10.8515
स्तोत्र	-10.8515
▁अभवत्	-10.8516
▁सत्त्वाः	-10.8517
ापयेत्	-10.8517
▁भिक्षू	-10.8518
ङ्गिर	-10.8518
कारित्व	-10.8519
विशेषात्	-10.852
▁वाग	-10.8521
▁आर्त	-10.8524
विधाय	-10.8524
तिशय	-10.8525
▁लग्न	-10.8525
▁बान्धव	-10.8526
ुत्थान	-10.8526
▁दिस्सति	-10.8527
▁जरामरण	-10.8527
▁एतान्	-10.8528
▁प्रतिष्ठापय	-10.8528
ाहु	-10.853
▁महाकरुणा	-10.853
प्रश्न	-10.8531
ुषित	-10.8532
▁हरे	-10.8533
▁छब्ब्	-10.8535
च्छद	-10.8535
▁चेष्ट	-10.8537
▁समृद्ध	-10.854
ेभ्यस्	-10.8542
▁द्वीहि	-10.8544
▁अणु	-10.8545
धन्व	-10.8547
▁सद्दा	-10.8549
तर्हि	-10.8549
▁अचल	-10.8551
▁भागिय	-10.8552
द्वन्द्व	-10.8557
▁निद्द	-10.8558
मेखल	-10.8562
▁साधित	-10.8563
▁इत्येवम	-10.8565
भर्त	-10.8567
▁तन्तु	-10.8568
न्तस्स	-10.8569
▁जीवस्य	-10.8572
▁द्वयोर्	-10.8573
श्चित्त	-10.8576
▁प्रतिपन्न	-10.8576
▁स्वामि	-10.8577
िष्ठा	-10.8579
▁सुगन्ध	-10.8579
▁सनं	-10.8581
ध्वम्	-10.8581
ाद्य्	-10.8582
न्तौ	-10.8586
डु	-10.8587
▁पुरस्तात्	-10.8588
▁रूपाणि	-10.8588
▁निवेदयेत्	-10.8592
▁धू	-10.8596
ङ्कुर	-10.8596
द्युत	-10.8598
▁असुक	-10.8598
▁अनत्थ	-10.8599
▁कृति	-10.8599
▁रोच	-10.8599
ेष्वेव	-10.86
▁अभिज्ञा	-10.8601
▁अवश्यं	-10.8602
▁सूप	-10.8602
▁इन्दु	-10.8605
▁पुष्य	-10.8605
ार्थी	-10.8607
▁मर्म	-10.8608
▁वक्तव्यं	-10.8609
ोपलब्ध	-10.8611
▁निपत	-10.8612
दृशो	-10.8614
दष्ट	-10.8614
वशेन	-10.8615
▁व्यञ्जन	-10.8616
त्यज	-10.8619
▁वधू	-10.862
संवित्	-10.8621
मन्तरेण	-10.8622
▁अभिधम्	-10.8622
▁तदनन्तर	-10.8623
▁अन्त्य	-10.8624
प्युप	-10.8624
▁शश्व	-10.8624
▁शुभाशुभ	-10.8625
▁तीरे	-10.8627
सुन्दरी	-10.8627
ाद्वि	-10.863
▁शर्म	-10.8633
विड	-10.8634
▁उपदेश	-10.8637
▁ब्रह्मणि	-10.8639
▁पक्कम	-10.8643
▁आरम्भ	-10.8643
▁पर्ण	-10.8644
▁सौवर्ण	-10.8644
ज्यते	-10.8647
▁मरु	-10.8648
ध्रुव	-10.8649
तीक्ष्ण	-10.8649
▁प्रयत्नतः	-10.865
ाग्निना	-10.8651
संधि	-10.8655
पित्त	-10.8656
मण्ड	-10.8656
▁वेदितव्यम्	-10.8656
▁मक्ख	-10.8657
▁रानं	-10.8657
धिमुक्ति	-10.8657
▁गमिष्य	-10.8659
विक्रय	-10.8659
मृष	-10.8659
▁प्राजापत्य	-10.8659
▁कार्यकारण	-10.866
ापयति	-10.8662
▁कतमं	-10.8663
्री	-10.8665
▁साक्षि	-10.8667
त्यपि	-10.8669
▁भिक्खुना	-10.867
▁उद्धच्	-10.867
▁विष्णुः	-10.867
ागमन	-10.8671
▁आरोह	-10.8672
न्दि	-10.8673
▁विपत्ति	-10.8674
▁बुद्धानां	-10.8675
▁पश्चा	-10.8676
▁शाब्द	-10.8676
▁मेधा	-10.8678
प्रत्येकबुद्ध	-10.8679
क्षोभ	-10.8681
▁दॠह	-10.8683
विभाव	-10.8684
▁त्रयः	-10.8685
ैल	-10.8687
▁तेपि	-10.8689
काङ्क्ष	-10.8689
प्रथम	-10.8692
▁सिद्धो	-10.8692
ाङ्गुष्ठ	-10.8693
▁पोष	-10.8695
▁सुतो	-10.8696
रोहण	-10.8697
▁विलोक्य	-10.87
विना	-10.8701
कण	-10.8701
▁रञ्ज	-10.8703
▁असद्	-10.8703
▁री	-10.8704
▁आप्नोति	-10.8704
▁माल्य	-10.8705
▁अनुरूप	-10.8705
▁परिमाण	-10.8705
तीर्य	-10.8708
ङ्गम	-10.8709
िण्य	-10.8714
▁अहेसुं	-10.8714
▁पात्रं	-10.8717
▁प्रमाणान्तर	-10.8719
▁आरभ्य	-10.8719
पोष	-10.8719
▁एसो	-10.872
▁होवाच	-10.8724
▁अतीते	-10.8724
▁जघन	-10.8725
▁विवट्ट	-10.8726
नद	-10.8726
वेदना	-10.8726
▁महतो	-10.8731
▁गार्हपत्य	-10.8731
▁अनुपादिन्	-10.8732
▁अननु	-10.8734
▁अधिकार	-10.8736
ात्पर	-10.8736
सम्बद्ध	-10.8738
पङ्क	-10.8739
▁अन्तरेण	-10.8739
▁सद्य	-10.874
▁इच्चादि	-10.8743
तीन्द्रिय	-10.8743
वशिष्ट	-10.8744
पदस्य	-10.8745
ेतद्	-10.8745
भूम	-10.8748
▁श्यामा	-10.8748
ानुसारेण	-10.8749
ादीनं	-10.8749
नुत्पाद	-10.8749
▁निवस	-10.8749
▁ताव्	-10.8751
▁भुङ्क्ते	-10.8751
धारि	-10.8751
स्यैक	-10.8752
दिह	-10.8754
▁स्यादित्य	-10.8754
▁शिरस	-10.8757
ङ्घ	-10.8757
तृतीय	-10.8758
▁शोणित	-10.8758
व्यञ्जन	-10.876
▁कस्माद्	-10.876
▁कोध	-10.8761
षद	-10.8763
▁चेन्	-10.8763
पेक्षित	-10.8764
व्याज	-10.8767
▁वाराह	-10.8767
परिमित	-10.8769
सकाश	-10.8769
▁केसर	-10.8769
▁प्लव	-10.877
▁सप्ताह	-10.8774
र्नाम	-10.8774
▁वारो	-10.8778
ायुत	-10.8778
▁सङ्खारो	-10.878
▁तिक्त	-10.878
समवेत	-10.8782
▁प्रयत	-10.8782
▁सुधीः	-10.8783
ञ्जल	-10.8785
▁वाव	-10.8785
मूत्र	-10.8785
त्वरूप	-10.8785
▁नृणाम्	-10.8787
▁गृहाण	-10.8788
▁पुस्तक	-10.8789
नुक्त	-10.8791
▁अरण्य	-10.8791
▁सिद्धिः	-10.8792
ालक	-10.8793
पौरुषेय	-10.8795
मुकुट	-10.8796
चिकित्स	-10.8796
ीयो	-10.8799
खी	-10.88
ाश्रयः	-10.8801
▁भृशम्	-10.8802
▁हन्तु	-10.8803
▁क्षुध	-10.8805
▁द्विपद	-10.8808
चक्रे	-10.8809
यिष्यन्ति	-10.8809
गताः	-10.881
वत्य	-10.881
▁चाप्य	-10.881
वैयर्थ्य	-10.8813
▁अनिच्चा	-10.8814
▁निष्फल	-10.8814
जहार	-10.8815
▁घण्टा	-10.8815
▁शक्त्य	-10.8816
धर्मता	-10.8817
वतां	-10.8818
भ्रंश	-10.8819
▁अपदान	-10.882
▁मुनय	-10.8821
▁निष्कल	-10.8829
रूपतया	-10.8831
▁यथार्थ	-10.8831
▁इन्द्रः	-10.8832
▁खुद्द	-10.8832
▁अट्ठक	-10.8832
वक्ष्य	-10.8834
कील	-10.8835
▁विषाद	-10.8836
भज	-10.8837
संश्रय	-10.8838
▁प्रोक्तो	-10.8838
▁साधर्म्य	-10.8838
स्वामि	-10.884
▁सक्कार	-10.884
समन्विता	-10.884
▁ऽन्यत्र	-10.8841
खर	-10.8841
▁प्रहर	-10.8843
▁ऽर्हन्	-10.8843
मुच	-10.8843
▁सर्वाङ्ग	-10.8844
विरोधः	-10.8844
▁वाथ	-10.8844
मन्दिर	-10.8846
▁निष्ठ	-10.8848
मोचन	-10.8849
▁परिवर्त	-10.8849
▁खेचर	-10.885
▁अनात्म	-10.885
माद्य	-10.8852
▁पलाश	-10.8853
▁सासनं	-10.8854
ीनाम	-10.886
चिह्न	-10.8863
▁अत्रापि	-10.8863
वलम्ब	-10.8863
दर्शनेन	-10.8864
पद्येत	-10.8869
▁महासत्त्वा	-10.8869
▁युत्ता	-10.8871
▁सुखेन	-10.8873
ोत्तमः	-10.8873
▁कै	-10.8875
▁हास्य	-10.8876
▁एतच्च	-10.8876
ोपभोग	-10.8881
▁वारा	-10.8882
कुरु	-10.8885
▁वपुः	-10.8886
स्तथ	-10.8888
तरण	-10.889
▁घोरं	-10.8892
▁शून्यं	-10.8892
दीय	-10.8896
ावचर	-10.8896
विभ्रम	-10.8896
▁प्रतिष्ठ	-10.8897
षट्क	-10.8898
▁रामस्य	-10.89
▁दातुं	-10.8901
▁स्वभावो	-10.8902
▁उभ	-10.8902
नुपलब्धि	-10.8906
▁झत्त	-10.8908
▁उक्तो	-10.8908
रुक्त	-10.8909
▁दाता	-10.891
षत्	-10.8912
ल्लिङ्ग	-10.8915
▁ब्रह्माण्ड	-10.8917
▁श्रद्ध	-10.8921
भाण्ड	-10.8922
▁मह्यं	-10.8922
▁वामदेव	-10.8923
▁आलम्बन	-10.8923
▁सहजात	-10.8925
▁अद्दस	-10.8928
▁जज्ञे	-10.8931
▁अञ्ञत्र	-10.8931
व्याख्यान	-10.8933
▁विष्ट	-10.8934
▁ज्या	-10.8934
▁विधिवत्	-10.8935
ुका	-10.8937
▁अतिरेक	-10.8937
▁स्वतः	-10.8944
▁स्रोत	-10.8944
वण	-10.8948
▁आग	-10.8948
दीन	-10.8949
▁युद्धं	-10.8952
▁वीर्यपारमिता	-10.8952
▁अहोरात्र	-10.8953
▁पचा	-10.8954
टन	-10.8957
▁तद्रूप	-10.896
विधिना	-10.8961
▁अनू	-10.8963
त्रये	-10.8963
भोक्तृ	-10.8963
▁किमर्थं	-10.8965
▁अग्न	-10.8966
निर्वाण	-10.8967
▁सहस्रशः	-10.8968
शाप	-10.8969
▁दोमनस्	-10.8969
▁उत्त	-10.8971
▁अतस्	-10.8971
ासः	-10.8972
परोक्ष	-10.8973
▁लिखेत्	-10.8976
▁पट्ठ	-10.8976
धीर	-10.898
▁मानसं	-10.898
▁दक्षिणेन	-10.8981
विचक्षण	-10.8981
▁अवस	-10.8981
जड	-10.8981
▁तासं	-10.8982
▁गूढ	-10.8983
संस्थान	-10.8987
▁वक्तुम्	-10.8989
ाङ्गुलि	-10.8989
▁रूपस्य	-10.899
▁क्षेत्रज्ञ	-10.8991
विरत	-10.8991
च्छाय	-10.8993
भुजा	-10.8995
▁विशेषो	-10.8996
▁पायस	-10.8997
मुक	-10.8997
▁आयुष्मान्	-10.8997
▁भद्रे	-10.8997
▁तेजः	-10.8997
▁वल्लभ	-10.8998
▁विन्ध्य	-10.8998
चण्ड	-10.9001
▁मध्व	-10.9005
पुच्छ	-10.9005
▁अचिर	-10.9008
▁कत्थच	-10.9009
वेदि	-10.901
▁स्वच्छ	-10.9011
▁राधा	-10.9012
▁पिव	-10.9013
ात्तु	-10.9013
▁निवेद्य	-10.9014
▁विरज	-10.9015
▁तिरच्छा	-10.9015
▁तद्धि	-10.9017
ोपसंहार	-10.9017
▁रम्भ	-10.9018
▁देयं	-10.9019
▁पर्यन्त	-10.9019
ावशेष	-10.9021
शोष	-10.9022
▁चोदित	-10.9023
▁आजीव	-10.9024
▁पशव	-10.9026
▁पारमि	-10.9028
ुपरि	-10.9029
स्तप	-10.9029
पोत	-10.9031
▁परुष	-10.9032
▁भासित	-10.9034
▁विष्णो	-10.9035
▁प्रयोजनम्	-10.9036
▁तर्पय	-10.9038
▁उप्पन्नं	-10.9039
्यमानो	-10.904
▁बहिर	-10.9041
वदेव	-10.9043
ैनम्	-10.9043
▁रोष	-10.9044
▁संहिता	-10.9044
▁निद्देसो	-10.9047
▁अनुजाना	-10.9049
▁नभा	-10.9049
▁मट्ठ	-10.9052
▁अवाप	-10.9056
प्रजा	-10.9057
▁भाज	-10.906
▁त्रास	-10.9061
श्रु	-10.9061
▁प्रतिपत्	-10.9062
युक्ति	-10.9064
सम्बन्धेन	-10.9065
▁निष्ठा	-10.9067
ैरुप	-10.9068
भार्या	-10.9069
▁एतेषां	-10.907
ुपलब्ध	-10.9071
मात्मानं	-10.9072
रूपत्वात्	-10.9072
▁साव	-10.9074
▁पदानं	-10.9074
▁धैर्य	-10.9076
▁आरम्मणं	-10.9076
संख्येय	-10.9076
ञ्ञो	-10.9077
▁अभिभ	-10.9078
नीयम्	-10.9078
▁सेवित	-10.908
मत्सर	-10.908
▁तिष्ठन्	-10.9081
▁उपपन्न	-10.9086
▁नरकं	-10.9089
ाङ्कुश	-10.9091
▁इस्सर	-10.9093
▁सामिक	-10.9098
रिक्त	-10.9098
▁क्रियमाण	-10.9099
▁निर्यात	-10.9102
▁पयः	-10.9104
▁जन्तान	-10.9105
▁मरणा	-10.9106
▁धारे	-10.9107
▁सञ्ञो	-10.9107
गाय	-10.9111
▁किञ्चापि	-10.9111
▁आसीद्	-10.9111
कुशलमूल	-10.9115
▁षष्ठी	-10.9115
वैकल्य	-10.9115
▁करिष्यामि	-10.9118
प्रतिहत	-10.9118
▁विधानेन	-10.9121
हेतुर्	-10.9122
▁तिंस	-10.9124
▁तत्कस्य	-10.9126
▁उद्यान	-10.9127
ण्डि	-10.9127
व्यवहित	-10.9128
▁संक्लेश	-10.9129
▁महर्षि	-10.9129
ारब्ध	-10.9129
▁सन्तक	-10.9129
▁हेतं	-10.9131
▁तद्विषय	-10.9131
▁दस्सित	-10.9132
▁मैत्री	-10.9132
▁नून	-10.9133
▁शिखि	-10.9134
च्छति	-10.9136
▁माष	-10.9138
▁बहिद्धा	-10.914
▁गोष्ठ	-10.9141
योश्च	-10.9142
कृत्त	-10.9143
▁वचने	-10.9144
▁त्वर	-10.9146
▁लक्खणं	-10.9146
▁वच्छ	-10.9146
▁त्रिरात्र	-10.9148
▁कन्य	-10.915
▁गणेश	-10.9155
▁महाबाहो	-10.9156
▁विचिन्त्य	-10.9157
▁षट्त्रिंश	-10.9157
▁ठाय	-10.9158
▁क्वापि	-10.9159
ाराध्य	-10.9161
▁कालिका	-10.9165
ाग्नेय	-10.9165
भ्रष्ट	-10.9166
देय	-10.9168
पुष्ट	-10.9168
ितया	-10.9169
पतये	-10.9169
▁समीपे	-10.917
▁अहु	-10.9171
र्णव	-10.9171
▁व्यु	-10.9173
▁महन्तं	-10.9174
सङ्घ	-10.9174
▁खय	-10.9177
▁पार्श्वे	-10.9179
▁मन्तव्य	-10.9182
▁पाञ्चाल	-10.9184
द्वै	-10.9187
लवण	-10.9187
▁मुग्ध	-10.9188
▁श्रु	-10.9189
▁सङ्कप्	-10.919
क्ल	-10.9191
ोद्यान	-10.9192
▁यदी	-10.9192
▁प्रयात	-10.9192
▁धन्व	-10.9195
▁उत्पादय	-10.9196
समन्वित	-10.9197
प्रणिहित	-10.9198
▁विनास	-10.9202
▁वदा	-10.9202
रुज	-10.9203
▁ओदन	-10.9203
▁साहस	-10.9203
भिधा	-10.9203
▁क्लीं	-10.9206
विग्न	-10.9207
कर्तृ	-10.9207
▁हारो	-10.921
▁श्रुतम्	-10.9211
▁त्वद	-10.9211
▁वाजिन	-10.9213
▁संवित्	-10.9213
▁निकाय	-10.9215
समूह	-10.9215
सन्ध	-10.9215
धुन	-10.9216
▁तत्कथ	-10.9217
पूरित	-10.9219
▁जघान	-10.922
▁क्रीडा	-10.9225
▁विध्य	-10.9225
पताक	-10.9226
वर्जितम्	-10.9226
▁भगवन्तम्	-10.9226
▁सखा	-10.9227
▁वेम	-10.9227
▁दिशा	-10.9229
▁रक्षो	-10.923
▁उपस्थ	-10.9232
▁अच्युत	-10.9234
▁शरद	-10.9234
वसन	-10.9236
वचः	-10.9236
▁पावन	-10.9236
वीचि	-10.9237
▁स्मृत्वा	-10.9238
वदात	-10.9238
▁वस्त्व	-10.9239
▁आसेवन	-10.924
वत्सल	-10.9241
संवृत	-10.9244
पिष्ट	-10.9248
▁सरो	-10.9249
▁उद्धं	-10.925
भिषिक्त	-10.9251
▁कटुक	-10.9251
▁विशाल	-10.9253
▁पितुः	-10.9254
ध्वस्त	-10.9255
▁भगवांस्	-10.9256
यत्य	-10.9263
▁कार्यस्य	-10.9263
पतन	-10.9267
▁युध्य	-10.9268
▁चक्षुःसंस्पर्श	-10.927
▁बिध	-10.927
ोपलब्धि	-10.927
▁पब्बजित्वा	-10.9272
ाकिनी	-10.9272
▁मनोरथ	-10.9274
व्यग्र	-10.9275
तरु	-10.9282
ापय	-10.9283
वैलक्षण्य	-10.9284
नाम्ना	-10.9284
▁अनुञ्ञा	-10.9286
▁पित्रा	-10.9288
▁सार्थवाह	-10.9289
▁त्रिभिर्	-10.9289
▁सेसा	-10.9289
▁वषट्	-10.9291
▁कत्तु	-10.9292
▁विवेश	-10.9294
▁ज्ञातु	-10.9294
▁भविता	-10.9295
ानुभाव	-10.9295
▁बोति	-10.9295
▁निवर्तते	-10.9295
मित्येव	-10.9295
▁सहज	-10.9296
▁तरु	-10.9297
▁वैश्वदेव	-10.9298
▁सङ्ख्या	-10.93
धिगत	-10.93
▁उदाहरण	-10.9304
▁राजानो	-10.9305
▁क्षिप्र	-10.9306
पितृ	-10.9307
▁स्त्रियः	-10.9307
▁गुरुर्	-10.9309
लुब्ध	-10.931
ायोगात्	-10.9311
ार्जित	-10.9313
वशाद्	-10.9314
निर्माण	-10.9315
▁सक्कोति	-10.9317
▁जिव्हा	-10.9317
▁आगमन	-10.9317
षभ	-10.9318
▁लव	-10.9318
▁णना	-10.9318
▁श्रव	-10.9319
▁भासितं	-10.9319
▁पेय्य	-10.9322
▁समुत्पन्न	-10.9322
वितर्क	-10.9323
वलय	-10.9324
ाक्त	-10.9324
▁धर्मेषु	-10.9326
▁तत्सम	-10.9327
ायास	-10.9327
धीत	-10.9328
देवत	-10.9328
▁सन्ध	-10.9328
▁दिवं	-10.9328
▁तृप्ति	-10.9328
पूरण	-10.9334
ेषूप	-10.9335
▁समयो	-10.9336
▁महेश	-10.9336
▁किन्नर	-10.9337
▁सिरि	-10.9338
▁ग्राहक	-10.9339
▁स्यु	-10.9339
विरोधात्	-10.9339
▁उपादिन्	-10.9343
▁आशय	-10.9345
▁ञाति	-10.9346
▁वरानने	-10.9346
▁त्वम	-10.9347
▁हरेर्	-10.9348
▁समासाद्य	-10.9348
▁शस्त	-10.9352
▁प्रयोगः	-10.9353
ासित	-10.9353
ेन्द्रियाणि	-10.9353
▁प्रव्रज	-10.9354
▁आयस्मन्त	-10.9355
ाधिष्ठित	-10.9355
ाज्ञया	-10.9356
▁विवक्ष	-10.9357
▁शंकर	-10.9357
▁चोदना	-10.9358
ादीसु	-10.9358
▁गन्तव्य	-10.9359
च्छत्र	-10.9362
▁मनोविज्ञान	-10.9362
यौवन	-10.9363
ाभवत्	-10.9364
▁दुब्बल	-10.9365
िष्ये	-10.9367
▁सुञ्ञ	-10.9368
निराकरण	-10.9371
वपुष	-10.9371
▁सहकारि	-10.9373
ितव्यः	-10.9373
▁चक्षुर्विज्ञान	-10.9377
विच्छिन्न	-10.9377
▁अभूत	-10.9378
▁अमच्च	-10.9378
▁अण्ड	-10.9379
▁प्रतिभा	-10.9383
▁सट्ठि	-10.9383
समस्त	-10.9384
▁धृतराष्ट्र	-10.9385
▁सौख्य	-10.9389
कीर्तित	-10.9391
▁इमम्	-10.9394
▁गोत्त	-10.9394
र्भवेत्	-10.9398
तूर्य	-10.94
▁वृन्द	-10.9401
नक्ति	-10.9401
▁गन्धपुष्प	-10.9405
पुनर	-10.9407
▁भावाभाव	-10.9409
▁यशः	-10.941
पृ	-10.9411
▁दोषो	-10.9412
नुवाक	-10.9412
▁व्यवस्था	-10.9412
▁तेल	-10.9413
▁गृध्र	-10.9414
▁भविष्यतीति	-10.9416
▁अमत	-10.9417
▁वशी	-10.9422
▁जीवन	-10.9424
▁अनन्तरं	-10.9424
▁धर्मधातु	-10.9425
▁घटादि	-10.9426
▁भिज्ज	-10.9426
तृण	-10.9427
▁सिप्प	-10.9428
▁समुच्चय	-10.9429
▁कुङ्कुम	-10.9431
ान्नि	-10.9432
पञ्जर	-10.9434
▁मग्गेन	-10.9435
▁पुरोडाश	-10.9437
▁रू	-10.9437
ासङ्ग	-10.9437
▁बानि	-10.944
ाग्नौ	-10.9441
▁शुभ्र	-10.9441
संप्रयुक्त	-10.9443
▁महात्मा	-10.9445
▁निस्सर	-10.9446
ोपयोग	-10.9452
▁पुरोहित	-10.9457
▁पृथग्जन	-10.9457
मनन्त	-10.9457
ाब्रवीत्	-10.9458
ुट्	-10.9459
▁अरण	-10.9463
ांस	-10.9463
▁अत्रैव	-10.9464
▁तृप्त	-10.9464
▁त्वेव	-10.9466
दूत	-10.9469
▁यावता	-10.947
पर्यवसान	-10.9471
▁कापि	-10.9473
▁सद्दस्स	-10.9473
संकोच	-10.9473
▁यतीति	-10.9475
▁पवमान	-10.9475
▁मेद	-10.9475
भिनय	-10.9476
नेमि	-10.9476
▁कण	-10.9476
▁पानं	-10.9478
▁ब्राह्मणस्य	-10.9478
यसि	-10.9479
तीह	-10.948
सामग्री	-10.9481
▁कक्ष	-10.9483
▁द्रष्टुं	-10.9486
▁पतिट्ठा	-10.9487
▁श्रुतेः	-10.9488
▁शरैः	-10.9488
▁जननी	-10.9488
▁दत्तो	-10.9489
ूक्त	-10.9491
▁मातरं	-10.9491
सृष्टि	-10.9492
▁स्तो	-10.9493
▁पंसु	-10.9493
▁होन्तीति	-10.9495
▁तिपा	-10.9496
▁कर्मणः	-10.9498
ादेक	-10.95
▁प्राच्य	-10.9501
▁सये	-10.9505
▁क्षणात्	-10.9506
प्रोक्त	-10.9507
दानेन	-10.9509
▁पुरिसा	-10.9509
▁दधाति	-10.951
निर्घोष	-10.9511
मध	-10.9511
▁निर्विकल्प	-10.9511
लिप्य	-10.9513
षष्टि	-10.9513
मणिरत्न	-10.9514
च्छिद्य	-10.9518
ह्य्	-10.9519
▁हता	-10.9519
ाभावाद्	-10.952
▁स्वादु	-10.9521
मुत्पद्यते	-10.9523
ाम्यहम्	-10.9523
गामिनी	-10.9525
▁छेदो	-10.9525
योजित	-10.9526
▁बुद्धिः	-10.9527
निज	-10.9529
मनस्कार	-10.953
ाध्ययन	-10.953
स्थितिः	-10.9531
▁अत्थाय	-10.9532
हिंस	-10.9533
▁उद्देस	-10.9534
▁कथयन्ति	-10.9534
▁विचार्य	-10.9534
▁वीक्ष	-10.9536
▁परिहरति	-10.9537
लीक	-10.954
▁तान्य्	-10.954
िष्यसि	-10.9541
▁एषाम्	-10.9546
▁नभस	-10.9546
जिह्वा	-10.9547
▁लिंग	-10.955
▁कश्यप	-10.9551
▁तदर्ध	-10.9552
▁चिह्न	-10.9552
भगव	-10.9552
▁निपज्ज	-10.9553
▁एतम्	-10.9553
▁अवस्थित	-10.9553
▁वायुः	-10.9555
खि	-10.9555
▁ऽङ्ग	-10.9556
विशत्	-10.9557
▁सत्थारं	-10.9557
▁धार्मिक	-10.9559
▁मूर्ख	-10.9559
▁पस्सद्	-10.9561
कौशल्य	-10.9561
हेत्व	-10.9562
शाखा	-10.9563
हन्ता	-10.9565
▁कोल	-10.9567
▁प्राप्स्य	-10.957
▁वुड्ड	-10.957
▁ओभास	-10.9576
▁ललाट	-10.9577
तर्पण	-10.9578
▁रक्खि	-10.9579
▁जगतः	-10.9579
▁मनःसंस्पर्श	-10.958
▁जयति	-10.958
▁उमा	-10.9583
▁भर्तृ	-10.9585
▁समनन्तर	-10.9585
गेह	-10.9589
प्रणिधान	-10.959
र्घ्य	-10.959
▁ऽभाव	-10.9591
पश्यन्	-10.9594
राज्ञ	-10.9595
▁हिंसा	-10.9596
▁अनियत	-10.9599
▁संमुख	-10.96
▁किलेसा	-10.96
यात्रा	-10.96
व्याख्या	-10.9602
निलय	-10.9604
न्तःपुर	-10.9605
धारिणी	-10.9606
▁कलाप	-10.9608
दृशी	-10.9609
▁नाप्य	-10.9613
▁पत्न्य	-10.9613
माणः	-10.9613
च्छन्न	-10.9614
▁रजनी	-10.9617
ण्ट	-10.9617
पुंगव	-10.9619
▁सार्व	-10.9621
▁प्रकृत्य	-10.9622
▁लभे	-10.9624
▁प्राप्तो	-10.9627
▁सम्यक्प्रहाण	-10.963
▁बुज्झ	-10.963
मुण्ड	-10.9632
विच्छेद	-10.9633
▁कोट्ठा	-10.9633
ावस्थ	-10.9636
▁स्तव	-10.9636
▁आगच्छति	-10.9638
राह	-10.9638
तन्मात्र	-10.9638
▁असीति	-10.964
कृत्व	-10.9641
लेश	-10.9642
▁कार्यकारणभाव	-10.9643
विद्याया	-10.9645
▁बोज्झ्	-10.9648
▁नानाविध	-10.9649
योज्य	-10.9649
▁मदीय	-10.9649
ोत्थित	-10.9651
सदा	-10.9651
▁परमात्मा	-10.9652
चारु	-10.9652
▁उपज्झा	-10.9656
हेम	-10.9657
▁कञ्चि	-10.9658
कच	-10.9658
▁ओषधी	-10.9659
▁जग्राह	-10.966
▁तमत्	-10.9663
▁पूति	-10.9663
णुक	-10.9664
▁इत्थन्	-10.9667
ादुप	-10.9669
▁अनुकम्प	-10.9675
वेश्य	-10.9676
मण्डप	-10.9677
सर्व्वाकारज्ञता	-10.9677
▁निपि	-10.9679
समाधान	-10.968
▁यायेन	-10.968
▁तुर्य	-10.9681
▁मोहो	-10.9681
▁कृप	-10.9681
▁दन	-10.9686
▁गच्छेत्	-10.9689
विविध	-10.9693
▁चक्खुन्	-10.9695
▁विभज्य	-10.9696
▁वक्तु	-10.9697
▁विचारणा	-10.9698
ैस्तथा	-10.9698
▁उज्ज	-10.9699
तीर्ण	-10.9703
▁शुश्रूष	-10.9705
▁सिता	-10.9706
ुदाहरण	-10.9707
▁सुत्तन्	-10.9707
▁हीदं	-10.9714
प्रतिज्ञ	-10.9716
मुष्य	-10.9716
तिष्ठन्त	-10.9716
▁मतिः	-10.9716
संबोध	-10.9717
▁प्राचीन	-10.9721
▁चापर	-10.9724
▁नीत्वा	-10.9724
▁प्रशम	-10.9725
▁साधू	-10.9726
▁शालि	-10.9728
▁परिपूरय	-10.9728
निदान	-10.973
ातप	-10.9731
मद्य	-10.9731
जिज्ञास	-10.9731
▁विसर्ग	-10.9732
▁चतुरस्र	-10.9733
▁सावका	-10.9734
श्चेत्	-10.9734
जगत्	-10.9734
▁चिन्तेत्वा	-10.9735
▁प्रदा	-10.9735
▁धर्मिण	-10.9735
▁रोचन	-10.9736
▁वेदितव्य	-10.9737
▁श्रिया	-10.9741
ितौ	-10.9741
लुप्त	-10.9743
▁वियोग	-10.9744
▁नैमित्तिक	-10.9745
बलात्	-10.9746
शमन	-10.9746
▁स्पृष्ट	-10.9749
▁संवास	-10.9749
▁चैत्य	-10.9751
▁ठो	-10.9752
▁अध्व	-10.9752
विद्यया	-10.9754
▁अकुशल	-10.9755
▁तिमिर	-10.9756
गर्त	-10.9757
▁मुदु	-10.9758
▁अभाषत	-10.9759
निष	-10.976
▁कित्त	-10.976
▁आवरण	-10.976
र्क्ष	-10.9761
▁उच्चा	-10.9765
▁सिद्धिर्	-10.9767
षोडश	-10.977
प्पच्	-10.9774
मनोहर	-10.9775
▁पुम	-10.9775
▁मन्य	-10.9776
▁रासि	-10.9778
पतेः	-10.9778
ैकत्व	-10.978
द्व्य	-10.978
▁वीर्यवान्	-10.9781
▁णस्स	-10.9783
वरण	-10.9783
▁आरम्मण	-10.9785
रेखा	-10.979
▁ऽन्त	-10.979
सेना	-10.9796
बध्य	-10.9796
वृण	-10.9798
▁तत्फल	-10.9798
कषाय	-10.9798
र्यथा	-10.9799
▁मन्त्रिण	-10.9799
कुर्वत	-10.9802
समाहित	-10.9802
संविद	-10.9802
▁मातङ्ग	-10.9806
▁वर्च	-10.9808
ेणापि	-10.9809
▁भिक्षो	-10.9809
▁केचिद	-10.981
▁उपग	-10.9811
च्छक्ति	-10.9812
ानुवाद	-10.9815
▁यत्नेन	-10.9816
▁वेदितव्यः	-10.9816
निर्मुक्त	-10.9817
▁चतुर्भुज	-10.9817
▁सत्वा	-10.9817
ापराध	-10.9818
दूर्ध्व	-10.9818
▁चङ्कम	-10.982
▁मयो	-10.9821
▁अक्षय	-10.9822
हेतोः	-10.9822
ोल्लास	-10.9823
▁आचर	-10.9824
▁अभ्र	-10.9826
▁परिहार	-10.983
▁वेगेन	-10.9831
▁उग्गह	-10.9831
▁सण्ठ	-10.9833
ार्च	-10.9835
▁विश्वरूप	-10.9836
▁स्नापय	-10.9837
▁सर्व्व	-10.9838
▁पुरस्ताद्	-10.9838
▁रजस	-10.984
▁नुप्पज्ज	-10.9841
युत्त	-10.9842
योगाद्	-10.9842
जगाम	-10.9843
त्येक	-10.9846
▁चम्म	-10.9848
▁प्रतीयमान	-10.9848
ुच्यत	-10.9851
ाराम	-10.9853
▁ककु	-10.9855
▁अश्विना	-10.9855
▁अनङ्ग	-10.9855
स्तन्	-10.9856
▁अनुत्तरां	-10.9856
▁ऽआ	-10.9859
स्माभिर्	-10.9861
▁दिन्नं	-10.9864
▁सम्पत्ति	-10.9864
ानना	-10.9864
▁धर्मपर्याय	-10.9868
▁धृत्वा	-10.9868
र्थवाद	-10.9869
रजत	-10.9871
▁उभे	-10.9872
▁वामन	-10.9875
▁युग्म	-10.9876
▁भगवानाह	-10.9876
▁णतो	-10.9879
लिंग	-10.9881
▁आहंसु	-10.9881
गलित	-10.9882
▁दासी	-10.9884
▁खेत्त	-10.9884
▁अप्रति	-10.9885
▁द्वैत	-10.9887
योगि	-10.9888
नवद्य	-10.9888
▁उजु	-10.989
▁श्लेष	-10.989
▁रूपक्	-10.9895
तृष्णा	-10.9896
▁रूपादि	-10.9897
▁विपरि	-10.9898
▁एवरूपं	-10.9902
▁शुध्य	-10.9902
पती	-10.9903
क्षार	-10.9905
वेक्ष	-10.9909
▁अनुसय	-10.9913
▁सपत्न	-10.9913
विमल	-10.9915
चतुर	-10.9915
ानुज	-10.9918
दोह	-10.9918
परायणः	-10.9918
▁पण्डिता	-10.9919
स्थले	-10.9919
नुलेपन	-10.9921
▁ववत्थ	-10.9921
वैर	-10.9922
▁गहणेन	-10.9924
▁रुद्ध	-10.9925
▁विमुक्ति	-10.9927
▁धर्मात्मा	-10.993
शयन	-10.9932
▁सतं	-10.9933
▁यथेष्ट	-10.9935
▁विश्रान्त	-10.9935
▁अधः	-10.9936
▁कम्मस्स	-10.9937
▁आदीसु	-10.9939
तस्त्व	-10.9941
▁स्त्रिया	-10.9941
▁समणो	-10.9942
ाभावेन	-10.9943
▁पञ्चमे	-10.9944
भ्यस्त	-10.9945
▁सम्पत्त	-10.9946
शत्रु	-10.9949
▁शारद्वतीपुत्र	-10.9949
संप्र	-10.9951
▁कौतुक	-10.9951
मित्युच्यते	-10.9952
पारमित	-10.9952
▁देन	-10.9953
आदी	-10.9954
ाधिगम	-10.9958
▁बाज	-10.9959
बहि	-10.996
▁अमुक	-10.9962
▁वोकार	-10.9963
हेतोर	-10.9963
▁स्वागत	-10.9965
▁कल्पयेत्	-10.9965
शब्दवाच्य	-10.9966
▁अकत	-10.9967
ापेत्वा	-10.9969
परिगृहीत	-10.997
▁ब्यञ्जन	-10.9971
▁आवाहयामि	-10.9971
▁वयो	-10.9972
स्पृश्य	-10.9974
सर्पि	-10.9974
ामोद	-10.9975
▁पोक्ख	-10.9977
▁कठिन	-10.9978
ोपपत्तेः	-10.9979
▁याम्य	-10.9982
▁मनुः	-10.9983
▁जानामि	-10.9985
मापन्न	-10.9987
▁भगवति	-10.9988
▁चित्तस्य	-10.9989
▁ञायत	-10.999
▁पनिस्	-10.9992
संख्यया	-10.9993
शुक	-10.9993
धारय	-10.9995
नुसन्धान	-10.9995
नुष्ठान	-10.9999
▁निपुण	-11
ुच्यन्ते	-11.0001
▁रक्षित	-11.0001
विरहित	-11.0002
▁सृ	-11.0003
▁भ्र	-11.0003
▁हरिर्	-11.0003
▁दहन	-11.0004
चोदित	-11.0004
प्रलय	-11.0004
▁उत्तिष्ठ	-11.0007
▁इत्युक्तम्	-11.0008
रीर	-11.0009
▁व्यति	-11.0011
नैरात्म्य	-11.0011
ानपेक्ष	-11.0012
▁व्यतिरिक्त	-11.0013
पृथक्	-11.0014
▁हरति	-11.0014
▁सर्वेषाम	-11.0016
▁समुदय	-11.0017
चतुर्थ	-11.0018
▁अनुग्रह	-11.0018
▁मुनीन्द्र	-11.0022
▁सतां	-11.0023
▁चारी	-11.0024
जिह्व	-11.0026
▁मिल	-11.0028
▁पञ्चमी	-11.0033
च्छत	-11.0034
ेथा	-11.0036
नागत	-11.0037
▁पारद	-11.0037
▁यात्रा	-11.0038
▁असङ्ख	-11.0038
▁कच्चि	-11.0039
▁अस्याः	-11.0039
विनाभाव	-11.004
निमित्ताप्रणिहित	-11.0042
▁निरीक्ष	-11.0044
न्नित्य	-11.0051
▁भाव्य	-11.0052
▁पमाणं	-11.0053
ुकामेन	-11.0055
▁वितक्को	-11.0058
र्ष्या	-11.006
▁आयस्मतो	-11.0062
▁मोग्गल्	-11.0062
ार्ता	-11.0067
पाच	-11.0069
▁सैन्धव	-11.007
▁महाभूत	-11.007
ेकैक	-11.0071
▁कैलास	-11.0073
ंगुल	-11.0073
▁कारेन	-11.0074
स्थितो	-11.0074
ाधिक्य	-11.0074
▁हृद्य	-11.0075
▁पाणिना	-11.0075
▁सिद्ध्य	-11.0075
तारतम्य	-11.0077
▁परिसुद्	-11.0077
▁मण्डले	-11.0077
▁फण	-11.0078
▁पासाण	-11.0079
मासाद्य	-11.008
▁राय	-11.0082
▁दीपेति	-11.0084
▁आनन्दो	-11.0084
▁बुध्य	-11.0089
भिक्ष	-11.009
▁तरङ्ग	-11.0091
▁तत्काल	-11.0091
▁मन्व	-11.0092
श्रोत्र	-11.0092
▁भवत्	-11.0093
शिरस	-11.0093
स्थिताः	-11.0095
न्य्स्	-11.0095
न्तर्हित	-11.0097
निःसृत	-11.0097
ज्जीव	-11.0098
▁सारथि	-11.0099
स्त्राणि	-11.01
▁वन्दन	-11.0101
▁आसनं	-11.0101
▁हाति	-11.0103
▁कर्त्तव्य	-11.0104
▁महिमा	-11.0105
ावगत	-11.0106
▁परिवृत	-11.0111
ासां	-11.0113
विष्ठ	-11.0114
पवन	-11.0114
▁लङ्घ	-11.0115
वारण	-11.0116
▁अनञ्ञ	-11.0118
▁श्रोतु	-11.0119
▁मलिन	-11.0119
त्रिंशत्	-11.0123
व्यवस्थान	-11.0128
कर्णिक	-11.0129
योध	-11.0129
ावबोध	-11.0129
वर्तित	-11.013
र्तु	-11.013
जीर्ण	-11.0131
मिथ्या	-11.0133
▁पञ्चहि	-11.0134
सन्तान	-11.0134
▁भिक्षव	-11.0138
▁अयमेव	-11.0139
▁प्रोक्तः	-11.0145
कारणत्व	-11.0146
ानुभूत	-11.0148
▁शिल्प	-11.015
▁नक्त	-11.015
▁इन्	-11.0151
▁पुरतः	-11.0152
▁अत्तन्	-11.0153
▁विभाव्य	-11.0154
▁सङ्गण्	-11.0157
धीयते	-11.0157
▁आयत	-11.0158
विश्य	-11.0158
▁प्रमातृ	-11.0158
▁पूरित	-11.0158
सम्पद	-11.0168
▁संयुत	-11.017
▁निरूप	-11.017
▁तथोक्त	-11.0171
▁अन्यस्य	-11.0172
▁तथाप्य	-11.0172
पत्त्या	-11.0173
▁पटल	-11.0174
▁गामे	-11.0175
ाधेय	-11.0175
▁उभतो	-11.0176
भाषण	-11.0177
▁गौर्	-11.0178
ायुष्म	-11.0178
▁अभिप्रायः	-11.0179
▁अस्सास	-11.0179
▁सुञ्ञत	-11.0182
▁सेवन	-11.0182
पशु	-11.0186
▁स्थण्डिल	-11.0187
▁वध्य	-11.0187
▁बुधैः	-11.0188
▁सम्यक्संबोधिम्	-11.0191
निवासिन	-11.0191
स्वीकार	-11.0191
▁क्षिप्त्वा	-11.0192
▁वेण	-11.0196
▁बक	-11.0197
▁रयि	-11.0197
▁उतु	-11.0201
▁पञ्चधा	-11.0201
▁स्मरन्	-11.0201
मन्यत	-11.0202
वतिष्ठते	-11.0202
दनु	-11.0203
▁यागु	-11.0205
▁दुर्बल	-11.0207
ब्य्	-11.0207
▁सम्मुति	-11.0208
▁रता	-11.021
▁महद	-11.021
▁पक्खे	-11.0211
▁भाण्ड	-11.0211
▁चतुष्टय	-11.0215
▁कुक्कुट	-11.0215
▁न्यायेन	-11.0217
व्यतिरेकेण	-11.0219
▁निवेदय	-11.0221
▁पूर्वापर	-11.0222
हृष्ट	-11.0224
▁शम्भु	-11.0225
▁दृष्टो	-11.0225
वर्तन्ते	-11.0226
▁अनया	-11.0227
दायिनी	-11.0228
▁अलङ्क	-11.0228
▁व्यूह	-11.0229
भाव्य	-11.0229
देशना	-11.0229
▁अमात्य	-11.0232
निहित	-11.0233
ावकाश	-11.0234
▁सुसं	-11.0234
▁हिमव	-11.0235
▁ताम्बूल	-11.0237
▁राशि	-11.0238
संयुक्ता	-11.0239
▁शिश	-11.0239
▁अदृश्य	-11.0242
▁तादात्म्य	-11.0243
ापत्तेः	-11.0244
▁इत्यस्य	-11.0247
तमा	-11.0248
पादक	-11.0248
जनकत्व	-11.0251
▁समन्ता	-11.0251
▁पै	-11.0252
धेर्	-11.0256
▁इस्सज्	-11.0257
िष्यामीति	-11.0257
हन्य	-11.0258
प्सु	-11.0259
▁वस्तुनि	-11.0262
▁म्रियते	-11.0263
▁प्रवाह	-11.0263
नुमेय	-11.0265
▁यस्माद	-11.0268
पठ	-11.0269
▁वुत्तप्	-11.0269
▁तूष्णीं	-11.0269
▁पटलः	-11.027
तारक	-11.0271
▁धुत	-11.0275
र्भ	-11.0276
▁अघोर	-11.0277
कृत्रिम	-11.0277
शिखा	-11.0279
त्यर्थं	-11.0279
▁पादक	-11.0281
▁येभुय्	-11.0281
कुर्व	-11.0286
स्फार	-11.0286
▁घोस	-11.0286
▁सुरभि	-11.0287
▁युञ्ज	-11.0288
▁धूम्र	-11.0288
▁नुस्स	-11.0291
कान्ति	-11.0291
नारायण	-11.0293
▁प्रतिबन्ध	-11.0293
ङ्कुश	-11.0294
▁इन्द्राय	-11.0295
महेश्वर	-11.0296
ीभव	-11.0297
▁होत्र	-11.0298
▁समोधा	-11.0299
▁ओलोक	-11.03
वैराग्य	-11.0302
▁वट्टतीति	-11.0302
▁सकृद्	-11.0302
▁यन्न	-11.0303
▁पचेत्	-11.0304
▁द्वयोः	-11.0307
त्याज्य	-11.0307
▁ग्रस	-11.0309
▁गावो	-11.031
▁सनेन	-11.0311
कुष्ठ	-11.0312
ात्मानम	-11.0312
▁तथान्य	-11.0313
वासिनी	-11.0313
मात्सर्य	-11.0313
▁जनस्स	-11.0314
▁लभि	-11.0315
▁धनंजय	-11.0315
ाङ्गानि	-11.0316
▁अञ्जलि	-11.0318
▁निच्छ	-11.0319
गच्छन्	-11.0319
बान्धव	-11.0323
डित	-11.0323
हमिति	-11.0325
▁पकरण	-11.0326
▁वणिज	-11.0326
स्वन	-11.0326
▁त्रिर्	-11.0326
स्पष्ट	-11.0326
▁अस्मै	-11.0327
▁नामाति	-11.0328
▁पिपास	-11.0331
▁केनचित्	-11.0331
▁सञ्जात	-11.0331
समायुक्त	-11.0332
▁गेन	-11.0333
प्रस्ताव	-11.0336
▁स्वरूपेण	-11.0336
▁अशोक	-11.0338
निवारण	-11.0338
लिन्द	-11.0338
ह्र	-11.0341
▁उपपद्यते	-11.0342
▁प्रताप	-11.0343
दर्प	-11.0344
▁मनोरम	-11.0344
▁काश	-11.0344
▁कुञ्जर	-11.0344
▁स्थापयित्वा	-11.0348
नुशय	-11.0355
मस्तक	-11.0357
लिख	-11.0358
हय	-11.0359
▁ऽन्न	-11.0359
▁कातब्बं	-11.036
▁सञ्ञाय	-11.036
ाधिपः	-11.0361
▁सद्भाव	-11.0361
▁परस्स	-11.0363
▁अग्नये	-11.0363
▁घर्म	-11.0366
▁पापुणा	-11.0366
समप्रभ	-11.0367
चारण	-11.0368
ैकान्त	-11.037
▁भविष्यसि	-11.0371
विरोधि	-11.0371
▁मृत्युर्	-11.0372
ेभ्यश्	-11.0372
शर्म	-11.0372
वृत्त्य	-11.0372
▁विजह	-11.0375
▁सम्पद	-11.0375
▁पतति	-11.0377
▁एकमन्तं	-11.0378
▁पीन	-11.0379
▁कामान्	-11.0383
▁प्रह्लाद	-11.0387
▁बौद्ध	-11.0387
विस्तृत	-11.0388
▁गरह	-11.0392
व्रण	-11.0396
▁उण्ह	-11.0396
▁स्फुटम्	-11.0397
▁एतेसं	-11.0397
▁निग्रह	-11.0401
ध्ययन	-11.0401
दुत्तर	-11.0402
करणीय	-11.0403
▁प्रतिसं	-11.0404
बेर	-11.0407
▁अट्ठासि	-11.0407
▁नाशय	-11.0408
ात्मभाव	-11.0409
▁अविज्ज	-11.0409
▁चाल	-11.041
दारु	-11.0411
▁उक्थ	-11.0414
▁मित	-11.0415
▁व्यपदेश	-11.0415
सद्द	-11.0418
नुपश्य	-11.0418
▁प्रकाशते	-11.0419
▁पदेन	-11.042
▁आहरित्वा	-11.0421
केसर	-11.0422
ीकरोति	-11.0424
▁कथयामि	-11.0427
ान्तर्गत	-11.0428
मार्ज	-11.0428
मुत्तम	-11.0429
▁शक्तय	-11.0432
मैत्र	-11.0432
▁निग्गह	-11.0432
▁मुनिसत्तम	-11.0433
गृ	-11.0434
▁वृषा	-11.0435
बुद्धक्षेत्र	-11.0437
▁लोकधातौ	-11.0437
शर्कर	-11.0437
धाम	-11.0437
▁वाञ्छ	-11.0438
पुण्ड्र	-11.0441
▁वेॠउ	-11.0441
▁अग्नौ	-11.0443
▁शक्रो	-11.0444
दृत	-11.0445
▁विज्ञेया	-11.0447
▁सब्बस	-11.0447
हेतव	-11.0449
ावगम	-11.0451
षीणां	-11.0455
▁चित्तानि	-11.0458
▁सहस्सा	-11.0458
▁आयुः	-11.046
▁संबन्धः	-11.0461
▁स्थापयेत्	-11.0462
▁अत्राह	-11.0463
▁अदिन्न	-11.0463
मुना	-11.0463
▁अनुपुब्	-11.0464
▁आधि	-11.047
पश्चिम	-11.047
ेदानीं	-11.0471
▁आकासे	-11.0472
▁गेहं	-11.0473
▁निर्माण	-11.0474
▁त्रिभिः	-11.0479
▁सहिता	-11.0479
▁प्रहृष्ट	-11.048
▁अजान	-11.048
▁भृशं	-11.0481
▁धत्ते	-11.0487
▁कुब्ज	-11.0491
धृक्	-11.0492
कुच	-11.0498
▁वन्दे	-11.0499
▁भौम	-11.05
ाकारेण	-11.0502
वाण	-11.0502
▁खेद	-11.0504
देवताः	-11.0505
निर्दिष्ट	-11.0506
▁इच्छन्	-11.0506
रूप्यसमापत्त	-11.0508
▁पदेसु	-11.0509
▁श्रुत्व	-11.0511
▁रेखा	-11.0513
स्सर्व	-11.0514
वियोग	-11.0515
▁अवश्य	-11.0515
▁पोराण	-11.0516
शंक	-11.0516
धनु	-11.0516
▁पविट्ठ	-11.0517
समुत्थ	-11.0518
▁निक्खि	-11.0518
▁तोष	-11.0519
▁मेष	-11.0519
मन्थ	-11.0519
मारुत	-11.0521
▁कामरूप	-11.0523
रूपाणि	-11.0523
▁तस्मिन्न	-11.0525
▁रमा	-11.0525
ाह्व	-11.0526
▁मानवः	-11.0527
▁माति	-11.0528
▁व्याहृत	-11.0528
▁अतीव	-11.053
▁स्रव	-11.053
▁भवती	-11.0531
▁पुनश्च	-11.0531
▁पुंसां	-11.0532
ज्ञापन	-11.0534
▁नत्थं	-11.0534
लीय	-11.0537
क्षिपति	-11.054
▁असत्य	-11.0541
विषयक	-11.0541
ाभिनिवेश	-11.0542
▁भोति	-11.0546
▁सम्मस	-11.0549
▁त्रयाणां	-11.055
कल्याण	-11.0552
▁अङ्गार	-11.0558
▁बिल	-11.0559
▁प्रकृतिर्	-11.0559
▁गुरुणा	-11.056
पेक्ख	-11.056
▁श्रोत्रसंस्पर्श	-11.056
▁पालय	-11.056
▁काचि	-11.0563
▁सेतु	-11.0563
ाश्रयत्व	-11.0568
मुदाहृतम्	-11.057
▁वत्तुं	-11.0571
सम्पत्	-11.0573
▁करित्वा	-11.0574
▁विस्मित	-11.0575
▁कण्ह	-11.0576
विदां	-11.0576
पेक्षते	-11.0577
वेदित	-11.0577
त्वेनैव	-11.0579
▁मिस्स	-11.0579
▁अर्वा	-11.058
ापेक्षा	-11.0584
ोदन	-11.0585
▁हारिय	-11.0586
▁येवाति	-11.0589
लप्स्य	-11.059
धीयत	-11.0591
ल्लक्षण	-11.0591
वर्चस	-11.0592
मानाः	-11.0595
वस्थान	-11.0595
ासीद्	-11.0596
मध्यग	-11.0596
▁निहित	-11.0597
▁आबाध	-11.0598
विह	-11.0599
▁अभावे	-11.0604
▁वुत्तञ्	-11.0605
▁भ्राता	-11.0606
राड्	-11.0606
▁नमस्कार	-11.0607
▁ओर	-11.0607
▁फर	-11.0608
मनसा	-11.061
▁व्यवसाय	-11.0611
▁चक्षु	-11.0612
▁संतत	-11.0613
▁अभिन्न	-11.0613
▁भिय्यो	-11.0614
▁तीर्थे	-11.0614
▁जगन्नाथ	-11.0615
हस	-11.0615
यष्टि	-11.062
▁ऽग्र	-11.0623
▁मेथुन	-11.0624
▁भिद्यते	-11.0625
▁महेश्वरः	-11.0625
▁कृमि	-11.0626
▁भवन्तो	-11.0628
▁ब्या	-11.0628
▁अर्घ्य	-11.0628
प्रकाशन	-11.0629
▁कृपण	-11.063
▁मोघ	-11.0631
र्यमाण	-11.0631
▁अरहन्	-11.0632
पहृत	-11.0634
▁प्रपूजयेत्	-11.0637
▁वृण	-11.064
शोणित	-11.064
▁प्राची	-11.064
क्षान्ति	-11.064
▁विद्यात्	-11.0641
सुवर्ण	-11.0642
संभूत	-11.0644
▁भुत्त	-11.0649
▁एवास्य	-11.0649
व्यसन	-11.065
▁हेय	-11.0655
▁गरुक	-11.0655
▁असुभ	-11.0656
▁ओघ	-11.0656
▁बौध्	-11.0657
▁पेतं	-11.0662
▁कौन्तेय	-11.0668
शून्यतायां	-11.0669
▁यमुना	-11.0669
वासस	-11.067
▁वर्म	-11.067
भिव्यक्त	-11.0673
▁शारद	-11.0673
न्वेष	-11.0674
▁दाम	-11.0676
▁स्मरेत्	-11.0676
ोऽसौ	-11.0678
▁सामानाधिकरण्य	-11.0678
▁सहस्सानि	-11.068
▁आर्यसत्य	-11.0685
गूढ	-11.0685
शक्य	-11.0686
▁मुत्तो	-11.0688
ाकृतिः	-11.0688
▁प्रक्षाल्य	-11.069
▁प्रणिपत्य	-11.069
▁भुञ्जन्	-11.0691
ाचरेत्	-11.0692
▁प्रवर्तय	-11.0693
रचना	-11.0697
▁भेषज	-11.0697
मातर	-11.0698
गामि	-11.0698
सारण	-11.0701
रुद्ध	-11.0701
▁बोध्यङ्ग	-11.0701
▁कुक्कुच्	-11.0701
भिमन्त्र्य	-11.0704
▁एकदा	-11.0705
▁मारण	-11.0706
षद्	-11.0708
▁सुच	-11.0709
ानर्थ	-11.071
▁महामुने	-11.0713
ित्याह	-11.0713
▁सङ्ख्य	-11.0713
▁दर्पण	-11.0713
▁पतन	-11.0715
दृढ	-11.0716
सिद्ध्यर्थ	-11.0718
▁सब्बत्	-11.0719
व्यवस्थित	-11.0719
▁दुस्स	-11.0719
▁काङ्क्ष	-11.0719
▁अनास्रव	-11.0722
▁अयम्पि	-11.0724
▁मेत्त	-11.0725
सौमनस्य	-11.0726
स्रोत	-11.0727
▁त्रिविधं	-11.0727
▁धर्मार्थ	-11.073
▁प्रव्रज्या	-11.073
▁कथेन्	-11.0732
▁अनागते	-11.0733
▁रमणीय	-11.0733
ोपल	-11.0735
▁जीर	-11.0735
▁दर्शितम्	-11.0735
हृत्	-11.0736
▁धारयेत्	-11.0737
▁अनाथ	-11.0737
▁परिकीर्तिता	-11.0737
▁लाभो	-11.074
▁कटि	-11.074
▁परत्र	-11.0743
▁पक्षिण	-11.0745
दध्यात्	-11.0746
ुत्थ	-11.0746
विदित	-11.0746
▁विञ्ञत्	-11.0746
▁सामीति	-11.0746
चमत्कार	-11.0748
ल्क	-11.0748
ेष्यति	-11.0749
▁वाणी	-11.075
▁कुटुम्ब	-11.0754
▁अवभास	-11.0756
कल्मष	-11.0757
▁यतनञ्च	-11.0757
ज्ञाप्य	-11.0757
▁कुलपुत्रो	-11.0758
नुमोद	-11.0758
▁गृ	-11.0759
▁एकत्र	-11.076
पराङ्मुख	-11.0761
▁तिरो	-11.0761
ब्य	-11.0764
ायत्त	-11.0764
ीयताम्	-11.0764
▁पश्याम	-11.0769
▁दानेन	-11.0771
ानुराग	-11.0772
▁घ्न	-11.0772
▁प्रकृतिशून्यता	-11.0773
▁कुलदुहिता	-11.0774
▁क्रमाद्	-11.0775
प्रसंग	-11.078
कृच्छ्र	-11.0788
▁निषिद्ध	-11.0788
▁प्रत्यवेक्ष	-11.0788
▁लभित्वा	-11.0788
मुष्टि	-11.0789
▁सचेत्	-11.0789
हेतोर्	-11.079
▁नास्तीत्य	-11.079
▁युक्त्या	-11.0792
▁विश्वस्य	-11.0792
▁पतिता	-11.0792
प्रतिबद्ध	-11.0794
ङ्गुष्ठ	-11.0794
ासन्न	-11.0796
▁क्षु	-11.0798
हूय	-11.0798
▁समुद	-11.0799
▁शङ्कते	-11.0801
▁जिह्वासंस्पर्श	-11.0801
▁हस्तौ	-11.0802
▁तदुक्त	-11.0805
स्वभावता	-11.0806
▁अधर	-11.0807
वच्छेदक	-11.0809
▁कर्तव्यः	-11.0811
▁ग्लान	-11.0813
▁व्यावृत्त	-11.0814
ाङ्गद	-11.0815
श्छ	-11.0816
ोत्पद्यते	-11.0817
▁कारणत्व	-11.0818
▁धाता	-11.0819
▁मार्गेण	-11.0819
क्ष्यते	-11.082
वक्तृ	-11.082
▁प्रमोद	-11.0822
तब्बं	-11.0822
▁तदन्त	-11.0823
▁साक्षिण	-11.0825
▁नाक	-11.0825
ह्नि	-11.0826
पुनर्	-11.0827
▁जगति	-11.0827
पेतु	-11.0831
▁दर्शनीय	-11.0831
ृत्व	-11.0833
धोमुख	-11.0833
ार्पण	-11.0834
ाङ्कित	-11.0834
▁पाव	-11.0836
▁पमाद	-11.0837
▁सास्रव	-11.0839
▁पशून्	-11.0841
▁पङ्कज	-11.0843
ुत्थित	-11.0843
▁अस्थि	-11.0845
▁जुह्व	-11.0846
▁केनापि	-11.0849
▁वुद्धि	-11.085
चरेत्	-11.0852
▁प्रबुद्ध	-11.0854
ूयते	-11.0856
प्रार्थित	-11.0858
▁एवैत	-11.0859
वृन्द	-11.0859
तरङ्ग	-11.0862
▁दिवाकर	-11.0863
▁दुक्कटस्	-11.0863
▁वण्णा	-11.0867
▁असिद्ध	-11.0868
▁ध्यायेत्	-11.0869
▁सन्तति	-11.0871
▁तिण्ण	-11.0874
श्रद्ध	-11.0876
ोरग	-11.0877
▁सयन	-11.0879
ेत्यत	-11.0882
▁लोकधातुषु	-11.0883
▁त्रिंश	-11.0885
वन्द	-11.0885
▁किंचिद	-11.0885
▁दारिका	-11.0886
भोज्य	-11.0886
तेजसा	-11.0887
संबद्ध	-11.0888
िष्यन्	-11.0893
व्यावृत्त	-11.0895
▁तभाव	-11.0895
ैकादश	-11.0895
पतेर्	-11.0897
▁तयोर	-11.0899
बभूव	-11.09
▁कदाचिद	-11.0901
रात्रि	-11.0902
ृच	-11.0902
▁रजः	-11.0903
संपत्	-11.0904
विद्व	-11.0907
▁प्रज्ञायते	-11.0908
▁पयुत्ता	-11.0908
र्वण	-11.0911
शालिन	-11.0911
▁संसट्ठ	-11.0914
सिद्धिर्	-11.0917
▁वर्जयेत्	-11.0917
क्षणिक	-11.0918
▁सप्पि	-11.0918
▁एकदेश	-11.092
▁वक्तव्यः	-11.0921
▁तिलक	-11.0922
▁नेक्खम्	-11.0924
▁तद्भाव	-11.0925
स्त्विति	-11.0927
▁भोज्य	-11.0928
कारणात्	-11.093
▁विरोधः	-11.0931
▁गुणान्	-11.0932
रुद	-11.0933
▁कृष्णस्य	-11.0934
▁तेजस	-11.0936
पङ्कज	-11.0936
▁ओवद	-11.0938
ज्या	-11.0941
▁नन्व्	-11.0943
▁भाषते	-11.0944
समाप्त	-11.0944
▁मार्कण्डेय	-11.0946
▁चुति	-11.0946
▁पञ्हं	-11.0948
रुक्	-11.0948
▁दशसु	-11.0949
ाश्रिता	-11.0949
▁कदली	-11.095
▁सूचय	-11.095
दर्शी	-11.0952
▁सुरेश्वर	-11.0955
▁पयुत्तो	-11.0956
▁विहरन्तो	-11.0957
▁तन्मय	-11.0957
▁मातुल	-11.0957
▁गुल्म	-11.0959
▁अयुक्त	-11.0961
▁एकच्	-11.0966
▁दिट्ठिया	-11.0968
करिष्य	-11.0969
▁शिवाय	-11.0969
▁अमित	-11.0971
▁एत्ता	-11.0973
▁वेताल	-11.0974
प्रसक्त	-11.0976
▁प्रतिसंविद	-11.0976
▁इद्	-11.0977
▁चतुरो	-11.0978
▁पच्चक्	-11.098
▁ओॠआरिक	-11.098
▁विनष्ट	-11.098
▁परेस	-11.0981
पुरःसर	-11.0984
कलित	-11.0985
▁अध्वर	-11.0987
यमाण	-11.0988
वाहिनी	-11.0989
▁विसृज्य	-11.099
भिनिर्वृत्त	-11.0991
चारिण	-11.0992
▁सम्यक्संबोधि	-11.0994
▁दिवः	-11.0996
▁कायसंस्पर्श	-11.0996
▁उपस्थित	-11.0997
▁ह्रा	-11.0997
▁अस्त्य्	-11.0999
▁उपयोग	-11.1
▁खम	-11.1
ाभिलाष	-11.1004
विह्वल	-11.1004
▁संहर	-11.1006
▁संन्यास	-11.1009
न्येषां	-11.101
▁खु	-11.1011
▁स्वधर्म	-11.1013
िह्नितपुस्तकपाठः	-11.1014
▁भरतर्षभ	-11.1014
यन्त्य	-11.1017
▁केसु	-11.1018
वारिणा	-11.1019
मिष्यते	-11.1019
▁आवृत	-11.1019
ोद्धृत	-11.1019
जाप	-11.1022
शल्य	-11.1023
▁पातक	-11.1024
▁भवङ्	-11.1025
▁रेवत	-11.1026
बाधित	-11.1029
▁नामधेय	-11.1032
▁ब्राह्मणान्	-11.1032
▁तपस्विन	-11.1034
▁ग्रीष्म	-11.1036
▁असंख्येय	-11.1037
▁तद्वद	-11.1038
दीक्ष	-11.1038
च्छरीर	-11.1038
▁संचिन्त्य	-11.1039
▁मनुष्याणां	-11.1041
▁आलय	-11.1048
क्रमेणैव	-11.1049
▁प्रोक्षण	-11.105
यमर्थः	-11.1051
मील	-11.1052
▁मतो	-11.1052
ाभावाद	-11.1052
▁कतमत्	-11.1052
▁सुपर्ण	-11.1052
स्तत्त्व	-11.1053
▁काच	-11.1054
न्त्र	-11.1055
▁प्रतियोगि	-11.1059
▁इरिया	-11.106
स्नपन	-11.106
वसित	-11.1063
ानीत	-11.1065
▁वैधर्म्य	-11.1065
▁हृद्	-11.1065
▁शिशिर	-11.1065
▁लभ्य	-11.1068
ादीहि	-11.1069
गि	-11.1071
दायक	-11.1073
▁तत्तद	-11.1073
▁ऽऽ	-11.1075
▁एतौ	-11.1076
त्थीति	-11.1076
▁उप्पन्ना	-11.1076
▁निसीदित्वा	-11.1078
▁वेस्स	-11.1079
▁कथितो	-11.108
▁घ्राणसंस्पर्श	-11.1083
सङ्ग्रह	-11.1084
परिज्ञान	-11.1086
घट्ट	-11.1088
▁अज्झा	-11.1089
▁शर्करा	-11.1091
शकल	-11.1092
▁विपर्यास	-11.1092
▁पन्था	-11.1093
व्यङ्ग्य	-11.1093
निग्रह	-11.1094
्वी	-11.1097
दृश्यते	-11.1097
विषाण	-11.1098
चम्पक	-11.1098
▁विवृत	-11.1101
त्वमपि	-11.1103
▁मन्मथ	-11.1107
▁तस्यै	-11.1111
ह्ल	-11.1111
▁इत्याद्य	-11.1112
वनस्पत	-11.1113
हंकार	-11.1114
▁बोधिचित्त	-11.1116
▁तुला	-11.1116
गुल्म	-11.1119
▁बालप्रिया	-11.112
▁सप्तधा	-11.1122
▁शची	-11.1122
▁सादर	-11.1124
▁वाणिज	-11.1125
▁स्फ	-11.1125
▁जगतो	-11.1126
▁प्रागेव	-11.1128
▁वेदनाक्	-11.113
▁पयसा	-11.1131
▁चुम्ब	-11.1132
▁चत्वारः	-11.1134
▁कोसल	-11.1135
▁गव्य	-11.1136
वन्न	-11.1136
▁सर्वाकार	-11.1136
ोदकेन	-11.1138
▁वेला	-11.1139
भ्राम	-11.1141
प्रमाद	-11.1141
प्रथ	-11.1142
▁पसा	-11.1143
▁व्यप	-11.1143
▁कम्पि	-11.1146
ायैव	-11.1146
ात्मजा	-11.1146
ादिका	-11.1147
▁मुक्त्वा	-11.1147
▁ऽश्व	-11.115
▁प्रकीर्तितः	-11.1151
▁मुर	-11.1152
प्रसर	-11.1152
ोर्ऽथ	-11.1156
ुद्देश	-11.1156
▁चराचर	-11.1157
मिमं	-11.1158
ाधिवास	-11.116
▁भूतले	-11.116
▁केहि	-11.1161
▁प्रजापत	-11.1163
शोधित	-11.1163
परिच्छिन्न	-11.1165
पीत्य	-11.1165
शृण	-11.1167
ात्यय	-11.1168
▁सुलभ	-11.117
वारणाय	-11.117
▁पती	-11.117
▁विसम	-11.1171
▁ज्ञेयः	-11.1171
▁देवेषु	-11.1172
▁विञ्ञेय्	-11.1174
घण्ट	-11.1175
▁कृतार्थ	-11.1176
▁व्ययो	-11.1176
▁घृतेन	-11.1177
▁शुन	-11.1179
कृप	-11.1182
▁माप	-11.1182
▁भाग्य	-11.1182
▁तदङ्ग	-11.1183
ण्ठ	-11.1183
▁लिखित्वा	-11.1183
▁अनेनैव	-11.1184
▁सण्	-11.1186
कार्मुक	-11.1187
▁हेत	-11.1189
▁दर्प	-11.1189
रम्य	-11.1189
ावधारण	-11.119
ाश्रु	-11.1192
▁ताञ्	-11.1195
ोद्भूत	-11.1195
▁फुल्ल	-11.1201
ोन्मुख	-11.1206
▁पज्जि	-11.1206
▁पस्सन्	-11.1208
मौक्तिक	-11.1208
न्नेव	-11.1209
▁राक्षसी	-11.121
▁आदर	-11.1211
▁मस्तक	-11.1212
▁सर्वमन्त्र	-11.1216
▁मैथुन	-11.1218
सामग्र्य	-11.1219
ङ्गीकृत	-11.1219
तथागत	-11.1223
▁आरूप्य	-11.1226
▁पणमा	-11.1227
प्रेत	-11.1227
▁सिङ्ग	-11.1227
नुषङ्ग	-11.1228
बोधन	-11.1228
▁संप्रति	-11.1229
दीनां	-11.1229
▁खन	-11.1229
▁आसने	-11.1229
मनुमान	-11.1229
▁चतस्र	-11.1231
▁श्रीमत्	-11.1231
विवर	-11.1232
त्यत्र	-11.1237
प्रवाह	-11.1238
नुकूल	-11.1239
कलुष	-11.1239
▁कानन	-11.1241
▁भगिनी	-11.1243
▁कुटिल	-11.1243
तुरग	-11.1244
▁विबुध	-11.1245
ेकादश	-11.1245
▁किमु	-11.1246
▁पृष्ठे	-11.1247
▁गिहि	-11.1247
ुपचार	-11.1249
द्वितय	-11.1249
▁प्रागुक्त	-11.125
▁परिसा	-11.125
▁निराकृत	-11.1251
▁शृणुष्व	-11.1252
कलाप	-11.1255
▁हनूम	-11.1256
योगी	-11.1257
दैत्य	-11.1257
▁ञाय	-11.1258
▁सङ्गहो	-11.1259
िष्णु	-11.1259
विश्रान्ति	-11.1259
▁उपलभ्य	-11.1261
कीर्त्य	-11.1261
मर्हति	-11.1262
▁कीट	-11.1262
▁विभुः	-11.1264
▁चेतसो	-11.1264
भ्याम	-11.1265
▁आदितो	-11.1269
▁शृणोति	-11.1269
▁रक्षसा	-11.127
वर्ज्य	-11.127
▁कुच	-11.1271
ालंबन	-11.1271
ाशङ्का	-11.1272
▁कङ्क	-11.1272
▁पाहि	-11.1272
ुपाधि	-11.1274
▁एवंरूप	-11.1275
▁णानि	-11.1277
▁सिन्ध	-11.1277
▁सुरासुर	-11.1277
▁समीर	-11.1277
▁ब्रह्मैव	-11.1279
परिपूर्ण	-11.1284
▁दीयते	-11.1284
▁पन्नग	-11.1285
▁प्रजापतिर्	-11.129
▁देशान्तर	-11.1292
▁जनयति	-11.1292
▁कुंभ	-11.1296
▁द्विप	-11.1297
▁उपधा	-11.1299
युक्	-11.13
हर्	-11.1301
▁ज्योतिः	-11.1302
▁मृत्	-11.1304
▁अकाम	-11.1306
प्रतिघ	-11.1311
▁प्रकीर्तिताः	-11.1312
▁सर्वभूतानां	-11.1313
▁आर्द्र	-11.1314
▁तज्ज्ञान	-11.1314
▁अपराध	-11.1316
ैरिति	-11.1316
चक्षुर्	-11.1317
▁मूलमन्त्र	-11.1317
व्यास	-11.1318
▁जायमान	-11.1319
वधान	-11.1321
नपेक्ष	-11.1322
▁अस्मान्	-11.1324
▁थव	-11.1325
भूम्य	-11.1325
▁एतरहि	-11.1325
▁स्वैर	-11.1325
▁पोस	-11.1326
▁पश्येत्	-11.1327
विशेष्य	-11.133
▁नाम्न	-11.1331
धातोर्	-11.1333
▁ह्रद	-11.1333
▁विभूत	-11.1334
ाचमन	-11.134
ौषधि	-11.134
द्भव	-11.134
▁सावित्री	-11.1341
विञ्	-11.1341
▁येहि	-11.1343
ाशङ्क	-11.1345
प्रकारक	-11.1345
गोल	-11.1346
सृत्य	-11.1351
▁रोहिणी	-11.1352
विपर्यास	-11.1352
▁तुच्छ	-11.1354
▁अजात	-11.1356
न्मूल	-11.1357
तीरे	-11.1358
खु	-11.136
▁वसन्ति	-11.136
दृष्टिर्	-11.1362
लिखित	-11.1363
दुग्ध	-11.1364
ुच्चार	-11.137
▁तले	-11.137
▁तथाभूत	-11.1371
▁सुणा	-11.1372
▁पञ्चगव्य	-11.1372
▁श्रोण	-11.1373
▁आहुत	-11.1375
ापीति	-11.1376
▁सिंहासन	-11.1378
▁महति	-11.1378
चारी	-11.1379
▁अम्बु	-11.138
▁क्षान्त	-11.138
▁कैवल्य	-11.1384
पाण्डु	-11.1386
िन्द्र	-11.1386
▁पग	-11.1386
▁अचेतन	-11.1387
ायात	-11.1387
दू	-11.1396
▁अहङ्कार	-11.1396
भिषिञ्च	-11.14
धिकृत	-11.14
गृह्णाति	-11.1401
▁पतन्ति	-11.1403
▁कृपया	-11.1403
नाम्न	-11.1404
▁संस्थिता	-11.1405
निर्याण	-11.1406
निबद्ध	-11.1406
ष्प	-11.1407
▁ध्यायन्	-11.1407
मौलि	-11.1408
युक्तेन	-11.1411
▁प्रद्युम्न	-11.1413
विकास	-11.1416
▁पहार	-11.1416
शिक्ष	-11.1417
▁निम्न	-11.1418
▁पर्जन्य	-11.1419
▁भवेयुः	-11.142
▁शुक्ति	-11.142
▁पूरण	-11.1422
▁कातब्बा	-11.1424
▁उत्पद्य	-11.1424
▁अथापि	-11.1426
▁यस्याः	-11.1426
पदिश्यते	-11.1427
ज्ञापक	-11.1427
▁कपोत	-11.1428
स्थैर्य	-11.1428
विसंवाद	-11.1428
▁इहैव	-11.1428
भक्षण	-11.143
वण्	-11.1432
मनसो	-11.1433
▁धर्मज्ञ	-11.1437
▁बुद्धस्स	-11.1437
▁भवितव्य	-11.1439
▁स्रुव	-11.1439
प्रलाप	-11.144
▁प्रकाशित	-11.1441
ादिगुण	-11.1442
रह	-11.1444
व्याघात	-11.1446
▁अट्ठान	-11.1447
▁पञ्चन्न	-11.1447
▁उल्ल	-11.1448
▁कोकिल	-11.1448
ापन्न	-11.145
▁झङ्ग	-11.1451
कांक्ष	-11.1454
पाटल	-11.1454
▁व्यवस्थितः	-11.1457
▁आनय	-11.1457
▁मेध	-11.1457
▁स्यान्न	-11.1458
▁विरहित	-11.146
▁मातिका	-11.1462
षड	-11.1462
साधु	-11.1462
▁सुन्दरी	-11.1463
▁बहुविध	-11.1464
▁त्रिशूल	-11.1465
▁मूर्धा	-11.1468
घृण	-11.1472
स्ताव	-11.1474
▁महावीर्य	-11.1474
नुलोम	-11.1477
यज्ञोपवीत	-11.1478
▁त्रैधातुक	-11.1478
▁जिह्व	-11.1482
भिष	-11.1482
▁परमार्थतः	-11.1483
▁हेतुक	-11.1484
मुचित	-11.1488
▁मन्यु	-11.1488
ानीक	-11.149
▁षडायतन	-11.1494
▁चपल	-11.1495
▁भवितव्यम्	-11.1497
▁मग्गस्स	-11.1499
▁जन्य	-11.1499
प्रतिबिम्ब	-11.1499
▁वसुदेव	-11.1501
वज्	-11.1501
▁अन्यतर	-11.1503
▁नोपपद्यते	-11.1504
▁प्रस्थित	-11.1504
▁संहत	-11.1504
▁गुरोर्	-11.1505
▁तदभावे	-11.1507
▁संपूर्ण	-11.1509
▁कुट्ट	-11.151
▁गहन	-11.1512
वापि	-11.1512
तृष्ण	-11.1513
▁घट्ट	-11.1516
▁पुरिसस्स	-11.1517
▁निद्देसे	-11.1522
कारिणः	-11.1524
द्युम्न	-11.1524
▁निश्चल	-11.1525
प्रकारेण	-11.1526
▁वलय	-11.1527
▁सकृद	-11.1527
▁वर्धते	-11.1527
▁सङ्केत	-11.1529
▁अट्ठङ्	-11.153
▁आनीत	-11.153
सृज्य	-11.1537
▁हैव	-11.1537
ादिपद	-11.1538
▁ग्रन्थि	-11.1538
▁अच्चन्त	-11.1538
स्पर्ध	-11.1539
▁इदमेव	-11.154
रप्य	-11.1541
▁प्रीत्या	-11.1542
▁पसंस	-11.1542
ुद्धर	-11.1543
▁रिया	-11.1545
▁मौल	-11.1546
▁इमेसं	-11.1548
▁नियमेन	-11.1549
▁प्रदर्शित	-11.155
▁उपल	-11.1553
▁धीता	-11.1553
▁सङ्खारा	-11.1555
▁थिय	-11.1557
मञ्जरी	-11.1557
▁प्रदर्शय	-11.1559
ाविव	-11.1561
▁उपप	-11.1561
▁दीपक	-11.1561
▁मुसल	-11.1562
▁निधान	-11.1563
सहगत	-11.1565
▁स्तूप	-11.1566
▁भगवते	-11.1568
▁मन्दिर	-11.1571
▁आगत्य	-11.1572
दौर्मनस्य	-11.1574
▁पार्वती	-11.1574
संमत	-11.1574
▁जहि	-11.1575
ाभिधेय	-11.1575
▁नास्त्य	-11.1575
▁जाती	-11.1576
बू	-11.1577
▁खिप्प	-11.1578
▁बहुली	-11.158
▁रचित	-11.1582
▁रूपस्स	-11.1582
समुत्थित	-11.1584
वेदनीय	-11.1584
▁उय्यान	-11.1586
यतु	-11.1588
ोऽर्थ	-11.1589
▁यहं	-11.1591
▁एध	-11.1595
▁तिथि	-11.1595
ादिभ्यो	-11.1595
▁व्याख्यातम्	-11.1595
▁त्रयस्त्रिंश	-11.1597
▁अप्रणिहित	-11.1597
▁समेत	-11.1597
▁बलवान्	-11.1598
▁मेदिनी	-11.1598
▁अलम्	-11.1599
▁परापर	-11.16
शीर्ण	-11.16
षयो	-11.1605
▁तत्त्वतः	-11.1605
▁भिक्षुसंघ	-11.1605
नरक	-11.1609
ात्मनाम्	-11.161
▁रुज	-11.1612
▁प्रयोक्तव्य	-11.1615
▁भित्ति	-11.1615
कुर्यात्	-11.1617
▁गोतमो	-11.1617
ात्मकत्व	-11.1617
▁त्वच	-11.1618
ौजस	-11.1618
र्महा	-11.162
▁उपमान	-11.1621
ाधिपत्य	-11.1622
्तुं	-11.1626
बाह	-11.1626
▁तदेतद	-11.163
▁विभूति	-11.1632
जन्यत्व	-11.1632
▁यथाक्रमं	-11.1632
स्थानीय	-11.1632
धिया	-11.1633
▁मुदित	-11.1638
▁देही	-11.1638
▁अभिक्	-11.1639
▁मञ्जु	-11.164
▁वङ्ग	-11.1643
▁अङ्कुर	-11.1644
▁संवृति	-11.1648
मिश्रित	-11.1649
▁वैकुण्ठ	-11.1653
▁इत्यपि	-11.1653
श्राद्ध	-11.1653
▁भूयस्	-11.1655
▁पुनश्	-11.1655
▁कत्तब्	-11.1656
ुच्	-11.1656
वोचत्	-11.1657
▁तदेक	-11.1658
▁कम्बल	-11.1658
▁नामधेयं	-11.166
▁लप	-11.1661
▁निगद	-11.1661
▁वुत्ति	-11.1662
ावश्यक	-11.1665
निष्क्रान्त	-11.1667
रिण	-11.1668
▁सम्प्राप्त	-11.1669
चेतसा	-11.167
नूपुर	-11.167
▁उपसंक्रम्य	-11.1671
▁दान्त	-11.1672
गृह्णीया	-11.1672
▁दूषयति	-11.1673
▁भूमिर्	-11.1675
▁व्यावर्त	-11.1675
▁आस्थाय	-11.1676
कुञ्ज	-11.1677
प्रयच्छ	-11.1678
▁विनश्यति	-11.1679
सत्त	-11.1679
▁भोग्य	-11.1687
▁ध्यात	-11.1689
मूर्छ	-11.1689
▁सुगति	-11.169
मत्त्व	-11.1691
ख्याप	-11.1691
मीश	-11.1691
जात्य	-11.1691
▁गृण	-11.1692
निरत	-11.1692
▁प्राप्नुया	-11.1695
▁पाण्ड	-11.1695
▁पाषाण	-11.1699
चतसृ	-11.1702
नुशंस	-11.1702
▁बहून्	-11.1704
▁पार्वति	-11.1707
खिन्न	-11.1707
भ्यस्	-11.1709
ाब्धि	-11.171
▁तेरस	-11.1711
▁यत्नतः	-11.1714
▁नश्यति	-11.1714
▁नियोग	-11.1716
समुच्चय	-11.1717
नोक्त	-11.1719
भिक्षु	-11.1719
▁सचिव	-11.1719
▁समत्थ	-11.172
मन्न	-11.172
देष	-11.172
▁पदस्स	-11.1725
प्रणाश	-11.1727
▁ऽल्प	-11.1728
▁कश्चि	-11.173
▁उदपादि	-11.1731
▁अशक्य	-11.1733
कुर्वन्ति	-11.1737
▁मध्याह्न	-11.1737
ाग्र्य	-11.1739
ौचित्य	-11.174
धर्मेण	-11.1744
ध्न	-11.1744
▁चरित्वा	-11.1744
▁अनुप्र	-11.1747
▁वदामि	-11.1747
भ्यन्तर	-11.1748
▁धात्री	-11.1751
गम्भीर	-11.1753
▁टिघो	-11.1753
▁धिट्ठा	-11.1753
▁सुभूति	-11.1755
संयुता	-11.1756
भृत्य	-11.1756
▁तित्थि	-11.1759
यिता	-11.1759
▁उपाध्याय	-11.176
▁पुच्छित्वा	-11.176
▁प्रणाम	-11.1761
नुत्पन्न	-11.1762
▁निर्जित	-11.1765
ाम्भो	-11.1765
▁चन्द्रमा	-11.1765
▁विरोच	-11.1772
दीपन	-11.1774
▁युगपत्	-11.1774
▁बिन्द	-11.1776
▁लोकानां	-11.1778
सर्वज्ञ	-11.1779
▁अलङ्कार	-11.1781
यत्र	-11.1781
▁प्रत्युवाच	-11.1783
▁फासु	-11.1787
▁कतर	-11.1787
▁परिणत	-11.1788
ीकार	-11.179
▁हैम	-11.1791
▁व्याकरण	-11.1794
ानभि	-11.18
▁विज्ञानस्य	-11.1801
▁परमानन्द	-11.1801
▁चातुर्	-11.1802
ोदिता	-11.1803
ोपमान	-11.1803
भ्रू	-11.1803
शिथिल	-11.1804
▁पुनरेव	-11.1808
▁पच्छ	-11.1809
लोचनः	-11.1811
▁इतः	-11.1811
▁निब्बाय	-11.1812
▁विञ्ञाय	-11.1813
▁तहिं	-11.1815
क्रूर	-11.1816
किल्बिष	-11.1817
▁यशस्विन	-11.1818
सूनु	-11.182
स्त्वया	-11.182
▁एसा	-11.1822
▁देय्य	-11.1828
नुत्तरायां	-11.183
▁फ्रे	-11.183
योरेक	-11.183
▁थुल्लच्	-11.1831
स्थूल	-11.1832
▁ब्रुवत	-11.1833
▁ब्रह्महत्या	-11.1834
भेदाद्	-11.1838
▁आत्त	-11.1838
ाशीति	-11.1839
▁समागम	-11.1839
▁उद्देश	-11.1842
▁दायाद	-11.1842
▁प्रज्ञापारमित	-11.1842
▁बाल्य	-11.1842
मेद	-11.1843
▁धनुः	-11.1843
इति	-11.1845
▁समभ्यर्च्य	-11.1845
▁अपच्च	-11.1848
▁त्रिनेत्र	-11.1851
ाध्यक्ष	-11.1852
ुदय	-11.1852
मोष	-11.1856
▁दिवो	-11.1856
ान्धकार	-11.1858
▁नृपते	-11.1858
नुष्ठित	-11.186
▁जठर	-11.1861
▁पादुका	-11.1862
▁उपागत	-11.1866
पारमितेयं	-11.1867
▁प्रेषय	-11.1868
▁नग्न	-11.1868
महिष	-11.187
▁कुस	-11.1871
भृत्	-11.1875
▁मुट्ठा	-11.1875
▁देवराज	-11.1877
▁चत्वारिंश	-11.1877
▁शृणो	-11.1878
घ्नी	-11.1878
साहस्रमहासाहस्र	-11.1878
▁वाद्य	-11.1878
▁चामर	-11.188
▁इसि	-11.1882
▁समन्ततो	-11.1882
वलित	-11.1883
विकृत	-11.1886
▁अश्वत्थ	-11.189
▁प्रेषित	-11.1892
प्रसव	-11.1894
श्वमेध	-11.1895
▁खत्	-11.1896
रत्नमय	-11.1899
▁साला	-11.19
▁अञ्ञस्स	-11.19
▁परित्यक्त	-11.1901
धिगम	-11.1902
व्यभिचारि	-11.1904
▁प्रौढ	-11.1904
विमोक्षमुख	-11.1904
▁अनुपादा	-11.1905
वचनात्	-11.1905
▁श्रौत	-11.1906
▁पभा	-11.1907
▁विकस	-11.1909
समुदाचार	-11.191
▁पुष्ट	-11.1911
▁अनुपूर्व	-11.1911
कवच	-11.1911
▁पेतो	-11.1912
ैतानि	-11.1912
ज्ञता	-11.1914
▁टिघं	-11.1917
गौर	-11.1917
▁तेजस्	-11.1918
चिन्तयत्	-11.192
▁भगवती	-11.192
भागीय	-11.1921
▁किमर्थ	-11.1923
संयोजन	-11.1925
▁अन्तिक	-11.1927
निदर्शन	-11.1928
रूण	-11.1929
▁यादव	-11.1933
▁भावयति	-11.1935
▁चिकीर्ष	-11.1935
▁ह्येष	-11.1936
सभा	-11.1937
▁संगत	-11.1938
▁मनसः	-11.194
▁उच्यन्ते	-11.194
▁शून्यतया	-11.1941
पेय	-11.1942
▁स्वप्रकाश	-11.1943
ानुगुण	-11.1943
विपुल	-11.1945
▁तैस्	-11.1947
▁भ्रष्ट	-11.195
प्राधान्य	-11.1953
सन्निधान	-11.1954
▁मुनीश्वर	-11.1958
ानुवर्त	-11.196
संचार	-11.1963
▁पूर्वेण	-11.1964
▁नृत्त	-11.1965
▁वृन्दावन	-11.1965
ात्मेति	-11.1966
समुदाय	-11.1966
▁जनार्दनः	-11.1966
▁मनुस्सानं	-11.1968
▁मत्थक	-11.1974
ास्तीति	-11.1974
▁असाधारण	-11.1975
वत्सर	-11.1976
ोपनिषद	-11.1977
▁माधुर्य	-11.1978
मवाप्नुयात्	-11.1978
निषण्ण	-11.1979
▁वेसा	-11.198
ागत्य	-11.1982
▁मलय	-11.1984
▁दर्शयन्	-11.1985
▁ओंकार	-11.1985
सेवन	-11.1985
▁संयोज्य	-11.1986
▁कपोल	-11.1986
ग्रहणेन	-11.1987
▁च्यव	-11.1991
▁अकत्वा	-11.1992
▁पक्षि	-11.1993
▁प्रत्यहं	-11.1994
▁मुनिर्	-11.1995
▁त्रिवृत	-11.1997
▁सुकुमार	-11.1998
▁पर्यङ्क	-11.1998
▁मेखला	-11.2
▁जपेद्	-11.2001
▁एभिर्	-11.2002
ोपविष्ट	-11.2002
परिशुद्ध	-11.2003
▁कुरू	-11.2004
बाहुल्य	-11.2005
▁दुर्गति	-11.2005
▁प्रगृह्य	-11.2006
▁असंस्कृत	-11.2006
सङ्गत	-11.201
ण्डक	-11.201
पकर्ष	-11.201
▁क्षुर	-11.201
च्छास्त्र	-11.2011
▁कामावचर	-11.2012
पीड्य	-11.2013
▁द्वयोर	-11.2014
मालिन	-11.2014
ोऽन्य	-11.2015
▁पुष्पाणि	-11.2017
प्रस्थ	-11.2018
▁पूर्वमेव	-11.202
मब्रवीत्	-11.2021
तादृश	-11.2024
▁वर्षाणि	-11.2025
▁मृषा	-11.2028
▁ऽन्यथा	-11.2028
▁तर्जनी	-11.2029
श्नुते	-11.2033
स्तरण	-11.2035
नितम्ब	-11.2035
ेभ्यश्च	-11.2035
▁प्रवृत्ते	-11.2038
▁विधु	-11.2038
मानन्द	-11.2042
▁तण्ह	-11.2044
▁भवन्तु	-11.2046
ऽथ	-11.2049
स्तृण	-11.205
▁तदाह	-11.205
▁परेषां	-11.205
▁तदूर्ध्व	-11.2051
▁पेता	-11.2055
▁यद्यप्य	-11.2055
▁देसनाय	-11.2056
▁अम्बर	-11.2056
▁अद्धा	-11.2059
ताडय	-11.206
▁महापुराणे	-11.2063
▁संस्थान	-11.2068
▁वेस	-11.2068
▁नृणां	-11.2069
निर्वाह	-11.207
▁सेव्य	-11.2071
मिन्द्रिय	-11.2071
▁गणन	-11.2072
▁तच	-11.2073
▁वन्दि	-11.2074
▁लाल	-11.2074
नुभूय	-11.2075
▁जगती	-11.2076
▁ज्वलन	-11.2078
र्जुन	-11.2079
▁धनुष	-11.2079
▁अनिष्ट	-11.2081
ेऽप्य	-11.2081
▁आनीय	-11.2087
छ्	-11.2088
प्युक्त	-11.2089
▁मूषा	-11.2089
▁चर्या	-11.2089
▁द्रष्टव्यः	-11.209
▁प्रमदा	-11.209
जीमूत	-11.2091
▁प्रविवेश	-11.2092
▁प्रसर	-11.2092
▁मृत्यो	-11.2093
रुचिर	-11.2096
ग्निर्	-11.2096
▁पदेसे	-11.2097
▁चिन्तित	-11.2098
▁असन्त	-11.2098
▁राजानम्	-11.2099
▁भल्ल	-11.21
▁अथातः	-11.21
प्रणय	-11.2102
प्रतिलम्भ	-11.2103
▁प्राश	-11.2103
▁चिन्तयेत्	-11.2104
▁कासि	-11.2105
▁शोधन	-11.2105
▁भिक्खूहि	-11.2106
▁सन्दिग्ध	-11.2106
▁विसृज	-11.2107
ीत्यर्थः	-11.2107
▁प्रपन्न	-11.2107
तव्यम्	-11.211
वल्ल	-11.2113
▁निवेदित	-11.2114
ुरु	-11.2115
▁रामेण	-11.2116
▁कारुण्य	-11.2117
▁सर्षप	-11.2119
▁गुरो	-11.2121
▁संकेत	-11.2123
▁वपु	-11.2125
सुतो	-11.2125
निधन	-11.2127
▁बोद्धव्य	-11.2129
ौदन	-11.213
▁विस्तीर्ण	-11.213
पिशाच	-11.2131
▁गुणव	-11.2132
▁ऽन्तर	-11.2133
व्याप्त्य	-11.2133
पत्तेर्	-11.2134
▁रुच	-11.2136
▁गुल	-11.2136
विभूषण	-11.214
▁आणाप	-11.214
▁जुष्ट	-11.2141
▁संकिलेस	-11.2141
▁अहमेव	-11.2142
स्वेद	-11.2143
तण्डुल	-11.2143
लेपन	-11.2144
तिथ्य	-11.2144
▁पस्स्	-11.2145
▁पौर्णमास्य	-11.2147
नित्यता	-11.2148
विषम	-11.215
ध्वान	-11.215
▁कल्प्य	-11.2152
दुन्दुभि	-11.2154
विष्कम्भ	-11.2154
▁हविः	-11.2156
▁पञ्चभिः	-11.2156
माचर	-11.2157
▁वुच्चती	-11.2158
▁अग्नी	-11.2158
पुङ्गव	-11.2159
▁पूज्या	-11.216
▁विरूप	-11.2161
▁भव्य	-11.2163
▁उपपत्	-11.2164
ीयसी	-11.2167
▁अतिविय	-11.2167
मूलक	-11.217
▁काचित्	-11.2171
▁ऽन्तर्	-11.2173
विश्रान्त	-11.2176
ज्योतिष	-11.2179
▁द्यूत	-11.218
▁श्रेयो	-11.2182
प्रभृतय	-11.2184
▁योग्यता	-11.2186
▁रक्षण	-11.2186
टीक	-11.2189
▁वत्थुस्मिं	-11.2192
▁प्रसृत	-11.2194
ग्राहि	-11.2194
क्ष्यमाण	-11.2195
▁पाप्मा	-11.2195
चतुर्दश	-11.2195
गन्त्वा	-11.2196
▁स्थाणु	-11.2196
▁प्रमुदित	-11.2197
▁माद	-11.2197
प्रतिष्ठ	-11.22
▁लाघव	-11.2202
▁कृताञ्जलि	-11.2203
▁शाक्यमुनि	-11.2207
▁वनाय	-11.2208
ुदाहृत	-11.2209
भिरेव	-11.221
▁सामन्त	-11.2213
▁अस्तीति	-11.2215
▁पटु	-11.2215
ोऽहं	-11.2216
▁निषेव	-11.2216
▁योनिसो	-11.2219
▁सम्मुख	-11.222
हर्म्य	-11.2221
ावस्थाया	-11.2222
▁दण्डक	-11.2224
▁भरिया	-11.2225
ाणीति	-11.2225
▁छेदन	-11.2226
स्त्येव	-11.2226
▁समतिक्	-11.2231
▁उॠआर	-11.2231
▁गय्ह	-11.2231
ांजलि	-11.2231
ोपवास	-11.2232
▁पङ्क्ति	-11.2232
ष्ट्वा	-11.2233
▁विभ्रम	-11.2237
माश्रित	-11.2237
▁अनुसास	-11.2238
▁इत्युप	-11.2242
ेच्छया	-11.2243
▁कच	-11.2244
▁उत्थित	-11.2245
सन्निधौ	-11.2249
▁प्रायेण	-11.2249
▁मुद्ग	-11.225
रमण	-11.2252
▁महाविद्या	-11.2252
▁समालोक्य	-11.2253
कुसल	-11.2253
▁वृष्ण	-11.2253
▁अयुत	-11.2254
शङ्कित	-11.2254
▁विपस्सनं	-11.2257
▁एतस्मिन्	-11.226
िन्दु	-11.2262
स्यन्द	-11.2262
▁क्षेप	-11.2263
▁श्रावय	-11.2264
▁वारित	-11.2264
▁इन्द्रियाणि	-11.2264
▁तमग्	-11.2265
▁प्रत्यक्षेण	-11.2268
सङ्कोच	-11.2269
▁आश्रित्य	-11.2269
▁विमोक्ख	-11.2269
जुगुप्स	-11.2269
▁हुताशन	-11.227
▁प्रेत्य	-11.2271
ष्वपि	-11.2273
द्राक्षी	-11.2274
▁उज्झ	-11.2275
सुधा	-11.2277
मुह	-11.2277
किच्च	-11.2279
ावलम्ब	-11.2281
निर्मल	-11.2281
▁धार्तराष्ट्र	-11.2282
गन्त	-11.2284
क्रियते	-11.2284
संहितायां	-11.2285
▁बुद्ध्वा	-11.2289
▁भरण	-11.2292
▁ऽस्मा	-11.2293
ात्मानम्	-11.2294
भूत्वा	-11.2296
यन्त्य्	-11.2298
▁अखण्ड	-11.2298
वैशिष्ट्य	-11.2298
▁यूथ	-11.2299
▁इत्यन्त	-11.23
▁कृतकत्व	-11.2302
षिर्	-11.2302
परम्परा	-11.2307
भिमुख	-11.2309
▁हठ	-11.2316
ारोग्य	-11.2322
▁शारीर	-11.2322
व्यवधान	-11.2322
नामिका	-11.2326
हन्त	-11.2326
व्रीड	-11.2326
द्रोह	-11.2327
▁निन्दा	-11.2328
▁मरीचि	-11.2329
▁हरेत्	-11.2333
▁उपादा	-11.2335
▁मनसिकरोति	-11.2335
▁योजित	-11.2336
▁तथागतबल	-11.2336
भृतां	-11.2338
▁वीतराग	-11.2339
▁पराक्रम	-11.2339
▁मते	-11.2343
▁सूकर	-11.2343
▁सीमाय	-11.2344
निष्पत्ति	-11.2348
ब्रुव	-11.2348
▁संजात	-11.2348
बुध्यत	-11.2351
▁त्रीन्	-11.2352
▁स्वपर	-11.2353
▁लभन्	-11.2354
▁सम्बोज्	-11.2354
▁शंख	-11.2355
▁छिद्र	-11.2355
योर्मध्ये	-11.2355
▁मुनी	-11.2356
▁अजानन्त	-11.2358
▁साम्न	-11.236
▁ययुः	-11.2361
वाञ्छ	-11.2362
▁आपत्तियो	-11.2363
च्छल	-11.2363
▁श्ग्	-11.2363
▁कश्चन	-11.2364
▁आस्ते	-11.2365
काञ्चन	-11.2365
▁पुरुषेण	-11.2366
▁स्ना	-11.2368
▁वाग्भव	-11.2369
नुमित	-11.2369
▁साधयेत्	-11.2369
▁आरुह्य	-11.2373
त्वादेव	-11.2374
▁धञ्ञ	-11.2375
▁निरुक्त	-11.2375
मुच्च	-11.2376
▁धवल	-11.2377
▁सावको	-11.2378
▁जाप	-11.2378
▁आदिकं	-11.2379
▁मधुसूदनः	-11.2379
▁अन्यतम	-11.2383
▁तृष्ण	-11.2388
▁महासत्व	-11.2388
हसित	-11.2388
▁दुट्ठ	-11.2389
▁आपन्नो	-11.2392
वासित	-11.2393
▁उद्दिस	-11.2393
▁तस्माच्	-11.2394
▁पर्षद	-11.2395
▁विदुर	-11.2396
▁प्रक्रान्त	-11.2397
पातक	-11.2397
▁कुक्षि	-11.2397
▁सम्पूर्ण	-11.2397
ुदक	-11.2398
विलक्षण	-11.2398
स्त्रिय	-11.2403
▁थेय्य	-11.2407
▁ब्रह्मचारी	-11.2407
सिद्ध्य	-11.2408
▁पकासि	-11.2409
ब्रुवन्	-11.2409
▁भक्षण	-11.241
कफ	-11.2411
▁मगध	-11.2412
▁शिक्षितव्यम्	-11.2412
▁तिस्रो	-11.2415
संवेद्य	-11.2416
स्तीर्य	-11.2417
▁ललाटे	-11.2417
▁विंश	-11.2417
▁त्र्यह	-11.2418
▁गुद	-11.2419
भ्युदय	-11.2419
▁व्यध	-11.2421
▁योसाने	-11.2422
▁कल्क	-11.2423
विवक्षित	-11.2423
▁जटिल	-11.2425
▁आत्मान	-11.2425
▁विग्गह	-11.2426
▁श्ल	-11.2426
▁विरति	-11.2428
▁निरीक्ष्य	-11.2428
गन्तव्य	-11.2432
मनेक	-11.2434
▁ग्रीवा	-11.2436
▁जन्मनि	-11.2436
▁बहिर्धा	-11.2439
▁सखे	-11.2441
▁लक्खण	-11.2443
समता	-11.2443
▁सिला	-11.2443
ाम्यहं	-11.2444
ायुः	-11.2444
▁मुदिता	-11.2449
▁नास्त्य्	-11.2454
▁सायक	-11.2454
▁स्मार	-11.2455
न्यसेत्	-11.2456
दैन्य	-11.2459
बाधक	-11.2459
ञ्जलि	-11.246
िनस्	-11.246
ुब्	-11.2464
चुर्	-11.2467
▁पतिर्	-11.2471
▁पायेन	-11.2472
▁वामहस्त	-11.2472
विज्ञात	-11.2474
मात्मनः	-11.2475
भिव्यक्ति	-11.2476
▁स्याच्	-11.2478
जङ्घ	-11.2478
प्रयोजक	-11.2479
▁सर्वभाव	-11.248
▁कदम्ब	-11.248
▁ब्रह्मणे	-11.248
घूर्ण	-11.2481
▁पूरेत्वा	-11.2482
▁तत्रायं	-11.2483
▁अन्धकार	-11.2485
▁महीयते	-11.2485
▁मधुना	-11.2489
ताडन	-11.2489
▁श्लक्ष्ण	-11.249
ोपहत	-11.2491
▁उट्ठाय	-11.2492
ाननु	-11.2495
समारोप	-11.2495
▁मन्यमान	-11.2496
▁शून्यताया	-11.2498
▁पिष्ट्वा	-11.2498
ाढ्या	-11.2499
कुन्तल	-11.2499
▁यदेव	-11.25
▁गम्भी	-11.2501
▁प्रयाति	-11.2501
वाङ्मन	-11.2502
बुद्ध्या	-11.2505
▁अञ्ञतरं	-11.2505
योग्यता	-11.2506
▁विचक्षणः	-11.2507
▁वर्णित	-11.2508
मुने	-11.2509
कर्तार	-11.251
कलङ्क	-11.2512
तृत्व	-11.2512
▁चिन्त्य	-11.2513
▁सर्वसत्त्वानां	-11.2515
▁दशरथ	-11.2517
▁अभिञ्ञेय्	-11.2517
ॠओ	-11.2518
▁प्रत्युपस्थित	-11.2519
▁प्राणिन	-11.2519
▁देशित	-11.252
शोध	-11.2521
स्तम्ब	-11.2521
▁जुहुया	-11.2522
▁चेष्टा	-11.2525
▁कौल	-11.2525
व्यव	-11.2525
पयोधर	-11.2526
विधानेन	-11.2529
▁देवासुर	-11.2529
▁दध्य	-11.2529
▁आरोग्य	-11.253
▁पाशुपत	-11.2531
▁विशिष्यते	-11.2532
▁नीहार	-11.2532
ानृत	-11.2535
▁देवेन्द्र	-11.2536
मारब्ध	-11.2538
▁नीहर	-11.2539
▁दापयेत्	-11.2541
िष्यामः	-11.2541
भान	-11.2544
गुड	-11.2544
▁षण्मास	-11.2544
पृष्ट	-11.2549
बुद्ध्य	-11.2549
प्सरस	-11.2549
▁सून	-11.255
▁किञ्चन	-11.2551
ामिष	-11.2551
▁भृश	-11.2552
▁स्वजन	-11.2552
ालम्ब	-11.2554
▁गर्व	-11.2554
▁संसृष्ट	-11.2558
▁मिथः	-11.2558
▁ऽपीति	-11.2562
ायनमः	-11.2567
मनुभव	-11.2568
▁आलोक्य	-11.2568
▁तृप्य	-11.257
विवरण	-11.2572
▁पशवो	-11.2572
प्येवं	-11.2575
▁विवस्व	-11.2579
ोत्सुक	-11.2581
पनीय	-11.2584
▁सुभा	-11.2584
▁विरम	-11.2585
स्थाप्य	-11.2586
▁मनिन्द्	-11.2587
नुभाव	-11.2587
▁भवतीत्य	-11.2588
▁कन्यका	-11.2591
ित्यनेन	-11.2594
▁मृद्	-11.2595
धर्मिण	-11.2595
▁वायुना	-11.2595
▁सङ्गम	-11.2596
गहन	-11.2598
मूर्द्ध	-11.2598
▁परामृश	-11.2601
▁भक्तिर्	-11.2603
मुवाच	-11.2605
▁प्रदर्श्य	-11.2605
▁प्रकृत्या	-11.2606
वार्षिक	-11.2612
▁अट्ट	-11.2613
▁मृद्व	-11.2613
▁संचर	-11.2613
ावलोक	-11.2615
साक्षि	-11.2616
▁पुण्डरीक	-11.2618
▁विश्वास	-11.2618
विस्मय	-11.262
मूर्त्त	-11.2622
▁उपेत्य	-11.2622
▁प्रादुर्भूत	-11.2623
▁भूतेषु	-11.2624
सूति	-11.2624
▁पट्ठा	-11.2625
हेतवः	-11.2626
प्राप्तिर्	-11.2628
▁ब्यापाद	-11.2631
जुहु	-11.2631
▁नुप्पज्जि	-11.2632
▁ब्रुवन्	-11.2635
▁प्रवर्त्त	-11.2635
▁अकप्पिय	-11.2636
सौन्दर्य	-11.2636
▁तिर्यक्	-11.2636
▁भेसज्	-11.2636
▁भावेति	-11.2641
▁सलाक	-11.2641
पुद्गल	-11.2645
▁ऽइ	-11.2646
ललित	-11.2647
मिन्द्र	-11.2648
▁चिन्मात्र	-11.2648
मातृका	-11.2649
▁ऽत्यन्त	-11.2651
▁धीमान्	-11.2655
▁अधिकरण	-11.2656
वच्छेद	-11.2656
▁पक्कोस	-11.2657
▁इदञ्च	-11.2658
ञ्जित	-11.2659
▁उपपत्ति	-11.2659
▁साक्षाद	-11.2659
▁जोत	-11.2662
▁अनुबन्ध	-11.2662
▁पारमार्थिक	-11.2663
▁गान्धार	-11.2663
▁कारी	-11.2664
▁आगन्तु	-11.2664
विवर्जितः	-11.2666
▁धूर्त	-11.267
ाद्यर्थ	-11.2673
▁परिनिर्वृत	-11.2674
▁स्वगृह	-11.2676
रुध	-11.2676
▁ऽधिक	-11.2677
▁पस्सि	-11.2677
ृष्य	-11.2678
▁नमस्कृत्य	-11.268
▁सञ्ञि	-11.268
▁आवर्त	-11.2682
▁विसुद्धि	-11.2682
प्रविष्ट	-11.2683
न्नपान	-11.2685
हर्तु	-11.2685
ाग्निर्	-11.2686
▁फस्सो	-11.2688
▁चतस्रः	-11.2688
▁कूर्च	-11.2689
पूप	-11.2689
▁कस्सच	-11.269
▁पताका	-11.269
संध्य	-11.2691
ोपक्रम	-11.2692
ानुकम्प	-11.2693
▁सन्धिक्	-11.2693
दर्शनाद्	-11.2693
▁निबोध	-11.2694
कर्दम	-11.2697
ग्रहणात्	-11.2697
▁संस्काराः	-11.2699
▁द्वाव	-11.2701
भीम	-11.2702
▁याज्ञवल्क्य	-11.2703
▁जीवन्मुक्त	-11.2704
केयूर	-11.2704
त्येत	-11.2704
फुल्ल	-11.2704
▁पटिघ	-11.2705
▁याथ	-11.2706
▁हापद	-11.2707
▁कुरुष्व	-11.2708
निष्क	-11.2709
युञ्जीत	-11.2711
विघात	-11.2713
▁विलक्षण	-11.2716
▁वणिक्	-11.2716
मुद्ग	-11.2717
▁दुस्सील	-11.2718
▁प्रजप	-11.272
प्रसूत	-11.272
▁समन्तात्	-11.2723
▁प्रतिगृह्ण	-11.2723
कूप	-11.2724
▁अपिच	-11.2724
▁युगपद्	-11.2726
▁उत्सृज्य	-11.2727
▁तब्	-11.2729
▁निरूपित	-11.2729
ोत्सर्ग	-11.2731
ावुभौ	-11.2732
▁कङ्खा	-11.2733
▁दस्सिता	-11.2734
रिय्	-11.2735
▁प्रणिहित	-11.2738
ुद्धृत	-11.2738
▁श्रीमन्	-11.2738
▁गन्तब्	-11.2738
रीणां	-11.2742
ाकर्षण	-11.2742
ुट्ठ	-11.2742
▁पञ्चविंशति	-11.2743
▁सम्यक्सम्बुद्ध	-11.2743
▁अक्कोस	-11.2743
वगम	-11.2744
▁संयत	-11.2745
▁प्रथित	-11.2745
▁प्राप्यते	-11.2747
ाम्भोज	-11.2747
▁आलम्ब	-11.2748
हर्ता	-11.2749
▁विज्ञ	-11.275
▁उपवास	-11.2752
▁बदर	-11.2752
कर्माण	-11.2754
▁ग्रास	-11.2754
्रियमाण	-11.2755
▁प्रज्ञप्ति	-11.2755
▁न्यग्रोध	-11.2757
मर्श	-11.2759
▁सर्वग	-11.2761
ग्रन्थि	-11.2761
ानन्तर्य	-11.2764
▁काण्ड	-11.2765
▁सुन्दरि	-11.2767
▁कुन्द	-11.2768
▁दर्शपूर्णमास	-11.277
▁निरुत्ति	-11.277
खड्ग	-11.2771
▁नाटक	-11.2774
चिन्तन	-11.2774
▁मख	-11.2774
व्यापि	-11.2777
ाप्याय	-11.2778
प्येत	-11.2778
▁संधि	-11.2779
▁पकत	-11.278
▁अजित	-11.2781
▁त्यजेत्	-11.2781
▁यावच्	-11.2783
▁कीॠअ	-11.2786
▁अनुप्राप्त	-11.2786
विद्यमान	-11.2786
▁विनायक	-11.2787
▁उग्ग	-11.2788
मारभ	-11.2791
सङ्ख्य	-11.2793
निष्क्रम	-11.2795
▁अधिष्ठान	-11.2795
▁स्त्रियो	-11.2797
▁ज्योतिष्टोम	-11.2797
▁द्विजोत्तमाः	-11.2799
ुपपद्यते	-11.2799
▁ज्ञाति	-11.2799
▁सीघ	-11.28
▁अतश्च	-11.2802
धाम्न	-11.2803
सम्यक्	-11.2806
शाक	-11.2808
▁आश्वास	-11.2808
ार्पित	-11.281
▁हविषा	-11.281
मृद	-11.281
▁ब्याकर	-11.2811
▁उदाहर	-11.2812
ाभिभूत	-11.2813
सिद्धिरिति	-11.2814
▁पर्युपास	-11.2815
▁अङ्गुलि	-11.2815
ावलि	-11.2818
▁प्रकीर्तिता	-11.2818
संभ्रम	-11.2819
▁वस्सानि	-11.2819
ूंषि	-11.282
▁पुत्रान्	-11.2821
▁वदेय्	-11.2823
जीवन	-11.2823
▁असाव्	-11.2824
चिन्तयन्	-11.2825
ाङ्घ्रि	-11.2825
▁परिगृहीत	-11.2825
▁चतुर्थी	-11.2826
▁प्रयुज्यते	-11.2828
▁निम्म	-11.2832
▁उच्छेद	-11.2832
परमार्थ	-11.2833
येच्च	-11.2833
▁विक्षेप	-11.2834
निश्रय	-11.2836
▁भरद्वाज	-11.2838
▁कल्प्यते	-11.2839
भक्ष्य	-11.284
स्कन्द	-11.284
▁समन्वय	-11.284
पवित्र	-11.2841
ोपपद्यते	-11.2843
कुण्ठ	-11.2843
वीथी	-11.2845
▁अनृत	-11.2851
▁चक्खुना	-11.2852
▁चानुपलम्भयोगेन	-11.2852
▁सप्तमी	-11.2854
▁पुरीष	-11.2854
▁कौमार	-11.2856
▁तपोधन	-11.2856
▁दमन	-11.2858
▁कराल	-11.2861
क्कम	-11.2862
▁अग्न्य	-11.2862
ुपदेश	-11.2863
▁परिनिर्वा	-11.2863
ममृत	-11.2864
ारविन्द	-11.2864
ोपशम	-11.2868
मुद्दिश्य	-11.2871
▁समीक्ष्य	-11.2872
ात्मीय	-11.2872
▁खुर	-11.2874
▁चरम	-11.2874
▁परलोक	-11.2874
▁दुक्खस्स	-11.2874
व्यावृत्ति	-11.2879
▁पत्त्र	-11.2879
▁एतदुक्तं	-11.288
विलेपन	-11.2881
▁अधम	-11.2882
▁उपेक्ख	-11.2884
नुपलम्भ	-11.2885
▁आयुध	-11.2885
▁श्रोतुम्	-11.2887
मीलित	-11.2889
▁पमुख	-11.289
▁क्षौद्र	-11.2891
भिलाष	-11.2893
▁प्रादेश	-11.2894
▁अह्न	-11.2897
मूर्धनि	-11.2898
▁संवेग	-11.29
▁लद्धि	-11.2903
▁इद्ध	-11.2904
रेष	-11.291
गच्छन्ति	-11.291
▁परिकल्पित	-11.2911
धातुक	-11.2916
▁थूप	-11.2916
▁पश्चान्	-11.2916
वर्द्ध	-11.2917
माकाश	-11.2917
▁लोकनाथ	-11.2918
वलोकन	-11.2919
▁किमिति	-11.2919
▁भास्व	-11.2919
ापहार	-11.2919
विन्यास	-11.2919
▁प्रकीर्तितम्	-11.292
▁शयान	-11.2921
▁इत्येक	-11.2922
▁प्रयोजक	-11.2922
भिप्रायेण	-11.2928
▁सामग्री	-11.2929
▁तत्कार्य	-11.2931
▁ग्राम्य	-11.2932
षष्ठ	-11.2932
▁प्रशस्यते	-11.2934
▁भैक्ष	-11.2935
ल्लिख	-11.2935
▁फुट्ठ	-11.2935
प्रतिभान	-11.2935
पादप	-11.2936
▁हेट्ठि	-11.2936
बुद्धिर्	-11.294
▁समर	-11.294
▁रमते	-11.294
▁गुरोः	-11.2942
▁परिपृच्छ	-11.2943
ाह्लाद	-11.2943
ीयेत	-11.2943
स्यार्थस्य	-11.2944
काव्य	-11.2944
ित्यादिना	-11.2946
▁नैरृत	-11.2948
प्रागभाव	-11.2949
▁अर्थक्रिया	-11.295
कुञ्चित	-11.295
र्चिष	-11.2953
स्मिन्नेव	-11.2953
▁शक्नोति	-11.2954
कीर्त	-11.2955
ग्रहीत	-11.2956
लिम्प	-11.2961
▁ऽनेन	-11.2962
न्यतर	-11.2963
▁द्रविण	-11.2971
▁संयुगे	-11.2971
▁मन्दर	-11.2971
▁भ्रमर	-11.2973
▁सतानि	-11.2974
भ्येत्य	-11.2975
स्तंभ	-11.2976
▁रिक्ख	-11.2977
▁शशाङ्क	-11.2977
चारिणः	-11.2978
▁अभु	-11.2979
च्छेत्	-11.298
▁सदिसो	-11.2983
▁शठ	-11.2985
▁उद्द	-11.2989
मौद्गल्यायन	-11.299
▁जेत्वा	-11.2991
▁मध्यतो	-11.2991
देशकाल	-11.2991
▁लोचनम्	-11.2996
निचय	-11.2996
सृजत	-11.3
▁रोचते	-11.3001
▁अध्याय	-11.3001
फु	-11.3002
▁नोपलभते	-11.3003
▁सम्मुखा	-11.3003
▁सावित्र	-11.3005
नुशास	-11.3007
नृत	-11.3008
वर्ती	-11.3008
▁आपद	-11.3012
▁अब्भन्	-11.3013
सापेक्ष	-11.3013
▁अङ्गानि	-11.3014
सौख्य	-11.3014
ेत्यत्र	-11.3016
▁तैर	-11.3018
▁धीमतः	-11.3018
धार्मिक	-11.3018
निर्भर	-11.3019
तस्सो	-11.3022
▁गच्छन्तो	-11.3022
▁वत्सर	-11.3022
▁आमन्त	-11.3022
▁कर्मसु	-11.3023
▁उचित	-11.3024
▁भुजङ्ग	-11.3027
▁दूर्वा	-11.3029
▁पटिञ्ञा	-11.303
▁खदिर	-11.3032
▁प्रसक्त	-11.3032
शान्तये	-11.3033
▁व्यस्त	-11.3035
▁लान	-11.3036
च्छादन	-11.3037
▁संपन्न	-11.3038
ध्वन	-11.3038
▁कीर्तय	-11.3039
▁असित	-11.3039
क्ष्व	-11.304
जल्प	-11.3042
▁खेम	-11.3045
▁उपाधि	-11.3046
हार्द	-11.3046
▁समादापय	-11.3048
शैक्ष	-11.3049
प्रणीत	-11.3052
▁उपासिका	-11.3052
स्थापित	-11.3052
▁कांस्य	-11.3054
ोऽयम	-11.3055
▁सम्मोह	-11.3057
▁यञ्ञ	-11.3061
व्योम	-11.3064
मोहन	-11.3066
▁धीरा	-11.3067
▁चोदन	-11.3067
प्रमातृ	-11.3068
ोद्गत	-11.307
▁हरी	-11.3071
संपत्ति	-11.3072
सम्भूत	-11.3072
ामलक	-11.3073
स्निग्ध	-11.3074
▁इमान्	-11.3076
▁शनैर्	-11.3076
भिप्रेत्य	-11.3077
▁भुम्म	-11.3077
तुङ्ग	-11.3077
▁बालक	-11.3077
भुक्	-11.3078
▁परिगृह्णाति	-11.3078
मृज्य	-11.3079
▁एवाह	-11.3079
▁कुर्वाण	-11.3079
▁श्रान्त	-11.3081
हेय	-11.3082
धत्त	-11.3084
▁विधानतः	-11.3085
▁राजगृह	-11.3087
समानाधिकरण	-11.3087
▁राजन्य	-11.3088
▁विभीषण	-11.3091
▁मुनिश्रेष्ठ	-11.3092
▁महात्म	-11.3094
▁गुत्त	-11.3095
▁पन्थ	-11.3095
व्याहत	-11.3098
वधार्य	-11.3099
▁वहति	-11.3101
प्लाव	-11.3101
▁कारिका	-11.3102
▁सप्पु	-11.3103
नारी	-11.3103
▁अश्म	-11.3103
▁उत्पल	-11.3107
▁अकम्म	-11.3109
▁मथुरा	-11.3109
विषयत्वात्	-11.3111
वस्थायां	-11.3112
त्वर	-11.3113
▁तुण्ही	-11.3114
▁धीमता	-11.3116
समुदय	-11.3119
निवेशन	-11.3119
▁स्वस्तिक	-11.3119
मूर्छित	-11.312
ोऽथ	-11.312
▁ऽन्व	-11.3121
▁अन्तःपुर	-11.3122
▁प्रजानां	-11.3122
▁सञ्जान	-11.3122
भिसंबुद्ध	-11.3123
नुत्तम	-11.3123
▁समग्ग	-11.3123
पेक्षाया	-11.3124
▁पुत्रक	-11.3126
▁विचरन्	-11.3128
ृषि	-11.3129
▁सम्पात	-11.3131
▁राजस	-11.3132
प्रहरण	-11.3134
▁याह	-11.3135
▁विज्जति	-11.3136
मनीष	-11.3139
वस्त्व	-11.3139
▁सकट	-11.314
न्तर्गत	-11.314
▁वाॠअ	-11.3141
▁तूर्णं	-11.3143
▁कस्मिन्	-11.3144
▁विधिवद्	-11.3145
▁विविधानि	-11.3149
▁समाधिना	-11.315
तुमर्हसि	-11.315
▁अमू	-11.3151
▁अतिशय	-11.3151
कृन्	-11.3152
▁सत्यपि	-11.3153
▁तञ्हि	-11.3153
मवाप	-11.3153
▁पक्खन्	-11.3154
▁कौलिक	-11.3157
स्तौ	-11.3157
▁शाक्त	-11.3158
▁सक्य	-11.316
भक्त्या	-11.316
ासत्तया	-11.3161
▁देवमनुष्य	-11.3163
ेकदेश	-11.3168
▁स्वामी	-11.3168
▁मरीच	-11.3168
▁षण्ण	-11.3168
दासी	-11.317
मेतदवोचत्	-11.317
▁कामेसु	-11.3174
संदर्शन	-11.3176
▁अश्न	-11.3177
▁नवक	-11.3178
▁अनुत्पन्न	-11.3178
ब्धि	-11.3178
प्रवण	-11.3179
गाढ	-11.318
▁समेत्य	-11.318
▁बाध्य	-11.318
▁निर्विशेष	-11.3183
नूद्य	-11.3183
▁गौतमी	-11.3183
▁निन्न	-11.3183
▁अतुल	-11.3184
खात	-11.3184
▁दधान	-11.3185
▁प्रययौ	-11.3186
धृति	-11.3188
ादिविषय	-11.3188
▁अनुत्तरायां	-11.3188
र्तव्य	-11.319
▁दिष्ट्या	-11.3193
▁पराशर	-11.3194
▁रेच	-11.3195
▁कङ्ख	-11.3196
जन्त	-11.3196
ष्टोत्तर	-11.3196
वृद्धये	-11.3197
प्रशमन	-11.3197
▁भोक्ता	-11.3199
▁प्रज्ञायन्ते	-11.3201
▁तुय्हं	-11.3201
▁वुसो	-11.3204
ार्दित	-11.3205
▁पक्षधर्म	-11.3205
▁सम्पजा	-11.3206
▁वत्तति	-11.3208
स्तृतीय	-11.3209
▁दोह	-11.321
गतिर्	-11.3212
च्चित्त	-11.3212
हन्यते	-11.3213
▁विञ्ञात	-11.3214
▁ऽमृत	-11.3216
▁विषुव	-11.3219
▁चाक्षुष	-11.322
▁सुहृद्	-11.3222
▁जगतां	-11.3229
▁पच्चनी	-11.3229
▁वेष्टय	-11.3231
▁आकाङ्क्ष	-11.3232
▁संसग्	-11.3232
▁आभि	-11.3235
▁आपत्ती	-11.3236
▁दिग	-11.3238
क्ष्यामि	-11.3241
सङ्ख्या	-11.3241
▁फरुस	-11.3242
▁समाधौ	-11.3243
▁उपदिश	-11.3244
समवायिकारण	-11.3245
▁वर्षशत	-11.3246
▁अब्भु	-11.3247
▁लेख्य	-11.3248
ह्री	-11.3248
▁धत्त	-11.325
भाविन	-11.325
वह्न्य	-11.3253
▁सन्तीति	-11.3255
▁परिकीर्तितम्	-11.3255
▁मकार	-11.3256
▁मेत्थ	-11.3257
रुक	-11.3257
ान्यतर	-11.3257
▁गवेस	-11.3257
▁निर्वृति	-11.3258
▁वर्तन्ते	-11.3258
▁महासुर	-11.326
▁शैक्ष	-11.3261
तर्पय	-11.3263
शीतल	-11.3263
▁द्युति	-11.3264
▁समाश्रित	-11.3264
▁कुमारभूत	-11.3266
पुरस्कृत	-11.3269
▁श्रोत्रिय	-11.327
▁हेतुत्व	-11.3271
▁निबद्ध	-11.3272
प्रेक्ष्य	-11.3272
परिहाण	-11.3273
▁वास्तव	-11.3274
षण्ड	-11.3275
लंकार	-11.3277
▁पौत्र	-11.3278
▁पहर	-11.3278
ार्चि	-11.3278
पराध	-11.3283
बहिर्	-11.3284
▁उन्मत्त	-11.3285
ोद्धत	-11.3285
▁सन्ताप	-11.3287
▁विप्रेन्द्र	-11.3289
▁फलक	-11.3289
वासर	-11.3294
▁तत्त्वज्ञान	-11.3296
▁प्रबन्ध	-11.3298
▁एकदिवसं	-11.3298
▁दस्सितो	-11.3299
▁निःस्वभाव	-11.3299
▁उपेत	-11.3302
▁भीरु	-11.3304
स्मिन्न्	-11.3305
▁लघ	-11.3308
वृत्तेः	-11.331
श्वत्थ	-11.3312
ैरिव	-11.3313
प्रवर	-11.3314
म्लान	-11.3315
▁प्रतिगृह्य	-11.3315
▁ढ्	-11.3316
▁आसन्	-11.3316
धर्ष	-11.3317
▁प्राङ्मुख	-11.3318
च्छ्रुत	-11.3319
▁पाट	-11.3319
▁अञ्ञात	-11.3319
▁संगम	-11.332
ावस्थान	-11.3323
चैतसिक	-11.3325
संगम	-11.3329
▁अश्रु	-11.3332
▁आगम्य	-11.3332
▁उट्ठा	-11.3336
प्रेरित	-11.3337
चतुष्क	-11.3338
ान्तरमाह	-11.3338
▁प्रबल	-11.3338
क्रतु	-11.3342
▁बुद्धान	-11.3343
▁आमिस	-11.3345
▁क्षुत्	-11.3347
▁ओतर	-11.3347
▁सनातनः	-11.3348
▁मन्वन्तर	-11.3348
▁सत्कार	-11.3349
▁थेरेन	-11.3349
▁जीविक	-11.3349
▁कालान्तर	-11.3349
▁रत्नानि	-11.3353
▁निशाचर	-11.3354
न्यून	-11.3356
▁थिक	-11.3356
▁समन्वागतो	-11.3358
▁प्रवर्तक	-11.3358
▁विशां	-11.3359
ानामिति	-11.3362
▁विदू	-11.3364
भ्युपगत	-11.3364
ाचक्षते	-11.3367
▁तुष्टि	-11.3368
शिक्षा	-11.3374
ानामेव	-11.3375
▁तिट्ठन्	-11.338
ोत्पत्त	-11.3381
▁वायम	-11.3383
▁अनिदस्सन	-11.3384
▁चुण्ण	-11.3384
▁वेश्या	-11.3384
ादत्ते	-11.3389
गच्छत	-11.339
▁जातिया	-11.3391
▁ऽसुर	-11.3391
माष	-11.3391
शक्तिर्	-11.3394
स्तीत्य	-11.3395
ापवाद	-11.3396
▁जग्ग	-11.3396
▁व्याकृत	-11.3397
युज्यमान	-11.3397
भूयिष्ठ	-11.3401
▁मीन	-11.3404
▁आसुर	-11.3404
▁अपच	-11.3405
▁अर्थान्तर	-11.3406
▁सुजात	-11.3406
▁शङ्कु	-11.3407
▁मनोज्ञ	-11.3407
▁यञ्जन	-11.341
पूरक	-11.3411
▁पूरक	-11.3411
▁चक्रवर्ति	-11.3412
▁उदाहु	-11.3415
▁व्यापाद	-11.3421
साधर्म्य	-11.3421
तिमिर	-11.3421
▁माघ	-11.3421
▁कर्त्र	-11.3425
लक्ष्मण	-11.3426
▁प्रक्षिप्य	-11.3426
▁कृतकृत्य	-11.3426
▁निसज्ज	-11.3428
▁ब्रुवाण	-11.3429
▁संवर्त	-11.3431
▁यमानो	-11.3432
▁दव	-11.3435
▁मन्त्राणां	-11.3436
त्वाभावात्	-11.3436
ाग्रतः	-11.3437
तेषां	-11.3438
▁आयात	-11.3439
▁शार्ङ्ग	-11.3441
द्विगुण	-11.3442
भिस्त	-11.3444
▁वस्तुनः	-11.3446
▁रद	-11.3447
लोकधातु	-11.3448
▁मध्यस्थ	-11.3448
▁शोधय	-11.3451
▁निद्दिस	-11.3452
▁बहवः	-11.3453
▁कार्यत्व	-11.3454
वपति	-11.3454
▁सद्धिन्द्	-11.3456
भीक्ष्ण	-11.3457
प्रासाद	-11.3458
▁प्रभाते	-11.3458
क्षोभ्य	-11.346
▁बाहू	-11.346
▁अमोघ	-11.3461
▁विरोधि	-11.3463
▁चतुष्क	-11.3463
▁मनुस्सेसु	-11.3464
मर्त्य	-11.3464
ोपदिष्ट	-11.3465
लिह	-11.3465
िन्यै	-11.3465
▁ऽहम	-11.3466
▁जातवेद	-11.3467
▁दध्न	-11.3468
होरात्र	-11.3469
▁ब्रह्मोवाच	-11.3471
▁आनिसं	-11.3471
▁दद्याद	-11.3473
▁एत्थापि	-11.3473
कर्तव्यता	-11.3473
ध्वर	-11.3474
व्यापकत्व	-11.3474
▁क्रोश	-11.3474
▁कामिनी	-11.3476
▁क्षिप्रम्	-11.3477
▁वसव	-11.3481
राज्ञी	-11.3482
▁एकत्त	-11.3486
▁भूत्	-11.3487
विवाद	-11.3487
▁पिनाक	-11.3488
नामधेय	-11.3489
▁ऽग्निर्	-11.3491
निकेत	-11.3491
विक्षेप	-11.3491
प्रहार	-11.3492
ादयस्	-11.3496
▁उद्दिस्स	-11.35
खेद	-11.3501
▁आस्वाद	-11.3504
समुद्भूत	-11.3506
छन्द	-11.3507
▁वङ्क	-11.3509
षड्	-11.351
▁उपट्ठान	-11.3514
▁ददामि	-11.3514
▁प्र्मो	-11.3515
▁भेदाभेद	-11.3517
▁अविद्यमान	-11.3517
सङ्कल्प	-11.3518
विपक्ष	-11.3519
भ्रुव	-11.3519
साक्षात्कार	-11.352
▁समासतः	-11.352
पादान	-11.3521
▁प्रतिष्ठापयति	-11.3521
ुत्थाय	-11.3523
▁कथञ्च	-11.3525
▁भट्ट	-11.3525
▁आवह	-11.3528
▁यज्ञ्स्	-11.3531
म्बिका	-11.3532
▁सेध	-11.3532
▁उपट्ठ	-11.3535
▁शकट	-11.3538
▁वृत्तौ	-11.3539
▁प्रादु	-11.3539
▁अशन	-11.354
म्बुज	-11.3541
मुभय	-11.3542
▁पूषा	-11.3542
दारुण	-11.3548
▁निर्वर्त	-11.3549
▁ब्रह्मचारिण	-11.355
▁अत्थी	-11.3551
▁प्रतिलब्ध	-11.3553
▁तुरीय	-11.3555
पनय	-11.3556
▁पवारण	-11.3556
▁हृषीकेश	-11.3558
▁टी	-11.3559
▁हुला	-11.356
▁वासिनो	-11.3562
▁स्वात्मनि	-11.3562
▁भगवंस्	-11.3562
पवाद	-11.3565
▁वासी	-11.3567
▁अत्थस्स	-11.3567
▁कल्पते	-11.3567
▁अच्छरि	-11.3567
▁योगिनः	-11.3568
▁ब्रवीमि	-11.357
▁व्रीहि	-11.3572
▁न्याय्य	-11.3576
दाडिम	-11.3577
▁मर्दयेत्	-11.3579
द्यथा	-11.3581
▁अप्सु	-11.3582
वर्य	-11.3583
▁एवायं	-11.3583
▁गोकुल	-11.3584
दारिद्र्य	-11.3587
रुवाच	-11.359
▁उद्दिश्य	-11.3591
ोच्चार	-11.3592
द्भिर	-11.3595
▁तूष्णीम्	-11.3597
▁कलिङ्ग	-11.3598
▁भुजग	-11.36
▁सम्प्रति	-11.3602
▁आहवनीय	-11.3603
▁धज	-11.3604
दिग	-11.3605
ञ्चेव	-11.3605
ुन्नत	-11.3605
▁वस्त	-11.3608
▁ओक्कम	-11.3608
▁तेभ्यः	-11.3611
नीत्या	-11.3612
गृह्यमाण	-11.3614
▁जङ्गम	-11.3614
▁पोसथ	-11.3615
▁छिन्दित्व	-11.3618
▁अनिट्ठ	-11.3621
▁पूर्वक	-11.3623
▁संगृह्य	-11.3625
प्रचार	-11.3625
▁रुप्प	-11.3625
▁पूरय	-11.3626
प्रामाणिक	-11.3626
वरुण	-11.3628
ानुशय	-11.3628
▁संबोधि	-11.3629
व्याकुल	-11.3629
▁सुदारुण	-11.363
▁प्रतिलभते	-11.3631
ोऽत्र	-11.3631
तर्जन	-11.3634
▁पञ्चभिर्	-11.3634
▁विनश्य	-11.3635
▁कश्चिन्	-11.3638
ाभिप्रायेण	-11.3639
▁पुनरुक्त	-11.3639
▁चारिकं	-11.3639
▁सुगन्धि	-11.3643
शालि	-11.3644
रावण	-11.3644
▁याहि	-11.3645
तीत्याह	-11.3648
ार्चित	-11.3649
तृष	-11.3651
कीर्य	-11.3652
रोष	-11.3652
▁संसन्	-11.3653
दृष्ट्वा	-11.3653
▁विष्णुना	-11.3654
ुचित	-11.3654
मथापि	-11.3655
रिपु	-11.3656
ादीति	-11.3657
▁चतुर्णां	-11.3658
▁एकून	-11.3662
ेष्टि	-11.3664
पत्राणि	-11.3666
▁प्राप्नो	-11.3667
र्चय	-11.3667
परीत	-11.3668
▁सुष्ठु	-11.3669
▁याचन	-11.3669
▁भत्त्	-11.367
स्वातन्त्र्य	-11.367
कराल	-11.3671
शुक्र	-11.3676
मत्स्य	-11.3677
▁मानुष्य	-11.3677
न्त्व्	-11.368
▁यावज्जीव	-11.368
▁प्रतिबन्धक	-11.3681
श्चत्वार	-11.3683
▁प्रवर्तन्ते	-11.3684
▁किरीट	-11.3685
▁सप्पाय	-11.3689
मन्त्रित	-11.369
▁यजते	-11.3691
भिमन्त्रित	-11.3693
मुहूर्त	-11.3693
▁इधापि	-11.3696
▁सन्तत	-11.3698
▁नूनम्	-11.3698
▁किमपि	-11.3699
र्बुद	-11.37
▁अभूषि	-11.3701
▁प्रतिकूल	-11.3702
▁आकर्ण्य	-11.3706
▁बृहती	-11.3707
त्यादौ	-11.3708
▁नियोजयेत्	-11.3708
▁अहंकार	-11.3709
त्विष	-11.3709
▁पुरश्चरण	-11.3711
तीव्र	-11.3712
▁मानुस	-11.3715
▁सावज्ज	-11.3715
▁भङ्गक्	-11.3717
निबन्ध	-11.3719
▁सात्यकि	-11.372
▁साध्यते	-11.372
▁षट्कोण	-11.3723
▁विनापि	-11.3724
ापहम्	-11.3725
▁पुट्ठो	-11.3725
▁विद्यया	-11.3728
▁तिआदी	-11.373
लक्ष्म	-11.3733
ार्थक्रिया	-11.3734
▁व्याख्येय	-11.3735
शिरा	-11.3736
▁नृसिंह	-11.3736
ाहुती	-11.3737
सिद्धत्वात्	-11.3738
▁वितान	-11.3738
▁यदाह	-11.3742
▁सम्बोध	-11.3743
▁भिसङ्	-11.3745
▁छड्ड	-11.3747
मन्यु	-11.3748
▁निद्दिट्	-11.3749
गुल्फ	-11.375
▁एषु	-11.375
जितेन्द्रिय	-11.3751
ेय्युं	-11.3751
▁धातुयो	-11.3751
प्येक	-11.3754
ीप्सित	-11.3755
मर्ध	-11.3756
लक्ख	-11.3758
बिन्द	-11.3759
लम्बित	-11.376
विशेत्	-11.3761
▁प्रकर्तव्य	-11.3761
▁बन्धित्वा	-11.3763
▁चोम्पोउन्द	-11.3765
ूनाम्	-11.3774
द्दि	-11.3776
▁केनचिद्	-11.3776
▁चतुर्धा	-11.3776
▁नोपलभ्यन्ते	-11.378
स्फुरण	-11.3781
▁स्वाप	-11.3782
क्लिन्न	-11.3782
▁उद्यत	-11.3786
▁निक्षिप्य	-11.3787
▁एतस्मा	-11.3788
▁विधिर्	-11.3789
▁पर्येष	-11.379
परिशुद्धि	-11.379
वाक्यार्थ	-11.3794
क्षिपेत्	-11.3797
▁पुरिसिन्द्	-11.3799
गूह	-11.38
सिद्धिर	-11.3804
▁वैष्णवी	-11.3804
यित्व	-11.3807
▁हेव	-11.3807
हेतू	-11.3808
▁पठेत्	-11.3809
ैतन्	-11.3809
▁सुभद्र	-11.3814
▁परमार्थतो	-11.3814
मारुह्य	-11.3815
▁स्फुरति	-11.3816
▁थम्भ	-11.3818
▁दुग्गति	-11.3818
▁उषस	-11.3819
▁त्री	-11.3819
स्खलित	-11.382
▁आहरि	-11.382
▁अज्ञात	-11.3821
▁अश्वमेध	-11.3821
संतप्त	-11.3822
प्रातिहार्य	-11.3825
ोज्झित	-11.3825
िनौ	-11.3826
▁पथ्य	-11.3826
दुर्लभ	-11.3827
भिनिविश	-11.3827
▁द्विजसत्तम	-11.3829
ोद्दिष्ट	-11.3834
टवी	-11.3834
मृदु	-11.3837
▁अप्पना	-11.3837
भीषण	-11.3842
▁पित्र्य	-11.3845
शेषतः	-11.3848
रस्ति	-11.3849
▁क्षणिकत्व	-11.385
ाश्रयण	-11.3851
पृथिवी	-11.3852
▁वपुर्	-11.3854
मित्येत	-11.3854
▁परीत्त	-11.3854
▁चतुर्विंशति	-11.3855
▁भित्त्वा	-11.3855
▁मेधावी	-11.3855
र्ऽथ	-11.3855
▁उद्धृत्य	-11.3856
▁अभिधा	-11.3857
द्रु	-11.3857
द्दश	-11.3857
▁सेख	-11.3861
चिरेण	-11.3863
ानुगम	-11.3864
▁सम्यग्ज्ञान	-11.3864
सङ्कर	-11.3864
▁एतेनाति	-11.3868
▁संमत	-11.387
▁प्राणापान	-11.387
ङ्कु	-11.3871
मत्या	-11.3872
यशस	-11.3875
स्माभि	-11.3877
ैकैक	-11.3877
द्वंद्व	-11.3878
सादन	-11.3878
▁सर्वगत	-11.388
ोत्पादन	-11.388
प्रणिध	-11.3881
▁वेश्म	-11.3882
पङ्क्ति	-11.3883
▁महेसि	-11.3889
▁महल्	-11.3891
▁खार	-11.3895
▁द्या	-11.3896
▁थाम	-11.3896
च्चैव	-11.3896
▁अद्यापि	-11.3897
▁ततस्तु	-11.3897
न्तथा	-11.3898
▁अम्ल	-11.3898
सूचन	-11.3899
▁चाग	-11.3899
▁विक्खम्भ	-11.39
▁ऽहनि	-11.3901
▁वर्जय	-11.3901
ुदीरित	-11.3903
रजस्तम	-11.3903
▁चोद्य	-11.3903
▁महीपतिः	-11.3904
▁साक्षात्कार	-11.3905
▁समुद्धृत्य	-11.3909
कारान्त	-11.3912
▁मिलित	-11.3913
निर्यात	-11.3913
तादात्म्य	-11.3915
▁प्रतिज्ञात	-11.3917
धर्म्म	-11.3918
ोन्मत्त	-11.3918
▁मूल्य	-11.3919
▁पञ्चविंश	-11.3919
मभ्यर्च्य	-11.392
▁गन्धक	-11.3921
▁खीर	-11.3923
नुमीयते	-11.3926
▁अवच	-11.3928
▁भजते	-11.3928
ष्टदल	-11.393
षष्ट्य	-11.3932
नाडी	-11.3934
▁निद्धा	-11.3936
▁गोपी	-11.3936
▁श्रोत्रविज्ञान	-11.3937
पंच	-11.394
▁विलम्ब	-11.3942
विनाशनम्	-11.3943
रुधिर	-11.3945
▁दुक्कर	-11.3946
▁गण्ठि	-11.3946
▁परिहर	-11.3946
निर्गम	-11.3948
▁श्रावण	-11.3948
कलत्र	-11.3949
▁हिरण्यगर्भ	-11.3951
ासीत	-11.3951
▁अतीतानागत	-11.396
▁विघात	-11.3961
▁मनीषिण	-11.3962
त्येष	-11.3965
▁नमस्य	-11.3965
▁शंभु	-11.3965
ोन्म	-11.3965
एव	-11.3965
▁प्रभास	-11.397
▁आलिङ्ग	-11.3973
▁त्राय	-11.3974
▁विवृणोति	-11.3976
▁अद्धान	-11.3976
▁विष्णवे	-11.3976
▁श्रूयतां	-11.3976
▁यथाशक्ति	-11.3976
भ्युपेत	-11.3978
▁संजय	-11.3978
▁दिके	-11.3979
▁धनद	-11.3984
जह	-11.3985
▁भिक्षुणा	-11.3988
▁अजर	-11.3988
▁प्रज्ञप्त	-11.3988
▁पञ्चरात्र	-11.3989
चतुः	-11.3992
▁परिकीर्तितः	-11.3992
▁ज्योतिष्	-11.3993
▁यावत	-11.3993
▁मुनयो	-11.3993
▁प्रतापवान्	-11.3995
▁असक्त	-11.3996
▁वासन	-11.4
▁सकुण	-11.4004
ान्यथ	-11.4004
खेट	-11.4006
▁समङ्गी	-11.4006
▁कुतश्चिद्	-11.4007
▁दीपिका	-11.4007
[...]
